#version: 0.2
Ġ t
Ġ a
Ġt h
i n
Ġ s
e r
Ġ w
Ġth e
Ġ o
i s
i t
r e
Ġ b
n d
Ġ m
Ġ f
Ġ h
Ġ I
a t
Ġ c
in g
o r
e d
o u
e s
e n
Ġ p
Ġ d
a s
o n
l l
Ġa nd
Ġ l
Ġt o
Ġ it
Ġ n
o t
Ġ g
a n
a r
Ġo f
v e
u s
u t
Ġh a
l e
Ġ e
c t
Ġ is
Ġ in
o m
i c
T h
Ġ re
Ġo n
l y
Ġb e
Ġth is
v er
o d
Ġw as
a l
o w
Ġf or
Ġs t
Ġ y
c h
g h
i r
a y
k e
i d
Ġm y
m e
Ġm o
Ġw h
en t
e t
Ġn ot
b r
l d
Ġ Th
Ġ /
Ġ/ >
Ġth at
i e
Ġp r
it h
Ġy ou
i on
a ll
u r
a d
Ġl i
Ġb ut
Ġw ith
c e
Ġs h
t er
r i
s t
t h
Ġ us
. .
Ġs o
' t
i l
e l
Ġl o
Ġha ve
Ġs e
v ie
p p
Ġa s
Ġa n
Ġ A
ou ld
â Ģ
gh t
Ġ u
er e
r a
Ġ S
all y
' s
ĠTh e
s e
Ġd o
Ġg o
ver y
i f
u ct
o l
i ll
us t
âĢ Ļ
Ġa re
c k
Ġli ke
od uct
Ġw or
ĠI t
re at
Ġw e
Ġpr oduct
i m
Ġ j
Ġmo vie
Ġha ir
b le
Ġc h
Ġ B
Ġa ll
Ġ W
u l
o k
Ġo r
. <
Ġe x
Ġa t
Ġn e
Ġ D
er s
Ġc om
Ġ M
Ġon e
a in
as t
a m
p e
Ġs u
q u
Ġm e
on e
an t
Ġ very
Ġ r
Ġo ut
a g
Ġthe y
Ġj ust
ou t
es t
Ġf r
Ġa l
Ġ C
es s
r y
om e
Ġgo od
Ġg et
Ġd e
Ġ H
is t
ic e
Ġh e
Ġ N
Ġw ould
Ġ/> <
a k
Ġd id
a ck
Ġf e
at ch
! !
u n
Ġwor k
Ġs c
Ġt i
Ġa b
v en
Ġc an
i ve
Ġ k
o p
Ġg reat
on g
Ġ T
Ġp l
Ġus e
e m
i es
Ġha d
Ġu p
Ġfr om
Ġf a
Ġdo es
ou gh
ar t
u m
Ġ (
ic k
Ġti me
Ġa ct
Ġc on
Ġn o
a ke
o re
Ġb r
Ġlo ok
Ġmo re
Ġan y
o s
Ġl e
Ġ P
ot h
at e
a p
Ġyou r
Th is
Ġw atch
f ter
Ġre ally
Ġd is
ar d
Ġ L
u re
Th e
a us
Ġh as
it e
Ġw ill
Ġ qu
Ġthe m
Ġa m
Ġsh ow
a me
Ġlo ve
Ġab out
Ġbe c
Ġ v
i g
Ġ G
Ġb u
t le
Ġ if
Ġwh en
at ion
Ġc o
a nd
a ct
Ġwh at
Ġs ome
f e
v ed
aus e
in t
in e
Ġu n
it y
Ġf il
ou ght
in d
Ġ F
i ght
Ġa g
Ġth an
Ġwe ll
u ch
Ġfil m
me ll
Ġof f
Ġs k
a ble
ur n
Ġp re
Ġd on
ar s
Ġe ven
Ġon ly
t e
Ġ O
Ġ en
Ġ 1
Ġc l
Ġ R
Ġa fter
id e
.. .
ou nd
Ġo th
Ġ E
Ġbec ause
or t
Ġm uch
ou s
u e
is h
ay s
or y
ĠTh is
Ġsk in
Ġw ere
Ġs mell
Ġo ver
o int
Ġwh o
p t
ic h
Ġ 2
ir st
ad e
Ġto o
Ġus ed
h ing
a re
Ġb y
i z
Ġre c
s o
Ġthe se
in k
Ġbe t
Ġs p
Ġc ol
Ġbe en
g e
Ġcom p
Ġc ould
Ġh ow
Ġth ere
Ġoth er
a il
Ġpr o
Ġbu y
o nd
as e
Ġm ake
Ġm an
Ġp er
a z
a pp
Ġ &
Ġfe el
vie w
Ġse e
Ġf irst
Ġb l
Ġa d
Ġ J
ag e
m o
m ent
Ġa pp
p er
Ġch ar
as on
3 4
v es
a ve
Ġdid n
Ġcol or
Ġl it
Ġw ant
Ġl ong
Ġk n
Ġe very
o y
Ġt w
i re
Ġa r
if f
d er
Ġag ain
Ġp ur
Ġy e
Ġst ory
e p
fe ct
Ġ "
Ġs er
Ġh is
t o
en s
Ġbet ter
I t
o se
Ġt ri
f ul
Ġ -
Ġt e
ow n
f t
me nd
c i
Ġdoes n
u ll
Ġwh ich
Ġlit tle
Ġb ack
a b
f f
us h
om mend
t ing
v ing
ou r
one y
Ġus ing
' m
Ġh er
Ġd iff
u d
Ġe nd
Ġw ay
i p
i ly
er y
Ġrec ommend
Ġb ad
app oint
al ity
Ġ im
Ġg ot
Ġd ry
o od
a ch
Ġm oney
Ġt r
Ġm ade
o ve
at h
Ġa w
Ġl ot
Ġe as
t y
o o
' ve
Ġ 3
Ġpur ch
i le
Ġchar act
Ġ V
l es
ak es
Ġal so
Ġth ink
Ġl ast
pe ct
n t
Ġp e
Ġh o
Ġc le
Ġne ed
Ġth r
Ġdis appoint
Ġt ry
Ġth ing
n e
Ġb o
as h
Ġkn ow
ul t
Ġthe ir
Ġthe n
re s
Ġre view
i gh
ĠW h
Ġit s
k s
Ġb ot
oth er
en ce
Ġe y
f ore
Ġ i
Ġf l
r it
Ġne ver
Ġcon t
Ġ Y
Ġ ke
Ġs a
Ġst ill
u ally
an g
Ġqu ality
Ġin to
Ġdiff er
at er
b e
as ed
Ġn ow
o g
p l
Ġm in
Ġn ail
Ġre t
i ous
a ce
at ed
Ġbr ush
th ing
ion s
om et
as s
an ce
Ġsh e
ut e
Ġn ice
Ġtw o
Ġp ut
Ġb ought
el f
Ġse em
Ġor der
i ct
ĠA m
g in
Ġbe fore
am p
Ġs m
Ġg l
Ġs et
Ġo ld
an s
Ġha pp
Ġd ay
Ġf un
Ġp art
ĠThe y
Ġpr ice
Ġ U
Ġb est
Ġfa ce
nd er
Ġman y
e ver
re e
o b
Ġser ies
or m
Ġd es
ri ght
ri ble
Ġs omet
Ġha nd
ĠB ut
im es
a u
Ġret urn
Ġye ars
u p
op le
Ġch e
Ġthr ough
Ġsc ent
Ġmo st
Ġs ame
f in
j oy
V D
G reat
Ġsh ould
Ġs ay
Ġse ason
Ġfe w
o ll
it ion
ic al
ĠM y
Ġst art
Ġpe ople
or s
Ġf ind
Ġne w
Ġe ver
Ġh ard
Ġwor th
ra nd
Ġp ack
ĠD VD
Ġtri ed
Ġre al
Ġex pect
v ies
Ġ K
ar y
n y
a c
Ġth ought
Ġs l
t ty
Ġin ter
az on
w e
er t
Ġe p
Ġre s
Ġdisappoint ed
Ġa c
ve l
& #
Ġmo vies
ĠI f
ĠN ot
Ġo p
Ġen joy
h e
is od
re d
Ġh igh
r ay
Ġc ur
Ġsomet hing
Ġwork s
ar k
Ġg u
p s
Ġke ep
Ġd own
Ġdiffer ent
Ġ ra
Ġpl ay
r ong
r o
es e
ĠA nd
ver s
u b
fin ite
Ġgo ing
Ġli ght
p le
Ġ ent
i al
ak ing
Ġep isod
Ġb it
Ġu nder
finite ly
Ġeas y
Ġwatch ing
Ġsm all
Ġc ame
Ġ& #
Ġt imes
Ġs pe
au gh
Ġen ough
Ġm on
Ġpre tty
l i
ĠC h
.. ..
Ġbe ing
os s
Ġf ound
Ġwe e
Ġh el
in ce
w h
Ġg ive
Ġp o
ĠS o
Ġwas te
x t
Ġsu re
Ġm ay
ent s
Ġbot tle
Ġ 5
res s
Ġin st
at ing
Ġm akes
Ġlook ing
n ing
Ġ 4
Ġw a
Ġim p
u ff
Ġ right
i ld
Ġsc en
w n
Ġre ce
is e
ĠAm azon
!! !
e ct
Ġcharact ers
Ġact ing
iz e
Ġnot hing
E R
Ġin c
Ġex t
b er
Ġper fect
ate ly
Ġho ld
Ġde c
Ġwh ile
Ġwith out
i pp
Ġso ft
re am
a ut
is s
Ġc ut
w ays
L ove
Ġg r
g et
Ġproduct s
Ġcomp le
Ġse c
Ġan other
Ġf in
Ġhe ad
ri gin
Ġre ad
Ġwh ere
ut es
O T
ĠS t
c es
i ved
Ġc ou
Ġb ig
) .
Ġe l
Ġact ually
Ġsu per
ĠY ou
Ġst ick
Ġt ra
Ġmon th
v or
Ġmin utes
Ġt urn
u al
az ing
Ġf ar
ĠI n
Ġh or
Ġreview s
Ġo rigin
Ġop en
ĠTh ere
Ġcle an
Ġh im
Ġth ough
Ġth ick
ath er
Ġs ince
ĠA l
l ess
h er
ast ic
0 0
Ġad d
t en
k ed
ire ct
Ġp ol
Ġse en
N ot
Ġde finitely
ĠT H
at ur
Ġpl ot
Ġat t
n g
Ġche ap
Ġmo ist
Ġpurch ase
Ġlook s
Ġab s
ond er
Ġinter est
f ort
Ġt er
Ġg i
f orm
Ġal ways
Ġany thing
ĠW e
Ġbe l
Ġaw ay
M y
Ġar ound
Ġli fe
Ġdis c
Ġhel p
ert ain
Ġt ake
Ġnail s
ie nd
Ġcom e
Ġto p
re ad
Ġwant ed
Ġo il
ð Ł
Ġsmell s
ab ly
p r
Ġlo ved
ict ure
Ġcharact er
Ġcomple te
mo st
ce ll
Ġh our
ci al
Ġw rit
Ġrece ived
e ad
Ġb rand
i ble
Ġfa vor
Ġd irect
ĠV ery
Ġorigin al
Ġ .
Ġsu pp
ig n
Ġd one
Ġf ine
od y
Ġst uff
Ġd ays
I N
Ġo wn
an ge
re en
b s
Ġf ull
ol ute
Ġit em
Ġl ess
a v
' re
Ġp ow
Ġw on
Ġwh y
o ck
Ġ $
f fect
Ġsh a
s elf
Ġth ose
Ġp icture
V ery
Ġwas n
Ġwas h
Ġapp ly
Ġc are
Ġco nd
Ġsec ond
Ġam azing
ul ar
Ġw ater
o es
at ter
cell ent
Ġf am
l f
Ġm as
Ġst ars
pp ed
Ġh ere
Ġso ap
Ġ vers
id s
r or
Ġd ri
Ġbo x
ĠH e
m er
el t
Ġin s
Ġpurch ased
Ġs ur
Ġbe aut
Ġre f
Ġbo ok
ble m
Ġv ide
Ġc ra
ĠN o
ash es
augh ter
' ll
Ġ es
ation s
Ġk ind
ers on
ĠN OT
Ġb oth
Ġsh amp
Ġpro blem
Ġre g
Ġs im
ĠH ow
Ġal most
Ġw onder
Ġmoist ur
Ġle ft
Ġsu ch
Ġbel ie
Ġf o
on s
w ard
or d
Ġd ra
Ġhapp y
Ġs mo
Ġqu ick
W h
Ġj ob
c ri
Ġget ting
- -
g r
Ġre mo
atur al
u ck
Ġorder ed
Ġp oint
Ġis n
it ed
Ġcond ition
Ġwatch ed
n ot
ĠS e
Ġseem s
Ġtry ing
it ive
re ak
Ġex p
g g
Ġsa id
Ġcon s
Ġfun ny
c ess
p h
Ġon ce
olute ly
Ġst rong
Ġye ar
Ġcur l
i v
Ġe m
Ġwe ar
Ġwho le
ce pt
Ġ ir
Ġha lf
Ġshamp oo
d ay
Ġh um
i x
Ġthing s
Ġe ffect
ed i
en se
Ġfavor ite
Ġre d
Ġf an
Ġd ark
Ġst ay
) ,
Ġe ach
as y
o ke
Ġre ason
Ġstart ed
n ess
Ġmoistur iz
Ġsu b
Ġr o
u c
ĠR e
ic ally
it s
ith er
Ġo ur
Ġp erson
Ġm us
Ġl ine
Ġc ream
th e
is ed
i an
if ul
ou nt
Ġsmo oth
r u
i ence
a ir
Ġth in
Ġvers ion
Ġst ra
Ġo k
Ġp le
Ġey e
Ġexpect ed
Ġmake up
Ġs ize
Ġw ish
Ġfeel s
Ġepisod e
Ġse ver
Ġey es
Ġpre s
Ġre l
Ġcom es
Ġt y
um p
u me
os ed
Ġst ar
Ġpol ish
Ġpo or
Ġcolor s
Ġfr iend
Ġcould n
Ġc ast
a le
Ġfa ct
Ġget s
or ing
Th ese
Ġl et
Ġte ll
a w
Ġm ust
Ġd aughter
Ġsp ray
m an
r ist
l ic
Ġbot t
Ġn atural
read y
Ġvide o
Ġfam ily
Ġel se
Ġmonth s
ĠG reat
Ġm ess
Ġle ast
Ġact ors
ĠB e
Ġf elt
if t
Ġf all
es ome
at ure
v ious
Ġun t
ĠD on
Ġw ent
Ġ1 0
Ġbuy ing
Ġd el
Ġal ready
Ġcomplete ly
Ġa ble
l ed
Ġs ens
ar ly
ĠS h
Ġevery thing
Ġwa it
i er
Ġco ver
Ġre pl
Ġwork ed
Ġm iss
Ġp h
Ġwee k
Ġeas ily
Ġis s
ci ally
Ġm ight
Ġra z
I D
' d
ri ved
Ġw ar
Ġsh ort
Ġhapp en
l ud
Ġ view
Ġre m
t ed
Ġinterest ing
Ġch ild
Ġsever al
Ġlong er
n er
Ġdes cri
Ġfor m
Ġres ult
Ġex c
G ood
Ġg en
re me
ot s
Ġne xt
Ġqu ite
Ġth ree
Ġli ked
Ġgo es
Ġepisod es
Ġscen es
ow s
Ġf ra
Ġle a
ĠHow ever
ĠD e
Ġshow s
Ġunt il
Ġpl ace
Ġter rible
ar a
st and
Ġto ok
Ġb reak
Ġ âĢ
Ġr un
Ġst ore
pe cially
Ġcou ple
Ġg ave
i a
Ġpro b
Ġact ion
i b
i me
at ive
an k
Ġl ashes
Ġh op
Ġ2 0
Ġ 6
ent ion
id ed
ens ive
Ġe v
Ġha ving
i ed
ir d
ag ing
Ġp ie
Ġb urn
Ġ ed
u nd
re n
Ġd ur
Ġlook ed
!! !!
e w
Ġb ody
Ġabs olutely
Ġ ,
en c
Ġany one
Ġy et
O N
Ġent ertain
ĠB l
c o
u es
Ġse ll
Ġprob ably
ĠA s
Ġac c
Ġex per
Ġc ap
Ġg re
fort un
ĠS he
Ġn ight
Ġwould n
if e
Ġgu y
Ġ '
al k
ok en
Ġf oll
Ġinst ead
Ġstra ight
Ġst y
get her
Ġw om
b and
e ll
Ġpl astic
Ġper form
Ġent ire
ĠJ ust
ĠTh at
Ġhour s
Ġk ids
ing s
ir l
Ġcl ass
Ġg ift
ĠWh en
re t
o ok
ull y
Ġc ase
Ġs ound
L L
Ġbeaut iful
Ġwee ks
Ġinc lud
pt ion
Ġoth ers
Ġe ither
we en
! <
Ġsome one
ĠAl so
Ġhand s
Ġp ain
Ġp ay
Ġsa w
I f
l ine
O R
Ġbl ack
ĠW ill
Ġbelie ve
Ġp ast
Ġcl ose
at es
Ġbe gin
Ġ ide
Ġm aking
Ġto gether
V E
ĠWh at
Ġapp e
Ġhor rible
g er
Ġwork ing
an y
s c
e e
Ġf ast
Ġenjoy ed
Ġg el
Ġbet ween
Ġquick ly
Ġst and
ĠTH E
Ġwh ite
Ġd et
Ġle ave
Ġb le
A T
ic ed
ip s
Ġfilm s
fortun ately
Ġb ag
ĠU n
ad es
in y
are d
Ġm ain
Ġc reat
Ġf it
Ġl ow
Ġmay be
Ġwor st
Ġshow er
ag ed
A S
Ġcom b
ĠCh rist
Ġs ide
Ġhow ever
in s
Ġto t
Ġc r
Ġmus ic
l ing
Ġon es
Ġbr oken
Ġfoll ow
Ġraz or
Ġm ir
reme ly
ic s
Ġw rong
ĠA fter
Ġfeel ing
Ġes pecially
Ġsh ave
Ġf ree
t s
Ġey el
Ġdo ing
Ġsens itive
I S
Ġco ll
id es
i o
Ġre st
Ġlot ion
Ġho pe
ar n
Ġ1 9
re w
it ch
Ġli p
in es
Ġcont in
Ġwonder ful
Ġbr oke
z z
ĠO n
Ġp ull
? ?
Ġsc r
ion al
Ġfin ish
Ġre le
Ġar rived
ĠF or
Ġc or
Ġm om
Ġgu ess
on t
âĢ Ŀ
ver t
Ġc ar
Ġin d
us band
Ġex cellent
Ġtr ue
o c
Ġcondition er
Ġb oring
ĠL ove
Ġch ang
Ġh ot
ment s
Ġsur pr
Ġl ar
Ġsl ow
Ġa v
Ġt akes
Ġs ays
Ġits elf
Ġcont ain
wh ere
Ġrepl ace
r uct
d d
qu ot
Ġwor ld
m a
er ic
Ġyou ng
Ġco st
Ġs w
Ġpack age
S o
t on
Ġneed ed
E S
IN G
Ġag o
Ġlo ves
Ġw ig
Ġc all
ent ly
en g
b ed
Ġs it
Ġm ar
id er
Ġd am
Ġex act
Ġam ount
Ġst o
Ġscen e
Ġin v
Ġunder stand
g an
ĠA ll
Ġh ome
Ġh usband
Ġl ist
Ġpow er
Ġsu n
Ġg irl
a h
Ġin t
ou ch
o st
Ġsupp osed
Ġcomp l
D id
Ġbrush es
iz ed
ĠâĢ ľ
Ġmy self
th ough
E D
f er
Ġ :
Ġ z
Ġtri m
Ġc ute
Ġdiffer ence
Ġcle ar
Ġspe cial
Ġhe av
ĠT V
Ġaw ful
Ġlea ves
Ġv al
el s
on est
Ġext remely
il ar
Ġbott les
Ġresult s
Ġfra gr
N D
Ġhigh ly
Ġdur ing
Ġ ing
ed y
ar r
Ġ 8
Ġs we
or ks
Ġh ist
Ġtra vel
p art
m ber
ast e
Ġexp ensive
Ġo b
ct ion
Ġad vert
Ġde al
i ent
um ent
Ġr ather
Ġend ing
th er
f ully
um b
Ġdel i
ou se
E x
Ġ ðŁ
m as
Ġw ife
v ice
Ġide a
er ally
Ġn orm
Ġmas c
R E
Ġpack aging
Ġl augh
Ġmir ror
Ġb as
Ġre p
O U
Ġk ill
Ġdec ided
Ġim m
Ġs ad
in er
v d
ect ion
ic ult
Ġex pl
k y
e x
Ġopen ed
Ġg ra
ipp ing
Ġdes ign
Ġst op
ĠJ o
Ġs ing
R e
Ġcan not
ĠAm eric
li ke
i ke
a id
Ġm ind
o ol
ire d
ay be
ant ly
ĠW ould
at s
Ġc our
ĠTh ese
Ġ ri
al s
m s
Ġreg ular
Ġevery one
Ġing red
Ġsto pped
Ġar t
Ġke pt
Ġdo c
i ents
ĠO ne
The y
Ġtr ans
Ġseem ed
Ġimp ress
Ġso l
o ld
Ġty pe
Ġexc ited
or ies
Ġch ange
Ġper f
Ġd vd
ri ll
w ay
Ġaw esome
Ġpr op
Ġm ag
Ġb ar
Ġm or
Ġdiff icult
Ġ 7
as ing
Ġgl ue
Ġl ater
oss ible
an c
Ġc op
Ġus ually
u be
Ġw r
Ġr id
u y
ĠD o
r oduct
Ġcomp any
Ġfragr ance
c om
Ġv is
ck s
Ġme an
Ġsc reen
Ġs y
ar ch
Ġins ide
ul ous
Ġapp lic
Ġs on
Ġa ud
Ġb ath
are nt
ĠG ood
s ter
Ġh y
Ġsc ri
Ġref und
Ġheav y
o ved
or ant
vel op
Ġmasc ara
er n
Ġt ouch
Ġwor se
Ġexact ly
Ġpow der
Ġscri pt
Ġso on
Ġha ven
ri ed
Ġwith in
Ġm atter
Ġp ort
Ġentertain ing
Ġf ing
Ġext ra
Ġr oll
Ġir rit
Ġremo ve
ĠA n
Ġstick y
ĠD is
qu e
if ic
ĠE ven
Ġcour se
Ġdoc ument
Ġv i
ĠN ow
eng th
m ing
Ġd r
Ġpr ot
Ġturn ed
up id
Ġm od
Ġs ense
Ġle ad
Ġpro v
Ġs ent
Ġch o
* *
u ge
N o
el ess
I n
Ġbe ard
un ch
D oes
Ġcon f
Ġwrit ing
Ġr ub
Ġexper ience
Ġde od
Ġto day
ĠC l
oth ing
ist ic
Ġ 9
Ġfa ir
Ġo ily
Ġcon c
ar b
Ġfl at
Ġe t
Ġb ased
an e
ĠI T
Ġch em
Ġli ps
Ġtw ice
an ces
Ġeffect s
p ly
Ġe le
s y
Ġal ong
Ġgl ad
ore d
Ġf ant
Ġ3 0
id d
Ġclass ic
Ġgre asy
xt ure
Ġpie ce
Ġdry er
ol og
Ġfin ally
ĠL O
Ġde velop
ar p
ĠB r
mell s
ut h
Ġhop ing
Ġde p
ul a
Ġfe ature
Ġs al
A N
Ġs ch
Ġgi ves
Ġd ial
J ust
Ġnot iced
b ut
Ġdisappoint ing
Ġl ength
Ġli ve
j ect
Ġb are
Ġd ue
a x
Ġfe ll
Ġdeod orant
u per
Ġco ol
od uc
Ġs at
Ġh onest
ur d
Ġp ass
c c
Ġsell er
] ]
Ġfor ward
in ess
Ġc ertain
Ġp ick
Ġf ore
Ġsty le
Ġm atch
ow ing
Ġval ue
em pt
me mber
ĠF r
Ġet c
ĠC an
Ġs il
Ġimm edi
[ [
i or
Ġfriend s
Ġex cept
ent ed
Ġw et
g s
res h
Ġ !
u ly
Ġwor d
Ġf ig
Ġd ist
Ġus es
Ġperf ume
Ġl ack
Ġan im
Ġse x
m y
id ent
ap s
li ed
Ġinst ruct
ater ial
Ġm en
Ġsee ing
A R
Ġcom edy
Ġneed s
Ġtot ally
nd ing
Ġh uge
Ġiss ue
l ish
Ġlo st
Ġa part
Ġgi ven
Ġm ix
ck ed
Ġend ed
Ġas s
Ġnot ice
Ġlar ge
ist s
er a
Ġim ag
is f
Ġhappen ed
Ġdial og
al p
Ġle arn
Ġ- -
Ġdri ed
Ġcons ider
et h
Ġb oy
Ġchild ren
er g
Ġlo c
A s
fort able
h n
L E
Ġpart ic
Ġp aid
Ġs n
Ġan n
Ġp os
Ġiss ues
Ġpre vious
ter s
Ġm aterial
ĠChrist mas
al m
un k
Ġsl ight
Ġseason s
ĠS p
Ġthink ing
Ġhe al
at or
Ġir on
Ġst r
Ġbl ades
ĠB U
ĠA t
ust om
m ore
ĠM aybe
Ġingred ients
w ood
ure d
Ġbe h
ne y
in ed
Ġph ot
o pe
Ġreturn ed
Ġwrit ten
et s
Ġte xture
Ġpr om
Ġf ill
Ġcl ipp
Ġcont r
âĢ ¦
Ġimmedi ately
Ġcom ing
Ġst upid
Ġm is
Ġsim ply
ĠD oes
Ġsc alp
V ER
ke t
Ġpro f
ĠM o
an n
Ġhe at
Ġmoisturiz er
Ġre member
Ġl ines
Ġn on
T H
ter n
Ġdec ent
Th ere
Ġhum or
Ġover all
Ġend s
Ġwe ird
Ġdocument ary
Ġsh arp
S t
at ic
en e
et ic
Ġhum an
Ġfe et
il ity
Ġrecommend ed
Ġof ten
Ġn ame
Ġtr uly
ĠU S
Ġhand le
W e
o or
ĠTh en
Wh at
Ġd y
Ġproduct ion
Ġbare ly
Ġact ual
or n
Ġty p
Ġb atter
ĠSe ason
Ġa ir
Ġm ult
Ġpart s
Ġt ang
D on
ious ly
et y
O ne
E N
Ġreplace ment
Ġkeep s
Ġm ention
Ġg rand
s ide
ĠL e
r ic
st ick
Ġop in
Ġatt empt
Ġcompl ain
ĠP l
Ġt reat
ĠA r
Ġwom an
Ġhist ory
Ġok ay
Ġhe art
Ġav ail
Ġf ri
Ġadvert ised
Ġhair s
Ġset ting
or ry
Ġfa il
Ġmo ve
v ent
ar ing
Ġapp lied
Ġwom en
Ġlit erally
Ex cellent
Ġmiss ing
Ġt al
Ġc aus
ra ph
is m
Ġm edi
ver all
Ġdescri ption
Ġg one
Ġsha ving
ĠD id
1 0
ib ly
Ġob vious
Ġfa ke
ĠS ome
Ġfo ot
ĠWe ll
re ct
Ġt alk
j ust
Ġcom m
Ġplay ed
er ing
Ġp ink
Ġc ustom
a pe
is ing
Ġcoll ection
Ġco at
g ed
Ġh ate
Ġf our
a j
nd ed
Ġexpect ing
Ġh ouse
Ġperform ance
h ip
ab y
Ġv ol
ĠW ith
it ing
Ġv ar
ĠA ND
ĠJo hn
Ġm ist
Ġcon st
Ġpartic ular
w ise
er ed
th is
Ġs le
ac ed
Ġs us
m p
z y
Ġchang ed
l er
Ġbr own
Ġhor ror
o ver
s s
Ġp op
Ġin te
Ġann oy
Ġl ay
u ed
Ġlast s
Ġd ou
Ġme m
Ġform ula
Ġperfect ly
ĠP er
ĠS c
Ġs ave
Ġnorm al
Ġfri zz
2 0
ĠC om
Ġavail able
Ġhel ps
E O
pp ing
Ġ1 5
Ġgi ving
o x
Ġ Q
an ks
Ġsch ool
ic ulous
s on
Ġcons ist
ĠE very
ak ed
Ġto ld
Ġopin ion
b ing
am es
Ġcle ans
Ġs elf
Ġple as
Ġd a
Ġbr ist
ĠN e
arb age
Ġro le
Ġf ight
en ing
Ġli qu
Ġp ump
as ter
ĠLO VE
Ġit ch
Ġbegin ning
it ies
Ġti ght
Ġan t
Ġmor ning
p ar
wh at
Ġdirect or
Ġf resh
Ġmoisturiz ing
ĠR E
Ġimpress ed
or k
Ġare n
Ġse qu
Ġpe el
Ġact or
s h
O O
W orks
Ġt on
Ġimp ort
ĠT o
Ġyour self
a im
ent ial
ĠUn fortunately
ri me
A w
V ID
g es
ĠE ng
Ġdo ll
c ed
Ġst uck
Ġcurl s
Ġapply ing
i en
Ġpre d
Ġr ating
Ġb ase
Ġt ube
Ġ Z
Ġtr ash
Ġcur ly
Ġfant astic
ipp ed
Ġcontin ue
Ġsh ipping
Ġfound ation
er o
Ġsim ilar
Ġst ud
L Y
Ġwear ing
Ġb ra
u g
Ġatt ach
Ġput ting
Ġproblem s
og raph
Ġbec ome
ĠP r
Ġst ories
Ġin form
l t
ĠH igh
Ġsing le
Ġw in
Ġpurch asing
M E
ĠTH IS
Ġpr oduc
ro om
Ġlast ed
ĠAmeric an
Ġsurpr ised
Ġm ine
Ġany more
Ġinc red
is ion
Ġsha ver
b y
Ġcou nt
Ġwe ak
o f
Ġ ve
Ġe ar
Ġbook s
Ġse al
Ġthrough out
ra ct
Ġ ...
Ġk it
on y
Ġcop y
e c
Ġwa x
Ġdry ing
Ġs ort
Ġqu est
Ġk id
um ps
Ġpro g
Ġle vel
Ġs ong
Ġt it
Ġread ing
ip le
Ġdra ma
enc y
gg est
A l
Ġm et
Ġag e
Ġprop er
v able
Ġw ra
amp le
Ġbu ild
Ġc ause
Ġde ep
ot e
Ġapplic ation
Ġst ri
Ġgen er
Ġsmall er
h aps
.. ...
VID EO
Ġrele ase
? <
m in
Ġbl ade
ee z
VIDEO ID
ic es
Ġbl ue
ĠDe finitely
Ġliqu id
it al
ure s
ut ion
sc reen
Ġguy s
Ġspe nd
Ġsu ggest
Ġdescri bed
Ġare a
ĠD O
Ġreturn ing
Ġe ff
Ġh ur
Ġvi ol
n ter
l ight
Ġre nt
ĠW or
Ġchem ical
el ves
Ġb right
Ġcor rect
Ġdam aged
Ġkn ew
Ġpl an
th y
Ġli k
ill y
ĠO N
. "
Ġbott om
Ġde ad
oll y
Ġhe ard
: <
Ġchar ge
S T
Ġn um
ĠE x
Ġbrist les
Ġun less
r oss
Ġre act
Ġb and
Ġrid iculous
ur ch
Ġda ily
Ġf ans
Ġinstruct ions
Ġpre fer
Ġt aking
Y ou
Ġser vice
) <
en ed
Ġ1 00
Ġto ol
Ġst e
Ġlot s
Ġdialog ue
ĠK e
Wh en
ain s
Ġre qu
P roduct
Ġro om
le ase
Ġr u
Ġg arbage
Ġt iny
Ġte ch
er rible
us ed
Ġmag n
Ġsay ing
Ġcl ips
Ġf ive
Ġmult iple
idd le
om b
Ġagain st
Ġb other
he ad
ĠIt s
ĠG od
s ed
Ġtrim mer
i ves
or rible
Ġv o
Ġsmell ed
l and
ict able
Ġpie ces
Did n
Ġsp ent
ĠTh ank
c on
Ġple ased
Ġad ult
Ġpres ent
Ġsat isf
Ġf ut
Ġstory line
Ġscr ub
n o
ĠBl u
ak en
Ġqu e
C T
B e
ĠW as
ail s
Ġt est
Ġd ull
Ġmas k
Ġinclud ed
Ġport ray
Ġsh ot
A L
ĠM ar
W as
g ing
ust r
Ġl ab
ĠO r
ol es
ou d
Ġsomet imes
I T
Ġwas ted
y ing
ud e
Ġcontr ol
Ġappe ar
Ġbl ow
Ġin f
Ġannoy ing
Ġl a
Ġt an
i que
y s
L oved
ra m
Re ally
in em
aj or
Ġcontain er
as es
O W
in ation
Ġeffect ive
A fter
Ġpl us
" .
re ci
Ġatt ention
is ter
is on
Ġsha pe
Ġb aby
A Y
urd y
Ġbeh ind
Ġscr atch
o id
Ġch ance
i od
Ġo cc
ĠO ther
ĠðŁ ĺ
d r
Ġdon t
r iend
ĠT O
Ġpoor ly
Ġal though
ang u
ĠI s
Ġtw ist
Ġem ot
m ed
s elves
nd s
o ff
Ġp ot
Ġc am
on es
Ġdeli ver
Ġs qu
Ġbrand s
Ġr om
Ġabs or
Ġadd ed
in c
ĠWh y
T oo
Ġam azon
Ġm ot
Ġe arly
Ġshow n
1 9
Ġfut ure
Ġbl ond
I C
Ġprof ess
Ġcra p
g reat
ĠEng lish
ĠR ob
Ġbu d
Ġsw itch
Ġpl ays
N ice
ĠOn ly
Ġp ar
Ġcl aim
ĠI S
ĠS O
F or
Ġset s
Ġturn s
pl ay
Ġs ign
Ġbr ing
Ġapp reci
Ġm iddle
Ġgr ow
O n
n a
Ġsim ple
Ġcall ed
Ġso ld
Ġwe ight
ĠS te
Ġitem s
Ġpr act
Ġne g
Ġcap t
ward s
Ġold er
Ġcom ment
Ġplay er
Ġcra zy
Ġh it
Ġadd ition
Ġc art
B ought
pp er
m it
Ġbatter y
Ġm ajor
olly wood
Ġcl os
Ġst ays
Ġple ase
Ġl angu
ie f
Ġsh ed
Ġdisappoint ment
S mells
l o
Ġnice ly
ĠS T
Ġeas ier
or ge
Ġser um
us s
Ġl ate
Ġmom ents
p ite
at t
i ally
Ġplay ing
Ġo pp
Ġmin ute
Ġtot al
Ġclipp ers
Ġslight ly
Ġst urdy
Ġb ed
d ing
Ġcom fortable
ograph y
Ġpur p
Ġsupp ort
Ġan g
Ġbec om
Ġse nd
Ġsun screen
Ġ1 2
Ġp ossible
i k
Ġre se
Ġpres s
Ġhonest ly
h ow
Ġ/> -
Ġvol ume
Ġlo ose
Ġpr im
Ġn arr
Ġimport ant
ĠS uper
ard s
Ġcheap er
ĠT oo
Ġcertain ly
y ond
Ġpo st
s et
ĠWh ile
ĠHigh ly
em ent
Ġth ird
ap t
Ġm other
Ġr ough
ag es
Ġc inem
ĠRe ally
Ġcover age
Ġas k
Ġcustom er
Ġor gan
Ġcle arly
Ġprot ect
ret ch
Ġper iod
t it
Ġ est
re nt
Ġcomp ared
Ġlip stick
_ _
Ġcont act
wh ich
ri b
Ġbas ically
Ġeff ort
Ġun fortunately
Ġsh iny
in a
Ġne arly
o ot
Ġte en
Ġinv ol
p ir
e ar
b ody
re aking
Ġeye br
Ġpro cess
Ġimp r
Ġmost ly
Ġorder ing
Ġne ar
" ,
A D
Ġbud get
Ġkn own
Ġhold s
ĠO F
Ġpred ictable
ĠL ook
Ġopen ing
Ġfl ick
Ġy es
ll ing
Ġac ross
Ġche ck
oo f
Ġev ent
Ġse par
Ġwas hing
Ġal one
Ġb us
us e
en er
Ġen g
Ġall ow
ĠT r
Ġsu m
Ġus eless
Ġeyel iner
Ġsu c
Ġc red
Ġres id
ĠL ike
Ġaud ience
h ol
Ġlangu age
f or
Ġthr ow
Ġth rill
Aw esome
F irst
Ġgot ten
Ġstart s
Ġdri es
Ġn one
P er
Ġtech n
Ġwait ing
) .<
Ġwr ite
Ġthem selves
Ġc ent
Ġor ange
ou th
Ġt aken
t ime
Ġbec ame
Ġpol it
Ġfing ers
Ġpos itive
Ġsol id
g ood
Ġwash ed
ĠJ ack
Ġd ig
Ġm ass
R O
ir t
Ġrel ations
ĠS er
Ġb all
Ġt em
ĠO verall
ðŁ ĺ
Ġfr ont
Ġem pt
Ġn or
ĠH ollywood
Ġsus p
Ġfall ing
g o
Ġfa cial
re tty
ore s
Ġ ess
B est
Ġac ne
ad ow
C H
Ġperson al
ap er
e y
Ġpre m
ĠN O
Ġw ind
Ġd ru
Ġhelp ed
Ġd i
ol i
r ing
ĠF irst
iv id
ent y
bs olutely
en ces
Ġf ix
Ġme ans
U n
Ġhe ar
d ate
o il
enc il
Ġc re
ri f
Ġpicture s
Ġwant s
Ġdis s
A m
Ġl ather
Ġreal ize
Ġtit le
Ġhapp ens
Ġrece ive
Ġspe c
it ter
Ġne ck
le y
Ġfo c
Ġsal on
Ġall erg
Ġg reen
Does n
Ġde fect
Ġmo ving
Ġsp ace
Ġf ather
Ġfig ure
Ġenjoy able
Ġsome what
Ġout side
Ġst retch
Ġimp ossible
Ġrem ind
Ġup on
Ġnum ber
Ġswe et
Ġwrit ers
Ġse arch
Ġbeaut y
Ġfore ver
Ġde ath
Ġdra w
ir c
Ġgirl s
Ġus ual
Ġno se
ĠB E
Ġsp ong
ou p
Ġcl oth
c l
Ġm at
ad ing
ate ver
ol or
Ġth rew
ĠV ER
v al
ent le
ation al
Ġempt y
Ġinclud ing
Ġa uth
A n
Ġwar m
ĠSt ar
Ġsle ep
Ġrec ently
us ing
Ġlea ving
ĠY OU
Ġproper ly
A ll
Ġo d
Ġblond e
Ġbe yond
gh ter
Ġcompl im
Ġcon cept
b el
appoint ed
ĠI N
Ġword s
Ġwork out
Ġa ff
i ant
Ġt ub
Ġevery where
Ġt one
Ġon line
Ġresid ue
Ġsecond s
op s
R I
ĠN ew
Ġl ad
ĠH ad
Ġclean ing
Ġfeature s
ĠC on
Ġz ero
Ġhim self
Ġmy ster
Ġcare ful
ac es
Ġg ri
Ġbig ger
Ġres p
Ġsu ff
Ġconsist ency
ĠT om
Ġl uck
Ġd est
ed ic
Ġimpr ove
Ġli ves
Ġb unch
Ġ: (
co hol
o on
Ġvo ice
Ġcon v
Ġdis p
Ġloc al
en n
ĠP rime
ain ed
Ġdes er
Ġsh ine
ĠW aste
Ġrele ased
Ġst re
Ġdisc s
Ġperform ances
9 9
ĠVER Y
Ġrun ning
in ing
Ġvide os
Ġp oss
W or
Ġoil s
ict ion
ĠN othing
Ġneg ative
Ġsub tit
ĠP lease
Ġpur ple
Ġmess age
Ġinform ation
Ġcl ip
im sy
f oli
r on
Ġinterest ed
ilar ious
app y
. )
Ġtr ou
all ow
Ġdeli very
Ġc irc
Ġpleas ant
w o
is es
T errible
Ġble nd
ĠWh o
Ġlo s
er m
ru gg
Ġst iff
Ġcut ting
ĠA ny
Ġb al
Ġh ang
Ġst ep
Ġho ok
Ġcont ent
le v
um es
Ġdou b
ll ow
ot t
Ġprofess ional
Ġsp l
ĠM ich
Ġfin al
ĠQ u
ĠA LL
m b
ĠP h
Ġtalk ing
Ġen c
B ut
le t
Ġcar ry
em s
ĠY es
Ġmiss ed
est ing
iz ing
5 0
ĠM r
ĠH A
Ġsp ots
Ġpurp ose
Ġbl ood
Ġo ption
Ġeyel ashes
Ġti p
Ġevery day
b b
Ġact ress
Ġad v
Ġpain ful
ir ty
Ġc ult
ĠDoes n
Ġte ach
A nd
D is
Ġr out
Ġon to
r op
Ġo dd
Ġcur rent
Ġmom ent
Ġin ch
Ġcam era
gr ound
ĠIn st
ĠSt ill
Ġlab el
Per fect
Ġs orry
arent ly
Ġfair ly
Ġod or
Ġentertain ment
ad s
Ġele ct
Ġmedi um
Ġfollow ed
u f
Ġ5 0
Ġt ape
ï ¸
Ġ: )
Ġsit u
et her
Ġst rugg
Ġg entle
ï¸ ı
Ġb alm
Ġe qu
ĠG l
Ġal cohol
un ny
Ġm ach
Ġother wise
r ow
Ġreact ion
A LL
Ġdis g
Ġdevelop ment
Ġsuc cess
Ġt v
Ġser ious
Ġre pe
Ġd ate
Ġappe ars
Ġb on
d e
ĠCh ar
cess ary
Ġex foli
Ġobvious ly
iz es
Ġsh ade
W ell
et urn
le ct
Ġto w
Ġad just
Ġbr ought
Ġhy dr
ĠB rit
; .
ĠO f
Ġlar ger
Ġgl itter
Ġdirect ions
Ġm il
Ġde m
Ġl ash
Ġg ame
i ving
Ġext ens
ĠDVD s
a el
Ġfl aw
H orrible
re al
Ġgr oup
Ġle g
Ġb rill
Ġfall s
Ġinst all
Ġp air
gg ed
Ġre ach
Ġcon ne
Ġvar i
Ġfr ustr
ĠW ar
Ġphot o
Ġ2 00
Ġhist or
Ġhop es
ĠW AS
Ġcol og
Ġcho ice
Ġc rit
Ġgl ass
Ġviol ence
ou n
ĠM c
m m
Ġc ord
Ġsp ot
Ġact ed
Ġmist ake
ĠM ost
Ġlik es
Ġthan k
Ġexpect ations
ver age
Ġsatisf ied
Ġw ood
Ġfrizz y
au ght
it tle
Ġnorm ally
Ġfe m
ad o
Ġbut ter
D o
b o
Ġw alk
Ġfl imsy
Ġsh ock
c y
un g
Ġp arent
Ġany way
Ġsc ary
Ġare as
Ġcaus ed
it es
ĠBU Y
or der
Ġsusp ense
Ġp encil
ang er
I E
Ġl id
ct or
i ans
Ġp ig
rib ly
ĠH is
ĠP e
u ce
Ġsmell ing
ain ing
Ġhead s
Ġw ays
ĠM an
Ġde v
Ġt aste
ill a
ĠBU T
Ġex ample
Ġed ge
Ġburn ing
am ed
Ġdirect ion
ar m
ri es
Ġle gs
Ġdark er
b ack
Ġview ing
Ġaud io
Ġno vel
Ġind ivid
Ġo per
Ġdam age
Ġser iously
Ġprog ram
ĠE d
i et
ur der
olog y
Ġappreci ate
Ġstr ange
Ġinv est
pp y
l us
Ġ er
c ent
w are
Ġconst antly
Ġf ile
ur y
i am
Ġspe ak
Ġp ush
Ġgo ld
Ġbecom es
Ġmoist ure
Ġl iner
Ġmod ern
Ġti ps
Ġ ill
ĠW atch
ir th
Ġup set
ĠE l
Ġfull y
Ġdefect ive
Ã ©
Ã ³
Ġle aked
ĠN ever
Ġre ality
Ġsh ame
Ġwh atever
Ġstore s
Ġtra il
Ġbath room
Ġher o
Ġs ister
ĠF e
e ven
Ġar ri
Ġbl u
O k
O M
ren ch
Ġquest ion
G H
we ight
ĠTh anks
ant s
Ġp ale
Ġsubtit les
Ġs illy
Ġcurl ing
ĠA d
Ġr ate
Ġlast ing
Ġ20 1
er en
Ġab ove
3 0
Ġr ash
Ġj unk
l ow
Ġ ..
Ġacc ur
uf act
Ġtri p
Ġav oid
ĠM e
ĠO K
Ġinter view
Ġfing er
Ġlo l
Ġhur t
Ġun it
ĠE asy
Ġfam il
ok es
Ġgl oss
ould n
Ġdeliver ed
Ġ8 0
Ġdru g
ill ed
Ġcomplim ents
le x
Ġincred ibly
Ġl oud
Ġview er
Ġmas ter
ĠDis ney
Ġsh ip
Ġfo am
Ġmet al
ad ed
Ġc atch
K E
l ove
Ġrese arch
Ġsy st
ĠN E
Ġper haps
ĠH er
z e
U T
ri g
ĠW I
ĠW H
Ġthe at
ĠMo vie
Ġas pect
Ġtw eez
Ġshow ing
aut iful
ĠDid n
if ully
Ġprem ise
ust ing
Ġcl ump
ap an
Ġchang es
Ġlove ly
Ġcra cked
S e
Ġlike ly
Ġd ro
Ġac cept
S h
Ġsong s
a ves
Ġfor get
Ġthick er
i est
Ġbus iness
Ġdes pite
lev ision
Ġc ry
Ġcolog ne
Ġst ink
Ġcount ry
Ġdidn t
Ġsub ject
M A
Ġye llow
ter esting
en a
ill s
r as
ĠW ish
Ġscent s
Ġco ld
Ġread y
Ġburn ed
a ving
Ġj ar
ĠS m
Ġfill ed
Ġmix ed
ie ce
n ers
Ġfoot age
s w
if ied
Ġreal ized
Ġd umb
Ġimag ine
Ġ9 0
Ġfor g
Ġst ream
Ġman ufact
b l
c ause
Ġcut s
t ra
? !
ĠB uy
ĠW orks
I L
Ġshow ed
ple te
un t
Ġfem ale
Ġcleans er
al se
Ġhe ld
ĠC o
Ġpack aged
Ġknow s
Ġbad ly
Ġitch y
Ġw eren
ou l
Ġf ire
Ġpower ful
ars h
Ġb ene
v y
8 0
Ġdirect ed
r oy
Ġany where
Ġback ground
Ġte am
Ġas ked
Ġev il
Ã Ń
Ġb at
Ġf re
Ġsp read
w atch
ar ry
ĠS mells
ĠA ct
Ġsa fe
Ġo pt
Ġkind a
Ġgr oss
Ġhard ly
o e
Ġsy n
i ar
Ġsu cks
Ġv ill
w ork
Ġri p
Ġbelie vable
f i
Ġdra m
Ġa verage
Ġr ich
Ġreg ret
b ers
Ġdisc over
Ġu lt
ac y
es y
Ġdo g
Ġtrans fer
ĠF OR
Ġremo ver
Ġti red
i pe
ĠS ave
Ġremo ved
Ġdoub t
Ġvis ual
Ġstart ing
Ġm urder
c le
ĠD av
Ġf ur
Ġme ant
Ġ2 4
Ġinte ll
.. .<
ĠC ar
I R
a ly
Ġp aper
Ġh ilarious
Ġle ak
li er
p ow
Ġp ure
p or
Ġocc as
Ġp ub
Ġsm ud
H ow
Ġtrou ble
Ġswe at
Ġdy e
Ġto wn
pr oof
Ġli ving
Ġt en
ce ived
ĠD r
Ġev ents
ĠM O
Ġheal thy
Ġr ound
Ġkeep ing
Ġun com
ie ld
Ġte levision
ĠO h
Ġdet ail
Ġp en
!! !!!
Ġf its
Ġcreat e
6 0
Ġp atch
Ġco ats
ĠOn ce
Ġfl ow
f riend
n joy
i ver
ur ing
sy ch
ĠH ave
ĠPl us
ĠH ope
Ġrout ine
ress ed
Ġde fin
C h
Ġsurpr ise
-- --
ĠMich ael
Ġkn ock
Ġnot e
or ough
Ġtang led
Ġanim ation
ĠB ra
Ġfinish ed
Ġag ree
Ġo bs
Ġsum mer
Ġpot ential
D e
a ven
ĠB ad
L D
et te
ĠB y
Ġsc rew
Ġsyst em
e en
Ġtyp ical
Ġt re
Ġmention ed
stand ing
ĠJ apan
Ġin it
Ġd ied
Ġfig ured
Ġlearn ed
h es
ĠAl though
L ike
Ġs ix
Ġpl enty
Ġm elt
Ġsupp ose
n ed
S E
ĠC he
Ġm ark
Ġw ide
Ġinvol ved
ire s
i um
Ġreal istic
bel ie
E asy
ing ly
Ġeyebr ows
Ġt int
, "
Ġextens ions
Ġrec ord
Ġreview ers
g ar
Ġsub tle
B LE
Ġconc ern
Ġun ique
ant ic
Ġparticular ly
Ġstand ard
Ġref er
im p
c ome
Ġcou nter
ðŁ ĳ
Ġtr uth
Ġraz ors
Ġex ist
Ġsur v
Ġrelations hip
u ing
Ġw all
h ere
ĠS H
as c
Ġpull ed
Ġhe ll
Ġspong e
Ġm ild
Ġhold ing
Ġp at
Ġ 0
e ed
ad a
pe nd
ĠS E
Ġpain t
Ġfoc us
enc ed
Ġconsider ing
ac ing
Ġr an
ĠR eturn
Ġra re
U R
ĠF l
Ġpig ment
r ant
Ġal tern
to o
Ġmin im
ĠB est
Ġpicture d
ĠG o
Ġw ip
r om
A C
Ġbe at
Ġtri es
Ġw at
RE AT
Ġc ant
Ġpr int
ion ally
onder ful
Ġwant ing
Ġg un
Ġsub st
Ġme et
Ġv s
Ġpl ain
Ġli ghter
Ġun us
Ġpl aces
Ġtell ing
Ġhigh light
Ġstay ed
Ġcomple x
Ġres pect
rif ic
Ġwh ether
Ġb reaking
Ġmus ical
Ã ¡
Ġr ock
Ġli ft
Ġb irth
S uper
Ġdoll ars
Ġtreat ment
Ġsit ting
Ġem b
Ġd irty
f ace
ĠP roduct
Ġble ach
Ġaff ord
oo oo
Ġst ated
Ġapp ro
k in
C an
ĠAmeric a
Ġ ut
ĠE VER
Ġdou ble
ĠN ice
Ġdig ital
A bsolutely
er man
Ġprim er
Ġprov ide
Ġcl osed
a ul
Ġd ream
Ġs ides
ach e
Ġbut ton
Ġb ored
Ġgener al
Ġvari ety
g est
id ing
Ġw and
ĠBl ack
T o
y l
Ġ id
es tern
er c
il t
ĠA N
ok ing
Ġbene f
Ġwind ow
ci ous
ce l
Ġparent s
Ġc ard
c ond
con ut
Ġj oke
E very
Ġdest roy
Ġmo ves
Ġ4 0
Ġmach ine
Ġv an
Ġallerg ic
Ġincred ible
Ġsc ience
Ġs ick
ĠH air
ress ing
ĠG e
Ġkill ed
Ġmod el
ot ton
ĠJ ames
Ġ X
1 5
if y
ag er
Ġtr ust
Ġsequ el
or able
Ġsp oil
ON E
Ġvar ious
us hing
Ġmat te
Ġcon ven
Ġsil ky
Ġd ie
Ġseal ed
Ġbe gan
Ġc amp
Am azing
Ġcinem at
Ġbeaut ifully
ĠT ot
A P
Ġyoung er
Ġhigh er
Ġsome how
Ġmar ket
Ġfollow ing
Ġru ined
ĠS ince
Ġco conut
Ġinclud e
ALL Y
Ġreg ard
Ġmess y
ĠInst ead
H S
im ate
Ġindivid ual
Ġ6 0
ic le
g ain
Ġm outh
Ġbas ic
me t
Ġan sw
Ġchemical s
Ġproduc ed
od e
ĠBrit ish
Ġcomp ar
b all
un ity
Ġde f
. &#
Ġtr ick
Ġbrill iant
ĠP et
Ġf ly
Ġtw ists
Ġ #
Ġtyp es
Ġuncom fortable
ĠS ad
Ġp ores
orge ous
a i
Ġperson ally
Ġpay ing
Ġun able
Ġa f
Ġw it
ut ed
Ġfor ced
app ed
Ġsc i
Ġexper i
On ly
Ġm id
Ġfind ing
op h
Ġsmooth ly
atur ally
ĠC le
Ġre v
Ġrel ax
Ġl and
an ch
Ġlay er
re l
Ġf ir
Ġgen re
EN T
Ġp sych
Ġun like
et ter
Ġheal th
Ġun s
y n
Ġpr ime
Ġlo se
Ġfa ult
ist ry
a a
Ġsuper b
Ġad mit
Ġevent ually
Ġdet ang
Ġst ock
ĠT re
Ġl aw
th etic
Ġthe me
Ġsp ir
y p
Ġlo ss
Ġj ump
ĠS P
r d
Ġirrit ation
Ġelect ric
Ġman age
e v
Ġfail ed
in o
ĠI nd
Ġdep th
ng th
ĠRob ert
Ġwe bs
Wh ile
h ost
Ġant i
Ġcon ce
anc ed
I ON
Ġgra b
Ġad vent
Ġth orough
Ġpolit ical
G E
ĠH ard
ry lic
Ġlow er
Ġmean ing
rop ri
ĠB at
Ġm uy
Ġc otton
Ġpoint s
ab ility
Ġde vice
ke y
Ġapp arently
Ġwin ter
it ions
Ġoff er
Ġar ms
Ġcloth es
al ing
Ġad apt
Ġlist ed
ĠW OR
ut er
Ġtr ad
Ġdri ll
Ġf alse
y ou
ĠDis appointed
Ġmoisturiz ed
ĠB ig
h ood
ĠD an
Ġc al
O verall
ĠV HS
Ġc up
Ġ *
Ġph ys
Ġlight weight
Ġcontain s
Ġint rig
Ġf ol
er v
Ġcreat ed
M e
Ġform at
on na
Ġm ill
Ġwat ery
uct ion
r is
Ġs and
Ġsound s
ing e
a f
t te
Ġ1 8
Ġpr ior
Ġp ers
Ġr ose
Ġm ent
ðŁ ı
Ġmyster y
Ġcomp are
Ġess ential
n ight
ĠR ed
V IE
ĠI m
e k
Ġbr other
Ġcomplain t
Ġmon ster
Ġt at
ur t
Ġal ot
Ġtal ent
Ġche esy
Ġrepl aced
Ġbon us
in se
Ġint r
Ġcover ed
S ome
Ġcinemat ography
Ġfilm ed
im ately
Ġwra p
ie l
u it
em ing
ĠPer fect
re st
Ġacc ident
A r
k ward
Ġpre p
4 0
Ġfur ther
Ġhas n
Ġex ec
Ġhop ed
ĠA pp
Ġdaughter s
Ġprevious ly
s p
a ur
Ġc aught
1 2
Ġun f
Ġar m
Ġs our
Ġl amp
Ġrel ig
?? ?
00 0
Ġthe ater
Ġm ail
ent ic
It s
Ġt able
Ġtweez ers
Ġdur able
Ġed ges
Ġsh ipped
ed s
Ġaccur ate
Ġch all
Ġr oles
Ġpeel ing
Ġwr ink
Ġgreat est
Ġb ul
c er
ic a
Ġtra ck
Ġb reat
Ġa ch
Ġcre ep
L ook
Ġso fter
ut s
ont in
Ġear lier
ĠP ro
Ġl ame
res hing
Ġ rand
Ġup date
Ġpro ject
r ays
ĠFr om
Ġabs olute
Ġd im
Ġcl ich
Ġroll er
ish ed
Ġes c
Ġthan ks
Ġirrit ated
Ġexc iting
Ġdram atic
Ġclipp er
Ġtravel ing
or ter
Ġhook ed
wh el
Ġhistor ical
Ġp ara
Ġpart y
Ġwater proof
Ġac rylic
Ġh arsh
ar ning
Ġcra ck
.... ..
Ġstre ngth
Ġtow el
Ġvers ions
Ġhelp ful
Ġmem bers
Ġaw are
ĠK ing
is k
Ġac cess
Ġadult s
Ġ !!
Ġr ated
oint ed
ĠC G
ĠB oth
we ll
Ġview ers
Ġext ras
Ġrand om
Ġc os
Ġc at
AS IN
Ġ ign
i vers
Ġf ood
Ġdet ails
Ġg ray
er ry
C l
Ġwor n
Ġwebs ite
ous ly
Ġcoll ect
Ġsh oot
L O
Ġphot os
Ġte nd
ie ve
Ġdoll ar
Ġintell ig
ten se
Ġinte nded
ĠBe cause
Ġposs ibly
ĠM ore
r id
Ġsu it
Ġwa ited
ĠT wo
Ġgra ph
ave nder
ĠP RO
Ġdevelop ed
Ġtool s
ĠW ay
Ġsk ip
B S
Ġg orgeous
d aughter
ens ion
it ary
Ġte eth
Ġvi br
Ġdoesn t
Ġp il
ĠM Y
Ġlad y
Ġpract ice
ak er
ĠL I
ĠL ast
Ġtrail er
Ġplay ers
Ġcom ic
r ated
Ġdirect ly
ar ily
Ġpub lic
ak ers
Ġcomb ination
ĠChrist ian
and a
Ġtell s
Ġw ore
Ġt ough
le ading
Ġwrit er
Ġn aturally
Ġsign ific
Ġr ot
d y
ES T
ass ic
P retty
Ġnotice able
Ġ ver
Ġim age
ĠF in
; ,
ĠM akes
Ġclaim s
Ġimprove ment
Ġm ale
Ġbr ings
Ġj okes
Ġv ac
ĠDav id
r al
Ġr inse
Ġh oles
Ġu nd
Ġ [
ĠM or
ĠS omet
Ġre ve
U P
Ġaw kward
tra ck
Ġcheap ly
Ġin tense
ĠT e
Ġh ers
Ġcho ose
Ġ1 3
Ġm i
Ġwa vy
Ġscen ery
Ġh ated
Ġbatter ies
Ġchem istry
Ġorigin ally
Ġs ke
Ġfavor ites
Ġun belie
the y
Ġgri p
Ġs ample
ĠF rench
C he
Ġst ate
Ġconce al
om p
Ġsc iss
Ġsurpr ising
Ġreason s
Ġchar ged
Ġgr owing
Ġr ins
arr ass
U L
Ġbig gest
Ġsu dd
Ġwr ote
Ġrun s
Ġfa ith
ol ution
Ġbreak s
C E
T ER
Ġsqu eez
d o
Ġtem per
Ġmag ic
Ġbreak out
Ġp ath
Ġp or
Ġsudd en
G ot
ar get
Ġremo ving
Ġri pped
ar se
ĠH D
U sed
Ġ7 0
Ġ1 6
ĠS am
P r
Ġcart oon
ob ably
Ġroll ers
Ġpr od
am in
Ġwra pped
Ġbu ff
w ith
__ __
ast y
Ġauth entic
Ġg ir
r s
Ġcom mer
id ence
ĠC ol
U ST
l ook
7 0
Ġqu it
Ġpr iced
ĠB ond
ĠU s
Ġref reshing
Ġb atch
onest ly
Ġingred ient
ĠS ch
Ġhad n
P oor
Ġso ci
Ġind ic
Ġconne ct
Ġrom antic
Ġbr ows
! )
Ġuse ful
Ġdis app
Ġr ob
at isf
Ġsh are
Ġcomp uter
M o
l u
ĠT ried
Ġdisg usting
Ġch ap
Ġproduct o
a vor
Ġcom pe
ra ge
Ġpull ing
A t
un e
Ġdel ight
O r
i os
Ġsepar ate
Ġpres ented
Ġtang les
Ġquest ions
ropri ate
Ġs ink
Ġattach ed
Ġsh ut
ĠS im
ra p
n et
1 3
Ġentire ly
Ġ era
Ġf aster
Ġz omb
B oring
ol id
ic y
Ġan ime
H e
Ġsh ots
Ġturn ing
ĠTH AT
Ġfamil iar
ick s
Ġburn s
Ġapplic ator
Ġm ad
Ġbu cks
Ġpick ed
Ġopt ions
Ġover pow
Ġforg ot
Ġl u
Ġthorough ly
w or
AT E
oth ers
Ġto wards
Ġre app
Ġcol ored
lf riend
L e
ll y
ĠA b
E T
Ġdis k
Ġwhat so
Ġexperi enced
Ġprov ides
Ġdr op
ĠJapan ese
Ġg onna
Ġeyes h
Ġcomm on
urch ased
Ġsound track
Ġcast ing
Ġemb arrass
Ġbirth day
Ġspl it
ĠG u
Ġbat tle
Ġpol ice
Ġwhatso ever
g ic
Ġn ature
Ġex te
Ġs izes
le ep
Ġshed ding
Ġ ident
Ġpack ed
Ġfl oor
Ġsec ret
Ġst un
Ġc rew
Ġportray ed
Ġappear ance
d ry
Ġc ri
os es
Ġcomment ary
ĠOther wise
Ġbe ware
MA Z
Ġrec ent
Ġcream y
Ġrom ance
h or
Ġr ay
Ġam ong
B ad
ĠP ar
Ġcommer cial
Ġlight s
iz er
ict ed
Ġsol ution
Ġst ain
Ġred e
Ġtrad ition
Ġle aking
Ġb um
ĠL oved
Ġsm art
ar ies
Ġgrow th
Ġsitu ation
Un fortunately
Ġ1 1
Ġa ut
Ġsciss ors
ĠW W
ant ed
Ġso cial
ash ion
Ġrep res
Ġh om
Ġstraight en
Th at
Ġo z
Ġsh adow
Ġso ak
Ġwash es
U p
Ġex erc
Ġprot ection
m es
g l
ĠG et
Ġp in
c ing
Ġa ffect
Ġimp ro
Ġfol ks
g ly
pect ed
Ġhappen ing
ĠJ e
Ġmin s
Ġle arning
Ġsty ling
th at
H ave
ch ar
Ġgl o
ĠR ay
Ġboy friend
Ġexpl ain
Ġin ex
Ġch air
p ensive
Ġsur face
Ġemot ional
Ġprov ided
Ġa head
iv ity
ĠB ob
Ġstick s
Ġshould n
ĠD es
ar th
Ġd ance
Ġb i
Ġabsor b
R ay
Ġboy s
br ic
Ġpop ular
c ur
Ġgre w
Ġrub ber
e g
Ġse ction
Ġto ss
Ġun sc
ĠLook s
allow een
Ġchar ging
Ġsome where
Ġsell ing
ĠC H
i us
ra id
Ġ ur
Ġfant asy
um in
Ġne ither
ash ed
Ġenc ou
Ġsoap s
o z
Ġhy pe
Ġw ipe
Ġli f
n am
Ġd anc
Ġatt ract
Ġc ure
Ġp ony
Ġgl ow
Ġli m
Ġen v
Ġt ale
Ġst age
ent e
g y
Ġab ility
Ġt ap
bo ard
al d
ĠM ay
Ġmis leading
Ġed uc
Ġdesign ed
Ġshe er
W ould
Ġsu ck
ive ly
Ġcomplain ts
and y
D U
Ġf iction
Ġthr own
Ġmoistur ize
ic les
n atural
u ine
u pp
Ġown ed
h h
ĠD ay
Ġconf using
Wh y
ĠMO VIE
Ġfrustr ating
Ġcle ver
i ven
Ġt ack
ĠTre k
ĠS orry
Ġover ly
Ġatt ack
Ġg od
Ġbit s
ot ic
Ġout standing
ĠA ng
Ġs me
Ġwonder ing
Ġfo il
Ġcorrect ly
ĠON E
Ġv ict
Ġfo ol
H ad
ath ers
c ommend
Ġadd s
Ġ2 5
Ġthr u
Ġp ad
ĠG REAT
Ġpre vent
Ġstraight ener
Ġsp ark
ĠA f
ĠG erman
Ġst ates
st al
ĠE m
og n
om en
ĠT ra
ĠE X
Ġproduc ers
ĠA T
iv al
Ġman ic
ĠP aul
Ġdis play
Ġele ments
Ġcomp et
ĠWill iam
es ides
c ut
Ġb ang
h ile
ĠEvery thing
Ġc ab
art ed
Ġspe ed
Ġtemper ature
t t
Ġdisc ontin
Ġsyn thetic
Ġrem ake
ain t
Ġj our
Ġfight ing
ag on
2 5
Ġun ne
ĠCG I
Ġj ud
Ġaw hile
ĠKe ep
Ġg rit
Ġc ru
ĠWor th
ĠPer haps
an a
Ġacc ount
w rit
v in
Ġgir lfriend
and s
Ġmin i
ĠGe orge
ak y
Ġsad ly
Ġro ots
Ġte a
Ġelse where
ĠR ich
iz ation
ib ility
Ġafford able
Be autiful
Ġknow ing
Ġear th
l ies
e per
Ġpress ure
Ġd anger
l ist
Ġconven ient
o os
Ġch ose
Ġoverpow ering
1 1
Ġscent ed
Ġske pt
Ġl avender
oc re
Ġsu cked
o ad
l or
Ġsec ure
Ġover whel
Ġstrong er
Ġaf raid
ul f
ĠM ade
Ġdec ide
Ġed ition
Ġallow ed
Ġbl ock
Ġf asc
Ġc rime
Ġcurl er
Ġmanufact ur
Ġed iting
Ġadd ing
Ġdr ink
OO D
Ġb umps
d id
Ġcom ments
li x
Ġgen uine
N ow
ĠA L
t ain
Ġclump y
Ġwho se
Ġw ild
Ġd ad
Ġfilm m
Ġbu nd
act ion
ĠA w
p iece
Ġfa b
Ġne cessary
.... ....
** **
der ed
ĠC ould
Ġsa f
b urn
ĠE ur
ĠW al
r ound
Al so
ĠH alloween
Ġfor ce
n ow
Ġbag s
2 2
Ġco vers
Ġfl ash
ĠD ra
c ast
ĠB en
T E
Ġ1 4
Ġsc ore
Ġinch es
Ġste am
on ic
Ġorgan ic
Ġfre qu
Ġst ere
Ġlead s
u gged
re g
Ġrent ed
Ġanim ated
Ġd u
Ġwor ry
Ġremind s
ĠC O
Ġmo ved
ĠA MAZ
in ating
Ġgen erally
ĠB B
ĠWh ich
Ġbl ur
Ġfriend ly
Ġinc re
ant astic
Ġbr ow
Ġcomp act
ce ed
, ,
Ġcontin ues
Ġst at
Ġslow ly
ĠN et
Ġpull s
Ġgr ound
ĠD E
ĠWor ld
ien ces
W ow
Ġ !!!
Ġwip es
ann el
Ġmin or
Ġass um
Ġst reak
N othing
, <
Ġto oth
ĠW on
Ġcred it
Ġhead band
Ġthr owing
c ket
Ġreturn s
ore l
Ġcost umes
Ġide as
A M
Ġhers elf
Ġinclud es
Ġsil ver
Ġsing ing
Ġcare er
Ġdist ur
Ġoff ice
Ġlaugh s
ic o
Ġconceal er
ul ation
h y
Ġcoll e
Ġspir it
I I
Ã ±
Ġcreep y
Ġsh orter
Ġgrand daughter
Ġb om
r og
Ġopp ort
ir on
Ġb ow
c an
ush ed
Ġspe nding
Ġtouch ing
Ġf u
Ġlo ving
Ġreason able
Ġso oo
âĢ Ķ
Ġreg ion
Ġsetting s
9 0
Ġwon t
Ġwill ing
Ġclos er
Ġse g
Ġconc ert
ĠU sed
ide o
Ġbel ow
ic ing
ar ant
if ically
ĠL et
Ġd ip
ĠP oor
Ġsaf ety
ĠA c
W atch
Ġh int
Ġsex ual
im ent
as ant
Ġunus able
Ġp ill
ĠSh ow
ess ed
Ġdo or
re y
Ġad hes
ĠFr ank
Ġsp in
ĠH as
ver n
Ġeyesh adow
Ġdiscover ed
. ,
Ġcompe lling
Ġex ch
ipp er
Ġex cess
Ġcaus ing
Ġf ashion
ĠNE VER
Ġwrink les
Ġp ace
Ġpl aced
ĠPet er
r ical
Ġgre y
ĠN or
wh o
orel co
DU CT
W ith
Ġprice y
Ġoff ic
et t
Ġbra in
ĠSe cond
W onderful
om in
ust ed
Ġke y
Ġmass age
l ock
Ġde g
ĠM art
Ġdep ressing
ĠEx cellent
Ġcream s
Ġqu iet
ĠA S
ĠL uc
Ġunbelie vable
ent ially
Ġb c
Ġsa le
Ġbu ilt
Ġenjoy ing
zz le
Ġdescri be
Ġw estern
Ġpur se
ĠT errible
Ġins pir
Ġfir m
Ġappe ared
Ġfind s
Ġpro of
alm art
U N
uff y
st ar
ĠS pe
Ġlist en
y e
xt remely
Ġeyebr ow
Ġt ill
ĠC olor
Ġscratch ed
Th ank
C om
Ġs ite
Ġcult ure
Ġm eth
d own
Ġeng aging
Ġd ub
h appy
Ġkill ing
Ġsh ap
em y
Ġcomp an
GH T
Ġh es
Ġlay ers
Ġfab ulous
Ġut ter
er al
Ġsa ved
1 4
Ġafter wards
Ġdirect ing
Ġl as
Ġter rific
ĠT ime
Ġstri p
Ġrec ogn
Ġter ms
ct ions
Ġgo re
Ġel astic
Ġsl ip
Ġthrill er
ĠE s
ĠAN Y
ch e
Ġminim al
Ġadvert ising
Ġsupport ing
Ġpack s
Ġcl og
Ġc it
Ġexp ired
Ġirrit ating
Ġpresent ation
ĠW ars
ie ved
Ġviol ent
Ġn ons
ro ke
Ġf i
ĠSt ory
ĠEur ope
ĠO il
Ġeyel ash
ac le
old s
Ġu gly
it amin
Ġcreat ive
ĠU lt
Ġas leep
Ġskept ical
Ġin n
ĠPRO DUCT
Ġeven ly
Ġdet ect
Ġpolish es
ĠE ach
Ġdisp ens
ĠN orelco
Ġse at
Ġton er
Ġse nding
it t
Ġsc ient
Ġal ien
Ġg host
Ġmil itary
Ġn asty
al ed
Ġb ars
ĠJ ul
m ade
ĠP retty
ĠCom plete
Ġadvent ure
Q u
pect ive
Ġgo vern
h ips
ĠAn other
Ġm ic
ĠUS A
Ġt ree
Ġs ized
Ġpoint less
ag ue
Ġlack ing
Re ceived
Ġsoci ety
Ġter ribly
Ġdeser ves
Ġl ace
Ġcos met
Ar rived
Ġb omb
Ġc e
Ġcaus es
Ġsu bs
Ġdro pped
us ion
Che ap
b ble
Ġli ved
Ġpil ot
Ġportray al
Ġmas ks
Ġlaugh ing
Ġchang ing
R A
Ġ/> *
ĠS uch
Ġph one
Ġkill er
ĠW ood
act ly
Ġfun ction
Ġm al
og a
Ġr ad
ĠJ es
Ġmedi ocre
Ġnow here
d ers
Ġwe igh
f lix
Ġcontin u
Ġaltern ative
W ill
ĠCh ina
â Ŀ
Ġinterview s
Ġmot or
ĠL ots
l in
Ġst rand
Ġk ick
Ġs uction
Ġfe ar
Ġus er
om an
Ġthin ner
Ġc ity
Ġsp illed
i qu
E ven
Ġoff ered
k ing
RI BLE
U S
Ġra c
OU LD
Ġanim als
Ġrepe ated
ĠH arry
Ġdis like
ĠE arth
!!!! !!!!
Ġimag es
Ġr isk
Ġbl ush
Ġbu bb
Ġopp os
Ġbegin s
Ġman ner
+ +
1 6
C ame
h a
Ġfun n
Ġvict im
Ġn ud
Ġmem ories
Ġfr anch
ĠL ee
Ġtub es
appoint ing
Ġrub bing
Ġm ed
Ġinst antly
Ġcom bs
ĠR ock
Ġauth or
ĠD ead
Ġeven ing
om a
ĠYou T
ĠHA VE
l on
Ġsh ades
or al
Ġdel ic
Ġirrit ate
Ġj o
ĠRe g
Ġc ases
Ġn et
ri but
le ction
Ġcra ft
Ġins ight
Ġsever e
? )
Ġadapt ation
Ġshamp oos
ĠR uss
ĠD ON
Ġall ows
Ġun real
Ġtal ented
Ġlight ing
ĠBat man
Al though
Ġconcern ed
Ġs pect
y le
ĠG ill
Ġst amp
Ġpre c
p ack
Ġwar ning
Ġo h
Ġe ars
ĠM ag
olog ist
atisf ied
anc y
Ġmar ks
Ġaddition al
ke ts
b it
1 8
Ġbut t
Ġar g
Ġdo ctor
ĠU p
er ous
Ġfail s
Ġcompar ison
ĠL OT
Ġho le
Ġe at
Ġhes it
Ġn amed
ĠA dd
De finitely
p isod
ile t
lus ion
ort ed
Ġmanufactur er
en o
m os
Ġval ues
Ġunne cessary
Ġnew s
Ġclean er
in ary
Ġask ing
ĠðŁ ĳ
Ġexp ress
Ġreapp ly
p ray
Ġhard er
K S
Ġreview er
Ġcustom ers
I s
ĠR y
f ree
ĠM any
ĠO R
Ġstream ing
ĠM at
ĠWI TH
Ġshock ed
g n
Ġbe ach
Ġoverwhel ming
Ġf og
B l
Ġabsor bs
Ġid i
Ġdra wn
Ġcolle ge
Ġd ress
OR E
ĠP at
r us
r ors
ĠL ight
M ade
k n
Ġattach ments
ĠP an
An other
Ġp atter
am s
Ġstere ot
ĠH orrible
P O
Ġchild hood
Ġbr ief
Ġsour ce
Ġattempt s
m ers
c are
led ge
ĠNe ed
ĠG ot
ĠF il
ĠA bsolutely
Ġplot s
ĠK ind
at in
Ġjust ice
Ġag es
ĠJ im
Ġwig s
Ġf lex
Ġcred its
Ġp et
Ġconf used
Ġmeth od
u ke
Ġa p
Ġspec ifically
Ġbreat h
Ġco arse
Ġsqueez e
Ġconsider ed
ĠBra un
E njoy
Ġm el
Ġe c
Ġocc ur
as ure
ĠO sc
ĠAf ric
B r
ĠA gain
Ġp ads
ber g
Ġtan ning
Ġmagn etic
O h
Ġc ode
Ġpos ition
ER E
irect or
w as
Ġcr oss
Ġn ames
Ġde part
ĠS ci
Ġcl ients
Y es
Ġc ell
ĠYouT ube
ed ding
Ġc ake
Ġth us
ter day
Ġno ise
Ġde fe
p ired
ag anda
Ġw ond
AN T
Ġwe ars
ĠPe ople
Ġlot ions
Ġsh o
if ying
Ġfranch ise
am a
Ġchall eng
Ġwas ting
ĠS w
less ly
ar l
Ġpl ug
Ġr ing
ĠYOU R
Ġb ur
pr iced
ĠC ra
Ġcontin ued
ĠRE ALLY
Ġtrans l
Ġgr own
Aw ful
Ġsitu ations
Ġsuper ior
ĠN ight
Ġdes per
ow er
Ġlim ited
Ġun even
W aste
ĠSer ies
ĠI M
ĠG old
Ġworth y
Ġt ie
ĠA v
Ġr ide
Ġrel ative
cri ption
Ġrare ly
b or
ĠY our
Ġdr ops
pl ic
ĠM ake
ple asant
Ġcons um
Ġro ot
Ġtradition al
y ear
ĠH ere
Ġsearch ing
ĠP art
a ff
Ġ ....
Ġgift s
ĠB ought
og y
Ġstra w
1 7
Ġpatter n
Ġappro ach
âĿ ¤
Ġband s
Ġfa bric
Ġnud ity
Ġsc ream
Ġspec ific
ĠWh ere
Ġrem ote
Ġglo ves
Ġcl im
oduc ed
Ġw al
Ġgovern ment
Ġam az
Mo vie
Ġbom bs
w ar
wh ile
Ġper o
ĠC oll
Ġsubst ance
are s
Ġstrugg le
C ute
Ġdem on
Ġar mp
t a
Ġprod uce
ll e
Ġd erm
Ġtra in
Ġwater ed
Ġ4 5
Ġbuild ing
Ġpass ed
Ġg ay
ON G
F unny
Ġred ness
Ġdesign s
ll a
a wn
on se
Ġve nd
Ġm er
Ġsh op
ĠEvery one
Ġbu bble
ific ation
Ġun ex
ar re
e ks
Ġcap s
Ġr ange
AS E
Ġl ing
Ġdiscontin ued
em a
Ġbe nd
Ġdra g
Up date
Ġansw er
Ġinit ially
Ġfam ous
Ġoper a
Ġstri ps
ĠGl ad
!! <
Ġwalk ing
Ġopport unity
ĠWh ite
Ġwor ried
Ġswitch ed
m en
o ons
Ġsh im
Ġchar m
Ġjour ney
Ġexpl an
Ġenv iron
M aybe
ĠSe ems
m on
Ġdown lo
Ġcontain ers
Ġdri ve
Ġem ail
Ġhelp ing
at ors
Ġwond ers
Ġunderstand ing
Ġfl akes
Ġpale tte
Ġlo ck
Ġche cked
d on
Ġsil ic
Ġme ets
ne w
In teresting
Ġprom ised
ah l
Ġdist ract
Ġsudden ly
Ġresp ons
Ġacc om
ĠRe v
Ġcho ices
ĠRich ard
Ġv amp
Wor st
Ġun happy
ĠM uch
ĠG r
Ġarri ve
Ġhead ache
ĠB ill
H ING
Ġtreat ed
Ġst ub
Ġl ed
Ġcleans ing
c ra
Ġadhes ive
Ġstop s
Ġexte nded
Ġthere fore
az y
b ox
Ġdistur bing
in ese
Ġart ist
Ġ [[
iver se
Ġinex pensive
Ġe ase
Ġfact s
Ġb ent
Ġte ar
Ġconst ant
Ġpers pective
m ble
Ġhe aring
Ġimp act
ĠG ra
b ad
Ġext reme
F un
ĠThe ir
ES S
Ġhor ribly
Ġsha ves
as p
Ġfor mer
ĠW almart
Ġtack y
ĠL a
ĠL o
Ġsequ ences
ĠSad ly
Ġpl ugged
b a
Ġto ilet
Ġun pleasant
ĠSh ould
Ġstun ning
ru ce
ĠSm ith
Ġp ic
st r
ĠC ur
Ġconst ruct
Ġdec ision
ĠU V
br ary
Ġplan et
Ġexch ange
ĠO ver
Ġexcept ion
Ġsur round
A IN
Ġunsc ented
Ġprop aganda
ĠA W
H air
s le
LO VE
Ġdisc uss
ĠM iss
Ġwonder fully
Ġinvest ig
Ġd ust
Ġs oul
ðŁĳ į
It em
Ġdo z
ad ows
Ġlead ing
Ġind eed
re ens
ĠY ork
ĠT I
Ġless on
Ġthrill ed
Ġult imately
Ġstay ing
Ġthink s
Ġ/> "
Ġsa ving
olog ical
um bs
Ġlaugh ed
Ġer ror
ĠNet flix
Ġno zzle
Ġvibr ant
Ġhalf way
ĠC D
Ġbu ll
Ġtyp ically
Ġnum erous
Ġapp ropriate
AS T
** *
Ġimpress ive
ĠD ark
ĠE njoy
ĠON LY
ab s
ĠH E
x ic
se qu
l ay
Ġre order
Ġm edic
Ġd in
Ġyes terday
ven ge
i ers
ĠT ry
Ġvill ain
Ġclean ed
Ġoppos ite
ĠP ol
ĠH el
an ish
ĠM ary
Ġbegin ner
umb ers
ĠSt re
ate ur
Ġoff ers
Ġcontact ed
ĠC ouldn
Ġcost ume
Ġsl ide
Ġt ort
Ġacc ent
t ail
Ġmill ion
A KE
ĠB etter
= =
ĠB oy
Ġvan illa
Ġrequ est
Ġp an
Ġlos ing
Ġw oke
ĠM on
Ġstud io
m i
Ġhe ck
Ġt ension
O K
Ġmedi a
ĠEVER Y
Ġp age
ĠBl ue
ĠSer iously
Ġbreakout s
ast ed
Ġstick ing
Ġqu al
urch ase
Ġprog ress
Ġa st
Ġsmo other
Ġresp onse
all ed
z er
Ġstud ents
ĠE v
l ie
ann a
ĠPh il
Ġres ist
Ġcent er
or age
ch an
Ġsp rays
P lease
us es
Ġmo ld
Ġbecom ing
Ġach ieve
ĠO ut
Ġcurrent ly
ER S
Ġte ars
Ġant ic
Ġde pe
b oy
se e
Ġrelations hips
Ġbr ittle
Ġrequ ired
2 1
Ġsus pect
Ġfa v
Ġenviron ment
at ives
Ġman aged
ill ing
! "
Ġdis aster
Ġattach ment
ĠEs pecially
Ġimpress ion
Ġscratch es
Ġbegin ners
Ġpr in
Ġcl umps
Ġwar rant
Ġvis ible
und red
Ġbeh av
st e
ch es
ĠO b
Ġcom fort
Ġas ide
Ġsupp ly
ĠJ ane
y y
al ian
Ġind ust
Ġcost s
Ġsmud ge
ĠT im
Ġang ry
y m
Ġrece iving
Ġt arget
P urchased
ĠG OOD
Ġbo ot
N T
ord ing
ĠTot al
ge nd
igh ter
Ġcirc les
Ġcut icle
Ġf at
am per
ad y
Ġfil es
E E
Ġthat s
a e
Ġg ang
il es
Ġdisapp e
ĠS ure
ĠD own
Ġen erg
al f
Ġball s
ĠI r
Ġhas sle
um my
Ġl ie
ĠE n
Ġb un
Ġmelt ed
Ġspray ed
d is
Ġlad ies
Ġmain ly
Ġpre view
Ġhairs pray
Ġrede eming
Ġput s
7 5
Ġho st
ĠRe commend
ĠT ri
Ġfilm ing
Ġlevel s
Ġimpro ved
Ġgen ius
Ġhang ing
Ġthick ness
ĠRy an
Ġpr one
Ġworth less
k a
m ond
Ġcon vers
o v
Ġra ce
ĠPr obably
Ġexfoli ating
Ġc u
Ġhighlight s
Ġbr ushing
Ġpleas antly
ĠOsc ar
ĠWould n
Ġse lect
Ġwa ves
Ġmar ke
d oes
ĠA p
Wor ked
in i
Ġinform ative
Ġf ish
or row
Ġpigment ed
Ġbo ard
Ġstick ers
w orks
Ġang le
Ġc ow
Ġwh om
i ens
A ny
Ġtrim ming
?? ??
Ġcomm it
b ert
ĠV an
Ġtrans p
N ever
Ġintrig uing
av y
Ġintellig ent
Ġt ons
Ġhur ts
ĠU se
Ġhum ans
F UL
il ities
Ġconne ction
ĠI I
Ġh arm
ĠW AY
ONE Y
l ogy
ĠR ose
ann ed
Ġne at
Ġass ume
Ġbenef it
Ġh ide
ĠSc ott
Ġzomb ie
Ġunreal istic
ĠSomet imes
Ġrent al
Ġpatch es
Ġprom pt
Ġnarr ative
Ġac id
o om
Ġfasc inating
Ġphys ical
ud d
gg ing
I VE
ort s
Look s
ot ion
Ġli brary
r ink
' .
ĠJ ason
Ġst orage
-- -
ĠM us
Ġgu ard
Ġconf l
Ġdy ing
in al
Ġh undred
Ġc able
z ema
Ġv ia
ĠSP F
m ar
ĠY e
Ġsequ ence
c a
Ġa br
Ġconc lusion
ĠO ld
Ġfo ld
Ġderm at
Ġsc ared
Ã³ n
iv il
ĠB ur
id ad
Ġev idence
Ġro ad
m iss
Ġrepres ent
ul ty
Ġth o
ru pt
Se ason
Ġstereot yp
W ay
U CH
Ġto ler
Ġwee ke
ĠJes us
Ġt im
ĠW ahl
Ġdanc ing
os p
Ġu pper
ĠM E
Ġvac ation
Ġhope fully
2 4
Ġtechn ology
How ever
ĠT w
ĠWI LL
Ġj oy
Ġdanger ous
ul es
p ed
ĠSe e
it erally
Ġh olid
ĠCh ris
Ġal ive
Ġv irt
Ġad vice
ĠNOT HING
ĠHope fully
Ġme mber
ĠM ONEY
Ġsp ring
Ġmar ried
B O
Ġep ic
mp ath
Ġw edding
Ġsh elf
Ġshould er
ac ular
and er
ol ved
t aining
3 5
Ġd amp
Ġp ins
ĠP ark
Ġwhen ever
ist ent
ĠP re
watch able
Ġen h
ĠDO ES
kn own
Ġinc or
pisod e
ro c
Or dered
Ġrating s
Ġgr ade
if er
ĠM ad
Ġ19 8
vious ly
ĠD IS
ell y
Ġref lect
Ġbubb les
Ġch un
l ines
Ġmatch es
amp les
Ġattract ive
l s
Ġy oga
Ġstand s
Ġitch ing
Ġknow ledge
ĠðŁ ¤
em on
Ġfoll ows
Ġmo od
Ġbr on
Ġsignific ant
v is
ĠT urn
Ġhand y
ĠL ittle
inc ing
ĠReturn ed
ĠAn n
ĠM en
Ġcare fully
Ġstink s
Ġhold er
ĠM ac
Ġinit ial
ist ur
ur al
ĠS and
ĠH ar
ĠFin ally
ĠB ruce
ĠKe vin
Ġtat too
ĠCh inese
Ġg ust
Ġremo val
Ġfore head
Ġdec ades
f l
th ere
ĠA RE
Ġg e
Ġeyel ids
Ġas se
ess ion
Ġrun ny
Ġpo ly
9 5
Ġact iv
AC K
Ġd read
Ġaccident ally
Ġfor th
ĠBe aut
r uff
ap ointed
ĠV ideo
s ome
Ġnons ense
Ġsty list
Ġbr oad
ĠL ong
Ġrepe at
Ġam ateur
um mer
Ġgi ant
Ġemot ion
Ġgraph ic
c reen
Ġantic ip
Ġfa ces
ĠDo ctor
Ġlik ing
Ġb oun
Ġinf o
ell o
ĠG irl
ĠH ouse
Ġsurprising ly
ĠAng el
ĠH all
Ġbox es
Ġport ion
ic an
ic ient
Ġo l
Ġkind s
Ġinn oc
ĠB ro
N OT
Ġesc ape
Ġal iens
le br
Ġc y
st ore
Ġne ut
Ġfl avor
Ġme chan
I LL
Ġdeser ve
C olor
ch ed
Ġ x
ĠAm azing
Ġtang le
Ġble nds
Ġhydr ated
Ġas h
Ġspong es
Ġw ise
Ġcomm un
Ġremind ed
um ber
Ġmot iv
F antastic
Ġdestroy ed
is p
ĠTot ally
a it
Ġrem ains
ĠB ar
ĠâĢ ĺ
Ġfrequ ently
Ġele ment
br ush
Ġp umps
f un
Ġ +
Ġhum id
n ting
Ġpo pped
D O
Ġregular ly
Ġaspect s
Ġenerg y
I G
Ġcreat ing
ĠGill ette
ĠO k
Ġcra ppy
H ard
Ġpr ison
Ġar oma
Ġinf lu
Ġgr ad
Ġcompan ies
P P
f ord
ĠC al
Ġmem orable
Ġmor al
idd en
Ġwe ather
Ġcru el
Ġguess ing
am ily
ne ath
Ġabs urd
un ting
ĠB as
Ġph en
Ġappe al
ĠB ody
Ġcrit ic
Ġt our
Ġmaster piece
and ruff
Ġdeodorant s
nd a
Ġne igh
ru ly
Ġfra me
Ġm ount
Ġamaz ed
Ġins ert
Ġrequ ire
Ġm int
ĠLe aves
Ġleg it
ĠU P
Ġv ul
T ot
ol f
Ġed ited
ĠTh ough
; <
Ġthem es
Ġpony tail
âĿ¤ ï¸ı
? "
Ġpill ow
Ġvisual s
d ated
Ġsh allow
Ġstrong ly
H igh
Ġst ains
ĠN one
ĠR em
Ġteen age
ĠA li
Ġj u
Ġrel ief
ĠF ox
Ġlack s
re ed
ĠLI KE
!!! <
Ġd irt
ick y
ick ed
Ġcart oons
Ġpath etic
Ġstick er
Ġti es
ĠS il
Ġun a
Ġl ids
Ġw ow
op er
ĠMart in
act er
y al
p ro
C ons
Ġb oo
te lling
Ġrem ain
Ġsuccess ful
S uch
Ġmajor ity
1 00
w w
s ing
Ġunder neath
Ġgl ued
ĠJ ones
j a
Ġo un
Ġmanic ure
Ġprot agon
ĠM el
âĢ¦ .
Ġred uc
ant a
Ġvend or
Ġanim al
Ġstr ing
Ġto ward
Ġcomb o
Ġw ave
k i
Ġin ner
Ġw itch
ĠN Y
ĠCom p
Ġbal ance
ĠT er
Ġd ies
Ġsal t
Ġwa ist
ĠG reen
umin um
iz z
Ġweeke nd
Ġp uff
e els
Ġqu ir
Ġunder st
ĠAmeric ans
Ġmot ion
Ġch in
L et
an ity
ĠB EST
os en
in ers
Ġch annel
M akes
ĠL ord
ĠM ur
er ies
ĠJ an
t op
Ġsp a
h ouse
Ġdvd s
Ġintr oduced
is ters
S p
Ġde b
ol ve
Every thing
ĠD en
Ġec zema
ĠT R
E CT
Ġsuggest ed
Ġprom ise
Ġsex y
Ġl azy
Ġcut icles
Ġrelative ly
Ġfl o
Dis appointed
g a
Ġshed s
Ġburn t
TH E
e el
Ġaccom pl
ĠFe els
ill e
C ould
Ġr at
Ġrequ ires
ĠAny way
Ġover night
Ġsilic one
Ġtest ed
Ġentertain ed
u ces
ct ional
m ark
ĠC r
Ġremember ed
Ok ay
K e
ĠAct ing
Ġgu est
Ġwood en
AR S
Ġat mos
Ġsc am
Ġli ber
Ġm ere
Ġh at
ain e
Ġhydr ating
er k
ĠTh om
ĠB illy
Ġdes ired
Ġstand ards
Ġpeel ed
Ġlist ing
Ġcent ury
Ġimag ination
ĠH en
al es
Ġen s
Ġpre gn
Ġch alk
mo vie
y es
A RE
ĠTh ose
ĠB AD
ĠR ep
Ġexplan ation
Ġse mi
Ġdam n
ĠD ID
iz arre
Ġbr ut
u ary
---- ----
ver se
Ġ: -
Ġd andruff
D VD
Ġbehav ior
M ost
Ġconfl ict
Ġspray ing
Ġso re
. )<
Ġchar ger
Ġte nds
Ġcinem a
Ġble ed
h and
Ġre char
Ġc ro
S he
Ġsy mpath
U M
ĠC OM
Ġc ars
Ġunex pected
Ġso othing
Ġgrand son
unch y
o ly
Ġloc ation
Ġoff ensive
C on
Ġs in
Ġover priced
ĠG rand
Ġdirect ors
ĠS k
o h
it ude
Ġter m
Ġvis it
ĠH onestly
Ġsty les
ens ity
Ġemot ions
Ġstud ent
ĠR og
Ġperson ality
Ġact ions
id o
2 00
Ġc as
Ġob ject
Ġd iv
cel ente
om er
Ġp un
Ġtouch ed
Ġmess ed
ĠK ore
ides creen
Ġmanage able
Ġdepart ment
per fect
Ġb ond
Ġbelie f
S low
Ġspe aking
AT CH
Ġpass ion
Ġstrand s
ĠH ol
ĠJo e
Ġru in
ĠF ast
Ġf aint
Ġth er
ĠAl most
4 5
6 2
ul ting
Ġdeli vers
Ġsens ation
Ġfl oral
ĠH aving
O L
c red
Ġfeel ings
Ġpen ny
t r
ri age
S m
ous y
Ġest ab
Ġto ps
us ter
ch y
ĠS kin
Ġspray er
Ġexpl ained
' ,
ĠBe autiful
Ġ19 7
Ġscreen play
Ġmem ory
." <
Ġrem ark
Ġche eks
Ġz ipper
a ver
Ġins ult
Ġyou th
Ġpr iv
ĠC ast
Ġrelig ious
Ġtheat ers
Ġce lebr
Ġth reat
Ġdisp os
ĠSte ve
Ġye ah
Ġchar ming
Ġteach er
Ġal right
Ġexerc ise
ve y
Ġarmp its
a fter
â Ļ
Ġpl ates
Ġresp ond
Ġcl ar
Ġp orn
Ġst ing
Ġad m
ition er
Ġins ane
Ġbas is
in ter
Ġf ade
Ġsk ills
ag ger
i ked
ĠT op
Ġlet ting
Ġd en
Ġdis ks
P LE
ĠA M
ĠP L
ĠJe ff
Ġgener ation
Ġt ing
Ġh its
ĠSp anish
T S
ĠQu ality
Ġw ake
pl oy
u nder
Ġy a
Ġact s
Ex actly
Ġspect acular
Ġe arn
Ġheav ily
ue en
ĠP ack
Ġrelax ing
Ġk idd
amp oo
ĠHA IR
ol ic
Ġconsist ent
Ġtheat rical
to os
ĠD el
Ġinter n
ĠB ack
Ġse a
ĠNe xt
Ġg ently
Ġfamil ies
Ġbum med
Ġd er
ĠG O
Ġto es
Ġse ctions
fortun ate
C ouldn
Ġun iverse
orm al
T r
os h
l a
Ġter ror
por ary
Ġlight ly
am b
Ġbund les
Ġcon te
Ġcomp lic
Ġbar rel
Ġsupposed ly
Ġb inge
ag s
Ġmove ment
ĠAMAZ ING
Ġgrit ty
id ge
ĠJack son
A ct
ĠM ark
Ġpre te
in ct
Ġqu ant
Ġbang s
ĠH aw
Ġde ce
Ġwarrant y
ci ent
u x
or ation
Ġbl ame
Ġstand ing
Ġcard board
Ġag g
2 3
Ġdis h
Ġcont ents
ĠW est
Ġtri logy
ĠD am
ound s
ci a
s he
ĠC AN
Ġl athers
Ġcondition ing
n es
Ġra w
ĠP res
z illa
ĠBr own
Ġbleach ed
ĠC apt
Ġcomp art
ish es
b ook
Ġ19 9
Ġpol icy
Ġadvert is
ĠM UCH
ĠC ame
Ġdetect ive
pr oduct
ĠS C
Ġreturn able
Ġbl ind
ump y
Ġse lection
ĠChe ap
Ġp aced
Ġhor se
Ġfe ed
Ġpolit ics
ĠB L
Ġbe ar
ðŁ ¤
b al
Ġattempt ed
Ġwe ap
Th anks
ll ed
Ġk iss
d s
Ġrefer ence
ul ated
ĠM ir
Ġarri val
Ġ ?
li ked
Ġdeal ing
Ġf aded
Ġb ill
Ġp our
Ġcop ies
Ġflaw s
Ġcreat es
E l
Ġtra ining
Ġd ated
Ġm es
Ġton es
Ġ )
Ġb an
Ġg room
Ġne cess
Ġh on
or a
ĠTh ought
Ġto dd
Ġun w
ul ate
ĠS A
Ġfragr ances
ĠSuper man
Ġtrans form
Ġregard ing
ĠM ax
Ġclich e
Ġview ed
S orry
Ġa ired
Ġwar ned
Ġcur ious
Ġcri min
ĠS her
Ġh osp
Ġcit rus
Ġmoisturiz es
Ġcr ow
Ġstep s
Ġb esides
ivers al
Ġsuff er
ĠAfric an
, &#
T wo
ÃŃ a
Ġb izarre
e f
Ġt ur
ĠM ust
Ġhe ats
em ed
Ġnarr ation
id a
Ġtat toos
ĠL uck
Ġent h
Ġprep ared
e ch
Ġrele ases
ĠC ity
r ough
Ġsc ar
Ġcarry ing
ĠS ally
ĠW E
Ġskin care
ol ves
Am azon
Ġequ ally
it ation
ĠH am
Ġobs essed
Ġindust ry
Ġcor ner
ĠLook ing
ar ter
iff er
Ġch ick
Ġrel ate
Ġde le
Ġess entially
ok ed
Ġgr at
Ġscr unch
!!!! !!
TH ING
Ġde eper
ĠG rant
umb led
Ġm ax
6 5
ĠBB C
Ġfra g
Ġlet s
f ess
os ing
Ġluck y
Wh o
8 5
an ing
re ck
Ġrep air
u le
Ġvo ices
Ġgood ness
Ġdocument aries
Ġe ating
Ġfly ing
Ġal uminum
ĠY et
Ġch urch
Ġth read
Ġconc ent
Ġl at
Ġbr ass
Ġun watchable
ĠH or
Ġ1 7
Ġg ames
D ATE
Ġbul ky
Ġstre et
ev ity
ason ic
IC E
Ġ ;
Ġdo gs
Ġide al
Ġinter p
Ġref resh
Ġshim mer
Ġd il
Ġmain tain
Ġs an
Ġto xic
Ġdownlo ad
ĠâĢ ĵ
Ġper man
Ġman ip
Ġra p
Ġcl othing
ĠD ou
Ġar ts
E VER
Ġcan cell
Ġsn ap
ĠA re
Ġvis ion
ot tle
g on
Ġexc use
ar ms
ĠO ur
. âĢĿ
F F
ĠBeaut y
Ġres c
Ġutter ly
Ġn ic
Ġfall en
ar ks
ĠE nter
el ine
Ġfact or
Ġt ast
Ġth ous
ĠF un
Ġin e
as k
ĠB ible
Ġneut ral
ish ing
ĠL aw
us er
Ġhot el
Ġn umbers
Ġhe els
Ġbenef its
âĢĿ .
U E
Ġc aut
Ġleak s
c ase
Ġ =
ly ing
Ġinter net
ber ry
Ġcomm unity
Ġstar ring
Ġgreat ly
D es
Ġart ific
am ent
ĠH OR
____ ____
Ġdeep ly
b an
B roke
ĠC ru
Ġsoon er
ph ere
Ġpo cket
Ġred uce
Ġabsor bed
Ġdispens er
J o
Ġb ri
se ll
z el
ĠB aby
ĠH appy
Ġb ien
ĠC ream
Ġcor ny
es pecially
Ġdisc ount
Ġel im
ĠTI ME
ĠA ust
Ġmult i
Ġphen omen
Cl assic
Ġf oul
ĠEng land
ðŁĳ İ
ĠTHE Y
Ġfor t
ĠC ost
Ġrep et
ĠS outh
Ġbow l
ra v
iqu es
Ġad orable
Ġinst ant
Ġre b
C K
y r
St ill
ĠBr ush
dry er
Ġpleas ure
ĠA lex
Ġhuman ity
Ġcommercial s
Ġp acing
Ġret ail
ĠM in
Ġsw im
ĠE ither
re ally
um s
s m
Ġp unch
Ġsuspense ful
Ġconsist ently
Ġsh ake
ĠS ame
A A
Ġchap stick
Ġfore ign
k ins
Ġno stal
ĠAll en
ĠDis appointing
Ġcolor ing
Ġnight m
ĠM ill
Ġar ch
Ġactress es
Ġclos ure
S mell
Ġlu x
in teresting
her o
Ġkn ots
Ġim pl
Ġdrug store
Ġch ip
e pend
iven ess
Ġli es
Ġhand les
ĠJ ew
aw ay
F in
l im
Ġ$ $
Ġb orn
Ġtem p
Ġnot ch
Th ought
Ġrub bed
wh en
ian a
Ġ2 2
Ġrep urchase
Ġadd ict
Ġst ation
ud io
Ġch est
Ġup s
Ġtwist ed
Ġshe ets
ild ren
ĠL ife
ĠE ast
Ġst ress
Ġfl aky
ĠWAS TE
Ġapp lies
Ġoccas ionally
Ġconv in
Ġfin ale
c il
Ġnot es
so ci
Ġv itamin
ĠM ex
at ically
Ġfu zz
ri an
ab eth
Ġgen eric
Ġless ons
Ġmar riage
if ting
Ġpe els
Ġg em
Ġconv incing
Ġshoot ing
atter ed
ĠJ ud
Ġdeg ree
Ġfl ake
ĠS ur
Ġregard less
en ge
c ion
Ġch ipped
er on
Ġhe aven
Ġsha ved
Ġl ink
Ġfoc used
Ġus able
Ġrec om
op y
Ġin j
ĠD I
Ġcom edic
Ġperf umes
Ġdiss atisfied
H onestly
ĠO UT
Ġlabel ed
r r
ĠC or
Ġdelight ful
Ġrem aining
ĠI F
Ġwin ner
az z
Ġcan cer
d ed
Ġm akers
Ġmir acle
Ġst one
ate g
Ġfrustr ated
Ġquir ky
Ġ/> (
ĠSp ace
Ġt ed
Ġany body
Ġgraph ics
to pped
ĠWilliam s
Al ways
Ġle gend
Ġsm ile
Ġp imp
as hing
Ġdep ict
ed ies
Ġtri al
Ġno body
Ġf ades
Ġs its
et ime
c ret
ar on
Ġwit ty
u gh
Ġeduc ational
it or
Ġpass es
Ġprec ise
Ġappreci ated
Ġevery body
ĠG ET
Ġe ight
gr ade
Ġflex ible
is ions
Ġinstall ed
Ġment al
Ġage nda
Ġfilmm akers
Ġte xt
Ġgl ove
ot ed
j ointed
Ġteen ager
Ġsurv ive
ĠP icture
Ġrecommend ation
Ġclass ics
rog ena
Ġtime ly
Ġhosp ital
Ġlo of
Ġte ens
Ġfing ern
Ġt in
Ġtrim mers
Ġrel ated
r ate
ĠReturn ing
ĠMo ore
ĠRob in
Ġun fortunate
rigin al
ĠJohn ny
Ġbother ed
I GHT
Ġgra iny
Ġpract ically
Ġdy ed
Ġto e
ĠB O
f fe
Ġpost ed
Ġamazing ly
as m
3 3
ĠU K
ĠBe fore
ut y
Ġc andy
Enjoy ed
ay ed
Ġint ention
ĠV al
Ġf if
on ly
g u
re p
ĠL ou
Ġinter act
Ġsound ed
Ġsold iers
Be en
ĠB arb
ig ible
e qu
Ġc and
ĠT ook
Ġbring ing
Ġlo ver
Ġsl ick
Ġfr ank
os ter
ing er
ĠSte ph
Ġb ab
h am
ĠC ont
uck s
Ġdr unk
itch en
Ġkill s
Ġy r
re nd
un s
ĠP O
Ġroll ing
Ġal oe
Ġman ages
e es
ĠH y
Ġins pired
Ġs ulf
Ġwatch able
Ġphot ography
Ġth umbs
t w
Ġstud y
Ġfix ed
ĠM att
Ġtan ner
ĠNo pe
up s
ĠU N
Ġvamp ire
Ġpain ting
Ġbel ong
S c
Ġartific ial
le g
ens ional
Ġadjust able
Ġto en
Ġlong evity
ag ers
ĠT it
M an
Ġn iece
ĠW alk
Ġdec ides
al t
u ous
Ġth umb
Ġm ature
Ġexper iences
.. <
be ll
enn ifer
I ES
ĠPr ice
Ġst ained
ind s
re es
Ġp ed
ĠRuss ian
ĠA nt
ab les
Ġtow els
Ġre venge
Ġcont rived
Ġcover ing
ir ts
IT E
Ġworkout s
Ġt orn
IS T
W ish
ĠF ace
ðŁ Ĵ
Ġs ake
Ġbl ah
Ġch ipping
Ġag ent
Ġassum ed
Ġnot ed
Ġtooth p
Ġsil k
ĠG el
Ġatmos phere
Ġtint ed
v ant
Ġre li
Ġapplic ations
ĠA G
Ġsl ipp
TH IS
I M
ac cur
Ġam using
P l
OU S
Ġse es
Ġcare s
Ġpr ices
em ic
ib l
Ġlist ening
ĠRev lon
Ġfe min
Ġsk ipped
red ictable
ĠAw esome
ĠSomet hing
Ġmiss ion
Ġlaugh able
w ash
S ad
Ġdru gs
Ġint roduct
T ried
Ġrins ed
ĠL A
s es
Ġn er
w in
Ġflaw less
Ġcom o
ĠWor st
Ġf ield
Ġd ud
ĠB el
h old
Ġlo yal
ĠMar vel
Ġreason ably
ĠDis c
6 8
Ġph il
un es
Ġcol our
Ġrec ieved
Ġsatisf ying
Ġs ight
te en
ĠR ead
ĠN az
Ġproduc er
Ġdet erm
ĠDan iel
O ut
Ġestab lish
Ġaut om
Ġdry ness
ĠV ol
Ġexec uted
Ġeyel id
ĠUn less
Ġcomplex ion
Ġw idescreen
l aw
st ory
Ġgu arant
ĠSt ates
Ġ2 1
Ġconte xt
ĠTh ree
Ġcl ub
it ar
ang ed
are ly
act ers
ĠB o
ep s
Ġfail ure
m ary
d one
Ġpo ol
Ġdri ving
ĠW il
Ġtw enty
Ġthin ning
ĠAb out
Pr os
D ER
ĠS U
Ġpl uck
Ġhigh est
on ed
Ġsa cri
ĠHe ll
Ġinspir ing
Ġsleep ing
ĠWH AT
Ġencou nter
Ġstraight ening
ast s
Ġsc ra
ĠJ UST
ers pir
Ġl emon
M uy
op her
Ġappe aling
Ġheal ing
Ġtra g
t able
um an
iz abeth
Ġher oes
2 8
Ġexper iment
os oph
Ġam b
ar c
Ġnarr ator
art s
Ġle ather
Fin ally
Ġsepar ated
u el
Was n
Ġwas nt
Ġdermat ologist
Ġag ing
Ġsl ap
â ĺ
E M
ĠSh ame
ĠR us
ind a
Ġ ice
ĠPan asonic
Ġcurl ers
Ġclose ly
ĠT od
ĠW ater
com ing
Ġdepe nding
2 7
ĠShe a
IN T
O ME
Ġperform ed
ĠA B
Ġintellig ence
Ġpr a
G l
Ġwit ness
r ick
Ġm art
Ġdra in
iend o
m aybe
ĠI d
Ġp ouch
ĠS y
oll ow
Ġdoz en
ĠLOVE D
Ġcrit ics
Ġexec ution
et one
g ent
Ġsoft ness
ot es
Ġj ars
Ġshe a
l ife
Ġn ada
Ġpres ence
Ġmen u
Ġso oooo
Ġseem ingly
Ġcart rid
Ġsooo o
Ġlo ad
f all
ĠS mell
ĠWay ne
ress ive
ĠG ar
Ġsl im
Ġpimp les
f ield
ĠE xtremely
Ġfan cy
Ġsh irt
ĠC ons
Ġbr others
air s
Ġt ag
ĠP o
F rom
ĠD ove
ĠG ive
Ġmonster s
Ġcapt iv
Ġg ym
ĠH U
ĠF red
Ġrechar ge
Ġholid ay
ĠF ire
Ġl ic
Ġf le
Ġfl u
Ġcl ue
Ġf reak
Ġadd ress
Ġlat est
Ġannoy ed
Ġste el
Ġrefer ences
ri er
Ġacc ording
Ġprotagon ist
um ble
Ġunus ual
hor a
Ġallerg ies
Ġj ew
Ġbra ids
Ġtoss ed
Ġh oney
ð Ŀ
ĠW ild
ĠLe ft
n ox
ĠT W
ĠW ATCH
ĠGod zilla
Ġis land
ĠUn ited
Ġforgot ten
Ġst om
e nd
Ġbl own
Ġexfoli ate
Ġbl and
c kets
Ġconvin ced
6 7
ceed ed
od ies
Ġsuit able
Ġremote ly
Ġcan cel
Ġexpl os
Ġflash back
H as
Ġhe ating
ic ial
Ġinc ons
Ġ .<
ci p
Ġdes ire
n ie
Ġsle e
Ġremo ves
Ġqual ities
Ġpe ace
Ġexc it
Ġsh adows
Th en
Ġc ash
h ard
Ġdraw er
ĠC am
Ġf und
ĠP BS
n ice
Ġsacri f
Ġhealth ier
Ġmy th
Ġc ivil
Ġreact ions
Ġso aked
u h
Ġt all
ĠAct ually
Ġdisc o
UP DATE
ĠE pisode
Ġshe et
6 4
ther n
Ġdiff user
Ġdes p
P ack
head s
O ther
Ġcur ve
Ġun be
Ġaccept able
Ġship ment
Ġmin eral
Ġref ill
Ġvis ually
Ġw ire
6 9
ĠD irector
Ġcirc um
ĠB urn
Ġch ore
Ġfour th
ur a
Ġmatter s
Ġshould ers
Ġcomb ined
Ġbreak age
Ġinnoc ent
Ġswe ar
Ġch ips
ĠM ight
Ġeffective ly
Ġbe ads
Ġcapt ure
k es
Ġpre v
omet hing
F ast
Ġgo of
Ġr ushed
we et
ĠChar lie
B uy
ĠP ri
Ġdetang le
it a
ĠSpe cial
Ġsun burn
Ġadvertis ement
Ġas soci
Ġhe ight
Ġmass ive
p oint
ĠAl ways
Ġrep ort
Ġreduc ed
ĠWW II
Ġsha vers
Ġrec all
Ġser ial
ĠJ on
ci Ã³n
Ġrins ing
ĠDes pite
Ġmarke ting
Ġcl ick
Ġdy nam
ell ar
app ing
Ġres olution
Ġse ven
ce an
Ġp all
ph as
R Y
Ġpl ane
at a
ĠIt alian
os ure
Ġdistract ing
Ġpurch ases
ĠH arr
Ġstom ach
Ġdec ade
Ġfull er
Ġcl ay
ic ide
eming ton
Ġp u
ĠP ot
Ġimport antly
A d
Ã¡ s
Ġapp arent
Ġun c
Ġsn apped
Ġhy p
w ing
Ġcurl ed
ĠR ight
Ġ q
ĠP ut
ĠH OW
P E
Ġcl ient
Ġrepeated ly
Ġhope ful
Ġcra cks
Ġdis jointed
Ġsoft en
Ġted ious
ĠTh ink
Ġbal d
Ġorgan ized
Ġs ons
w ater
uit ous
ĠHen ry
Ġstreak s
Ġlet ter
Ġdispos able
ðŁı »
ĠE xt
ĠW estern
Ġcomplic ated
Ġs i
ĠB os
ex cellent
ĠWith in
Ġhair st
ĠGo ing
ress ion
Ġesc ap
2 9
ĠM AN
Ġheadband s
A K
Ġp iss
Ġem ploy
ĠApp arently
g ers
at ory
Ġb att
ĠNe ut
Ġembarrass ing
Ġsuff ering
ri l
RO M
Ġwax y
Ġg as
Ġmaterial s
Ġenjoy s
ol a
Ġsome body
ĠG oes
Ġem p
Ġb ank
Ġn ude
Ġout er
Ġembarrass ed
Ġbl ot
Ġc ore
and o
Ġw rist
v o
Ġexper t
Ġcry ing
Ġchall enge
Ġshap ed
erson ally
ad emy
Ġk itchen
atur day
Ġmis er
Ġcom edies
ib ers
b orn
Ġre nting
Ġmyster ious
Ġcancell ed
S ave
Ġme asure
ĠRE AL
se y
Ġexcit ement
Ġhe y
Ġcontain ed
Ġscrub bing
Ġpow ers
Ġsn ow
ĠSe cret
Ġar c
g el
Ġtra cks
ous se
ĠBr ad
Ġreach ed
ĠA D
Ġinf l
Ġt ail
ĠS un
L ight
Ġgl ob
Ġp ark
Ġ `
Ġest e
en ess
âĢ į
Ġvul gar
Ġdrink ing
Ġus age
Ġp it
ĠRE C
Ġdetang ling
w art
ĠN orm
Ġplan ning
Ġbus y
con om
ĠL i
ter ed
ap y
ĠW ow
ĠStre et
ĠC ON
Ġor d
ĠN atural
Ġab use
OT H
ste in
Ġw anna
I A
3 9
Ġcondition ers
Ġview s
ew is
S im
ĠH ist
Ġgu ide
Ġquant ity
ub by
IC K
ĠPar is
Ġjud ge
Ġmed ical
Ġdesper ate
ĠThom as
O ver
ĠM ine
ĠF unny
Ġfunn iest
Ġrepl acing
Ġtort ure
g ia
mo oth
Ġmoisturiz ers
Ġfight s
v i
Ġad ap
ll er
ĠH BO
ĠFil m
Ġgo o
i ently
Ġad equ
ĠR emington
Ġcont our
Ġinstruct ion
Ġaud iences
Ġol ive
Ġh idden
ott om
T V
ra ms
Ġthought s
Ġtra gic
ĠO ct
ri x
am ing
Ġac etone
Ġout come
ang le
ĠQ ueen
ĠS ep
Ġcinem atic
Ġc ateg
ĠA ustr
ĠLO L
ĠR es
Ġin accur
ard en
Ġdeser ved
Ġpart ner
Ġlipstick s
Ġsignific antly
Ġsupp le
Ġeng ine
Ġfinish ing
ĠH op
Ġdefin ition
anc id
ap h
ĠM om
ĠC ent
ĠMc C
ĠGu ess
ĠM ORE
ĠRe al
ict or
ond on
Ġpast e
ĠNor th
Ġvirt ually
Ġnew er
Ġmagn ification
Ġp ier
.... ...
Ġsh ift
Ġve h
e al
Ġattempt ing
ĠEl izabeth
Ġst ruct
I m
Ġpack ing
Ġste al
ĠAny one
ffe e
ĠO P
A ND
ĠU nder
l ers
ĠM il
Ġor ders
os aur
Ġun known
ĠF amily
Ġprotect ive
ĠW onderful
Ġass ist
sh ave
it o
Ġdra gged
ĠWOR K
Ġso le
Ġtechn ical
ig e
Ġin fer
Watch ed
Ġbri ghter
Ġmag ical
Ġmic ro
at able
Ġscen ar
ĠAr t
Ġtal ks
ĠBe ing
d om
Ġsho pping
ĠT y
Ġdes ert
Ġright s
Ġra in
g ie
Ġso ph
Ġcab ello
Ġwish ed
Ġdele ted
z ing
ĠKeep s
ĠSt ars
Ġcal idad
Ġg ar
Ã º
ĠT arget
Ġset t
Ġpick ing
id ay
us i
Ġtop ic
Ġsmud ges
Ġthe ory
Ġto m
Ġgl ide
Ġtoothp aste
Ġe mer
Ġsu gar
Ġzomb ies
ĠS UP
Ġdiss apointed
Ġso cks
Ġstory telling
Ġtechn ique
Ġneed ing
Ġneigh bor
Ġb oss
iffer ent
Ġinterp ret
Ġsol o
Ġp and
ĠF ord
Ġstrugg ling
ĠT ex
Ġch ase
ĠUs ing
Ġa im
Ġact ive
Ġ3 5
Ġv ir
M ore
Ġk ing
ĠP R
Ġdown side
Ġexp osed
Ġloc ations
E d
u ality
ĠP ER
Ġswe ating
Ġpush ed
Ġall owing
p et
Ġcomp r
Ġrese mb
Ġtit les
Ġcrit ical
ĠBuy er
Ġp om
ĠCapt ain
Ġcall s
ĠS u
R eturn
o le
Ġkn ot
f it
Ġseg ment
if orn
Ġn ut
th ese
Ġstub ble
r ome
Ġoccas ional
Ġdetail ed
F i
ld er
A mer
d ress
Ġcall ing
" .<
Ġpro ve
w ill
ĠD ry
ang ers
Ġaw ard
les h
Ġdist ribut
Ġelim in
P S
Ġrelig ion
u gs
ĠG uy
Ġin fect
ĠB oring
Ġn ause
ĠE ll
ĠSt r
Ġe conom
Ġmuch o
ĠSo ft
Ġgun s
Ġconf ir
S ec
ĠJ ennifer
Ġmir rors
Ġfrank ly
Ġlik able
Ġbo b
Ġser ve
Ġcont em
AY S
it ute
cra ft
Ġ( "
Ġra ised
Ġ19 80
Ġf ibers
Ġhumor ous
Ġtre mend
Ġwar n
AR D
ĠE N
Ġhapp ier
al though
Ġexcept ional
3 8
atur ing
Ġup side
be y
Ġpo pping
ĠP LE
Ġridiculous ly
ĠM ike
Ġart istic
S ince
ĠS ara
A CT
ĠM aster
Ġgl owing
gg er
er iously
st op
Ġhand ful
Ġopp osed
Ġpe pper
ĠâĢ ¦
Ġmar vel
ĠSt one
Ġdelic ate
Ġcapt ured
Ġtrag edy
Ġcond itions
Ġint ent
ĠG ave
ĠF ROM
t es
Ġadv ant
ĠD ick
co ver
Ġcruel ty
ir ation
Ġp el
4 8
Ġcolor ful
ĠHU GE
an o
ĠL ondon
Ġpow ders
ĠTr ue
Ġcup s
Ġcheck ing
C le
Ġble nding
ĠB R
Ġlack ed
Ġhair dryer
ast ing
Ġr ancid
Ġpres sed
E s
ant e
Ġbo at
Ġdemon str
in ol
Ġadv ise
âĢį âĻ
ĠP ac
ĠHOR RIBLE
od a
Ġlos es
ĠR od
Ġtrou b
ĠL ED
ĠE ver
Ġhesit ant
E nter
en es
Ġincor rect
ĠLuc as
no on
Ġin k
3 7
Ġop ens
Ġc alm
Ġdream s
Ġto y
Ġint act
Ġphenomen al
Ġ vel
Ġp ushing
Ġr ow
ip ment
ĠLuck ily
ag a
aus ible
Ġco ffee
B y
Ġem phas
Ġash amed
ir k
L iked
Ġes p
Ġstrugg les
ĠT OO
Ġinvol ving
! ).
Ġind epend
ĠT ake
High ly
Ġintroduct ion
ra gr
Ġfair y
ĠCru ise
Ġb ik
Ġcommun ic
pp ers
Ġstretch ed
ir ing
Ġnecess arily
m other
ĠD C
un ately
ĠBr others
Ġmix ing
Ġwatch es
Ġh un
ĠPl ay
Ġdec isions
oc ol
Ġvictim s
ĠBas ically
ach es
uck y
Ġco ok
Ġclog ged
Ġamount s
Ġrecord ed
Le aves
vel ope
Ġsure ly
ĠA CT
ĠM itch
Ġrep ut
Ġo w
Ġform s
Ġw el
Ġp ics
d ra
f y
ĠCon air
ĠO li
ol k
Ġpain ted
ĠR un
s pe
ĠE ss
Ġdep icted
erspir ant
ĠF ull
Ġsur g
On ce
Ġcrow d
ĠL ost
Ġprompt ly
ĠS us
p ut
Ġrem aster
a ult
Ġbu ck
4 9
Ġbutt ons
B oth
ĠR on
B E
ĠSh ampoo
Ġgra ce
ĠYe ah
Ġso aking
ig ital
Ġble nder
Ġtechn iques
Ġspe ech
Ġcr isp
ĠUS E
Ġdem and
ĠWood y
UR N
ĠA ir
out s
Ġst atic
Se ems
al wood
oy al
Ġd ump
Ġtouch es
Ġdifferent ly
Ġconnect ed
Ġe th
ĠT akes
g ot
Ġd ab
Ġgener ous
E xtremely
ch er
Ġclaim ed
Ġblood y
ad er
Ġteach ing
W H
Ġloof ah
ĠK en
v est
ĠW OULD
ĠO ff
Ġrecord ing
ĠUs ually
Ġgrat uitous
Ġgl ides
ĠWith out
Ġ4 8
Ġown er
il s
ĠO p
ĠOb viously
ĠH ot
ĠL ess
Ġmere ly
ĠâĢ Ķ
Ġvan ity
Ġis nt
ĠNeut rogena
m int
Ġlo g
Ġsk ipping
lud ing
Ġspoil ed
Ġsell ers
ĠI ron
Ġ19 70
Ġtheat re
Ġab and
aly pt
6 6
al thy
Ġsh rink
Ġtodd ler
u ity
Ġpurp oses
Ġpain fully
ĠAd am
Ġnightm are
iforn ia
Ġswitch ing
Ġse am
Ġhundred s
Ġphil osoph
Ġrecogn ize
Ġser ved
h ave
Ġlo vers
ĠKore an
OU T
Ġob nox
Ġnarr ow
ĠT ony
Ġnovel s
Ġt ad
Ġcircum st
U se
m od
Ġw id
urn ed
Ġp al
ign ed
Ġsepar ately
g le
Ġslipp ery
Ġw rest
her ent
Ġcap able
ĠCar ol
Ġnet work
Ġfeature d
Jo hn
Ġf right
ĠAMAZ ON
Ġbuy er
Ġflick s
Ġrecom iendo
r own
Ġeffort s
Ġwal ked
N e
Ġrespons ible
ord s
ĠP G
Ġbar ber
t ube
Ġble m
b ur
Ġglass es
Ġof fe
Ġpoint ed
ir o
ĠR om
Ġgot ta
Ġequ al
u k
m al
ĠS al
Ġco ating
Ġpres ents
im m
Ġha m
ĠP ower
Ġn u
f ather
ink y
Ġl ousy
ĠSH OW
Ġmod els
ĠN ick
ĠI ve
f ly
Ġsa ves
ĠMr s
Ġm ousse
ĠG al
j o
Ġir ons
Ġad here
Ġinte gr
did n
ĠN ail
ĠS aturday
Sm all
L o
Ġcor por
r ation
H ere
Me h
ĠRus sell
Ġsim pl
Ġmil k
look ing
ĠðŁ Ĵ
Ġch osen
ĠEurope an
N O
ĠL ewis
Ġsurpr ises
l ong
Ġunder arms
ĠBos ch
Ġprog rams
Ġcompar able
Ġcom edi
c ol
ĠHol mes
ur ious
ĠSep hora
dd ie
ĠChar les
Ġsc rap
ĠJohn son
ĠIn teresting
Ġshower ing
Ġindivid ually
re h
b ased
Ġgu ards
Wor th
rif ying
ic ious
Ġcreat ures
act ory
Ġtast es
Ġpl ump
Ġtight ly
Ġafter noon
ath y
il ing
Ġstory lines
ĠC ut
Ġmust ache
ach el
Ġcor ners
ĠEd ition
Ġconstruct ion
4 7
Ġheav ier
ĠSteph en
Ġpregn ant
Ġasse mb
d en
ĠTh or
Ġhair dress
N eed
ay lor
Ġreve aled
Ġlead er
Ġscrew ed
a que
Ġequ ipment
Ġr ust
Ġn ur
Ġenth usi
Ġmart ial
ĠW ent
ĠU gh
Ġcreat ure
Ġbrut al
Ġas ks
Ġfell ow
Ġqu arter
ĠBe ware
Ġfre ed
Ġsens it
ĠM er
ac cept
Ġd ude
Ġacc ents
Ġbund le
Ġm ut
ĠTr ans
Ġno pe
Ch rist
G REAT
ĠC ond
act ing
Ġoff ering
Ġprefer red
Ġun re
Ġremark able
ĠAG AIN
Ġ ll
Ġbrush ed
Ġsubs cription
Ġult imate
ĠD or
Ġhe ated
ĠS et
Ġcamp y
Ġgl or
m g
f rom
ĠV ictor
ul s
O f
Ġprom ising
z a
act ed
Ġgold en
Ġcosmet ics
Ġcrack ing
v id
ĠWas hing
Ġprov oking
Ġadvant age
ĠW onder
Ġfl ip
Wh ere
Ġfl aking
Ġnight s
! &#
ĠB on
d a
Ġsuff ered
2 6
ell e
Ġchalleng ing
ĠL E
ĠWar ner
Ġinvest ment
ĠPl an
Ġdet er
Ġcr ude
Ġbrill i
l oved
Ġgre ase
Ġcontr oll
Ġgel s
Ġsal es
os ition
Ġf ict
ĠH I
RE E
ĠW in
ĠF re
akes pe
Ġflow ers
Ġp its
Ġbul k
Ġcour t
Ġfin est
ĠSc ent
Ġinfer ior
k ids
VE N
Ġdep iction
ĠL es
Ġansw ers
ĠB urt
S O
Ġmagn et
ĠA F
Ġfriends hip
Ġslight est
Ġpr oud
arr ing
ĠI mp
ĠDon t
Ġspoil ers
ĠAs ian
Ġchun ks
Ex celente
ĠCal ifornia
ĠF ar
Ġra ve
Ġpo ckets
Ġn aked
Ġextens ion
ĠJ ess
ĠWatch ing
ĠCl assic
ĠSte ven
L ots
as ion
Ġ ic
Ġel igible
Ġ19 5
ĠR o
ra vel
Ġn erv
Ġtal ked
Ġhair cut
il ty
ar able
ĠR id
ER O
Ġf ond
Ġaccess ories
Ġw ound
ass ion
Ġcomb at
ĠTH AN
Ġcomplain ing
Ġscream ing
" )
Ġo x
st on
Ģ ï¸ı
H aving
R ONG
f ers
ĠM arch
Ġdiffer ences
ĠComplete ly
Ġpencil s
Ġcab in
Ġart ists
Ġv oc
Ġinst ance
Ġserum s
Ġexpl ains
ĠB ay
ĠS und
ĠChe ck
h in
il ight
Ġcr inge
Ġconvers ation
ĠSm all
Ġd uty
Ġsle ek
Ġ !!!!
Ġl iners
Ġfl uffy
Ġfrag ile
app ropriate
Ġrefund ed
ĠH ill
Ġdis liked
Ġcut ter
ĠH ead
Ġemot ionally
ch ool
Ġfor ces
ĠChrist opher
ĠB S
Ġlist ened
Ġp ile
ach ed
ree k
oll en
o op
âĢįâĻ Ģï¸ı
ĠC ome
ĠSO ME
Ġpract ical
ĠAw ful
Ġv ast
Ġpr ay
Com plete
Ġ19 60
ĠWatch ed
ĠIn s
Qu ality
Ġcou p
Ġs amples
in is
ĠBe en
Ġz ip
ĠB rand
Ġsil ent
OO OO
fess ional
Ġh ung
Ġpin ch
Ġan cient
Ġbelie ved
er am
ragr ance
Ġan x
Ġgr ows
Ġexerc ises
Ġworth while
bel ief
ĠH itch
cri pt
Ġbu eno
ĠTex as
Ġman e
pl ace
ĠW all
Ġen velope
ĠDe c
7 8
Ġintell ect
Ġreve al
B etter
Ġhand led
Ġang les
Ġch apped
Ġperman ent
ĠS ub
Ġclim ax
Ġgreat er
ĠOF F
v ille
Ġobnox ious
ll ine
Ġst ellar
ĠY E
Ġfool ed
r ont
Ġfill er
Sec ond
Ġmat ted
Ġdisapp ear
Ġb ump
ĠB IG
Ġg al
ĠD i
Ġhairdress er
Ġnerv ous
Ġbrist le
Ġhair line
as eline
Ġpl ate
Ġfa ulty
Ġappro x
Ġdub bed
a ired
p he
ĠG ri
Ġcon sequ
Ġcontr ast
ĠB le
Ġpe ach
Ġbal ms
Ġaltern ate
Ġmechan ism
Ġmatch ed
Ġl ately
ĠD et
ĠH aven
a ire
ĠUp on
ag n
ĠAr rived
Ġble nded
accept able
ra ight
Ġex agger
Ġy rs
St upid
ne ct
F eels
Ġf est
Ġre nder
ĠM ach
ĠS l
ĠH un
Ġbron zer
ĠFr iday
Ġc ured
Ġal b
Ġfe aturing
Ġkidd ing
Ġrac ist
ĠSt ick
Ġcl oud
ate ful
Ġsc are
Ġend less
Ġfun ctional
ĠIr ish
ph y
ĠK ate
Ġt iss
ĠM UST
ĠB et
Ġoun ce
Ġgenuine ly
ĠF er
Ġsell s
Ġs ne
tt es
ok er
ĠCh an
Ġnic er
Ġcake y
Ġpl ant
Ġadv anced
Ġunderst ood
is y
Ġshock ing
Ġvill ains
Ġt ame
Ġrec ome
ren ce
ĠF ound
ĠInd ian
Ġli mp
Ġ20 20
ĠD a
Ġh en
A pp
G et
Ġgo al
th ur
B ig
â Ń
as er
ĠPLE ASE
Ġat te
Ġcar ried
Ġe gg
Ġstat ement
Ġr os
M uch
r at
rage ous
Ġpack ages
c ock
âŃ Ĳ
Ġdev ices
Ġcosmet ic
f il
akespe are
e very
Ġsp y
Ġbon net
Ġtreat ments
ĠM s
Ġble w
ument ary
Ġti ed
Ġatt itude
c orn
Ġsn ag
Ġteen agers
Ġexpl o
Ġt aught
Ġsmo ke
ĠðŁĳ į
to gether
Ġess ence
Ġrepet itive
Ġp edic
Ġign ore
Ġch rist
ĠP UR
Ġmist akes
Ġbroad cast
wh y
Ġhor rific
Ġs isters
Ġbl ows
ĠJ une
Ġsl ides
Ġ19 50
ĠLuc y
Ġdin ner
Ġdec or
ruct ion
play ed
Ġrefresh ed
Ġser ves
Ġfact ory
Ġyou tube
9 8
Ġun interesting
Ġord inary
ipp ers
Ġwe b
ĠHist ory
ar as
Â ł
pr ise
Ġexp iration
ĠAn ne
ĠAn th
Ġbum mer
ĠP ow
g irl
ĠUn like
Ġmagn ets
Ġident ical
ĠO lay
Ġfil ing
Ġc ried
Ġant ip
Ġha ll
c ons
or i
Ġprov iding
Ġpur s
h ib
Ġd ense
Ġfl ight
Ġstereotyp es
Ġspeak s
Ġw ing
Ġal mond
ĠCle an
? &#
us able
anc ing
are n
Ġl es
Ġrad io
ĠP C
Ġportray ing
Ġut il
c les
Ġdis belief
Ġexcess ive
Ġrele vant
.... <
am m
Ġlab els
ĠT aylor
ĠSte wart
Ġquick er
Ġdro pper
Ġport rays
ĠP ure
ĠL ol
Ġv ague
Ġs en
b est
p ass
Ġflaw ed
Tot ally
ĠP al
Ġliber al
ĠF ort
Ġidi ot
a fe
Ġp od
Ġele g
Ġmagn ific
Ġsy mb
Ġmild ly
Ġmeet ing
Ġpr os
ĠJ uly
v ol
ĠG host
Ġcl iff
Ġman ual
Ġintr od
ĠCom es
Ġt act
Ġbo ld
pl ot
Ġpick s
oil er
Ġche ese
er ate
be cause
ition ally
Ġd edic
og ue
Ġpreview s
Ġadd icted
S S
Ġtrail ers
aw s
ĠPres ident
b ud
Dis c
n othing
ĠC are
Ġbl owing
ĠAp ril
4 4
Ġsevere ly
ĠG ener
C ol
Ġst encil
ag o
war ming
Ġindividual s
Ġri ve
Ġresc ue
Ġlif etime
a iting
Ġmi xture
ĠAv oid
Ġp alm
ever al
ĠWashing ton
or ig
Ġser v
Ġcl amp
Ġ: /
k ind
Ġa in
IN E
Ġdam aging
ĠMo istur
ĠSome one
Ġsk ill
Ġ9 9
Ġwood s
Ġsc ale
h ill
ĠE nd
Ġbel oved
miss ion
Ġgoof y
Ġcons pir
u pt
Ġli l
Ġtrans ition
ĠM et
Ġbar gain
Ġun cle
enc ing
Ġult ra
Ġde cept
atter ing
Ġseg ments
Ġb ird
Ġtap es
Ġp ac
ME ND
ĠB ull
ĠT ER
ou red
th ink
io let
ub lic
ĠNeed less
Ġhumid ity
ĠE ddie
ĠC ap
Ġdes k
Ġsw ollen
y er
Ġlow est
om s
ĠH ome
re m
Ġing rown
Ġwin ning
Ġsl o
Ġmel od
Ġn i
Ġcu z
Ġassum ing
I P
ĠV itamin
ĠMo vies
em ents
pr ising
Ġencou ra
Ġdis e
Ġcr unchy
Ġsequ els
Ġextra ord
Ġpartic ip
Ġclos ing
Ġsc ars
Ġsh oes
ĠL aur
Ġsan it
Ġrat io
em an
ur ity
D ec
: )
Ġweek ly
Ġtest ing
Ġsurg ery
Ġsol ve
v ia
ich ol
Ġcaut ion
ĠS n
ffect ive
est ed
IT Y
n al
ĠL iterally
ro cious
ĠA ug
Ġsur f
e z
Ġprof anity
Ġd arn
ĠREC OM
od ed
Ġbu dd
ĠSt ay
ĠFl or
b reaking
Ġfaith ful
Ġkid n
ĠPot ter
ĠW itch
ĠGerman y
Ġincre ase
sc reens
Ġmind s
Ġh rs
eth eless
Ġlike able
Ġcle ared
Ġru ins
ink s
Ġhor rend
Ġout s
Ġl au
Ġtri b
atter y
rib ute
Ġrequest ed
Ġrec over
an ic
Ġsk ips
Ġbu en
Ġimag in
Ġr ules
Ġrandom ly
ĠColl ection
== ==
G ave
Ġcent ral
Ġv ary
umb ling
r oll
Ġsm ashed
ĠM al
Ġsu ds
Ġfun cion
ĠF A
Ġend e
Ġper cent
Ġsto pping
Ġg ly
Ġoccas ions
yp ical
f a
Ġm ud
ind ing
ra ction
if i
ĠK id
ðŁı ¼
all ing
ĠS ol
Ġcom ics
ĠSh akespeare
Ġ ~
Ġfill ing
ĠS M
ĠN OW
ĠO riginal
Ġl atter
e b
Ġh unt
ĠFr ance
ip es
Ġdelic ious
b reak
Ġpsych ological
A U
r um
Ġvers us
Ġexp and
ĠB esides
Ġany ways
Enter taining
Ġlo gic
Ġjump ed
Ġcircumst ances
O ur
as ive
Ġpom ade
ðŁĺ ¡
Ġpriv ate
ous es
Ġopin ions
Ġlo op
Ġcrimin al
Ġ ven
ĠD ar
AR T
Ġche ek
Ġinc on
Ġ/> âĢ
ĠS an
Ġlift ing
Ġw reck
Ġsm oking
f oot
Ġgu itar
Ġl ying
ĠC ath
Ġe ager
ĠD ad
Ġproduct ions
ted ly
6 3
Ġeng aged
ĠH anks
Ġd ressed
Ġtr op
oo o
Ġdisappe ared
ĠJ r
Ġtr uck
Ġf lesh
Ġstrugg led
Ġarri ves
Ġdis ag
Ġanticip ated
Amer ican
n s
ing ing
ĠThank fully
Ġpat ience
ĠJe an
ibl ical
Ġli mit
Ġdin osaur
Ġprim arily
Ġstreak y
Ġstock ing
ĠSUP ER
ou thern
Ġha ck
ĠB ox
Ġd ent
om ed
Ġinc omp
ĠBl ood
b i
Ġwar ming
Ġbleed ing
Ġcl own
ĠTHE M
Ġpick y
Ġpop s
Ġsign s
Ġt il
ort ion
b oring
Ġdri er
ĠChar acters
ĠDe v
ĠC row
Ġdist inct
writ er
Ġblur ay
ĠAli en
S eriously
Ġag ed
P T
ĠDe pp
ĠDra gon
g un
ĠH AD
Ġen emy
Ġad ore
ĠAm y
Ġcreat ors
S cent
ĠYou ng
Ġsun screens
Ġs ir
ĠK night
Ġover look
Ġpre ach
ĠReg ion
ĠDe ath
Ġcomplim ent
th en
ĠDe ce
ocol ate
Ġoccas ion
Ġmess ages
ĠCom m
Ġin appropriate
Ġtri ps
Ġbu ena
Ġscient ific
ob er
P h
ch ildren
b ie
fe it
ĠM a
Ġp itch
qu ality
ton es
Ġfict ional
ch a
ĠRECOM MEND
Ġp ir
Ġreview ed
Ġroll ed
Ġcop s
Ġexist ence
Ġup grade
ex cept
Ġsqu are
Ġthous ands
is a
Ġun ravel
atin um
nt il
B I
Ġdri ven
ĠL ady
Ġwho ever
Ġad s
Ġoffic ial
A W
I F
ĠT olk
Ġany time
b ow
Ġwax ing
Ġshow ers
Ġfoam ing
Ġwh im
r os
Ġb re
ES OME
ĠSara h
Ġpand emic
c ula
Ġj umps
Ġgloss y
Ġre nd
Ġ ive
ĠSo ap
Ġr ush
Ġconf ident
Ġve ter
7 7
Ġsh ark
ĠðŁ Ļ
al so
Ġdry ers
d es
omin ated
W ARE
5 5
un ky
ĠWil son
L ong
Ġpl anned
ĠL ONG
Ġsec urity
Ġh ood
Ġfingern ails
edi um
Ġlo cked
A BLE
Ġstore d
Ġmyster ies
Ġpat ient
Ġadv ance
Ġjust ify
Ġblur ry
H D
ic ian
Ġdeal s
Ġg ig
Ġc ous
ĠUlt a
A G
Ġcateg ory
Ġb order
Ġpiss ed
Ġapart ment
is er
Ġ200 0
ĠH ugh
ĠB all
Ġdefin ed
Ġshe ll
Ġenh ance
Ġsubst ant
Ġwh eel
ab a
j ob
the w
ĠAc ademy
ĠMur phy
Ġsuper hero
PO INT
ot ing
Ġpre t
Ġrec y
Ġsort s
ak s
Ġjew el
Ġb usted
Ġa er
Ġeng lish
H ilarious
Ġy o
writ ten
ĠAb bey
Ġup dated
Ġg ap
Ġreli able
r ol
Ġenjoy ment
Ġl aid
ĠQ U
Ġoffic er
Ġtransp arent
Ġearn ed
T URN
Ġb odies
Ġshort s
Ġwh it
ĠIs land
Ġacc omp
Ġpop corn
Ġrub b
D E
ĠG ame
Ġrem inis
Ġchap ter
Ġat rocious
Ġweap ons
Ġcomplain ed
Ġun p
Ġdeg rees
ĠZ omb
c ro
Ġpass ing
roc ery
Ġtoen ails
ĠBut ter
Ġsu icide
Ġenc ant
ĠFlor ida
Ġmasc aras
Ġsharp en
Ġpersonal ities
ĠW OW
Ġthr o
Ġadequ ate
Ġguarant ee
Ġintrig ue
Ġfreed om
" <
be at
Ġo cean
Ġrecome nd
ĠDIS AP
Ġex am
Ġfit ting
ĠD oll
Ġperfect ion
ĠSt an
ĠLe on
Ġcool ing
ap le
Ġbab ies
Ġcaptiv ating
Ġhigh l
ĠHI GH
ĠS anta
if ies
Ġv ent
Ġaccompl ish
Ġun se
qu in
Ġcapt ion
Ġg ory
Ġcapt ures
Ġup l
Ġs que
ĠH alf
F ECT
ly n
Ġshort ly
ĠH and
ĠC arr
Ġri pping
U RE
Ġf reaking
Ġt amper
Ġkn ife
ĠPat rick
en ic
ĠJ ord
Ġcar ing
ath an
Ġwra pping
c r
Ġreview ing
ĠCon n
Ġfe e
ĠV iet
Ġgra in
ĠTolk ien
Ġop aque
Ġlit er
Ġchalk y
come nd
ĠHitch cock
Ġn uts
se mble
Ġbatt les
A GE
ĠSher lock
c d
Ġresist ant
ĠTh rew
Ġmasc ul
ĠC age
ar i
Ġpra ise
ĠTod ay
ab e
p se
Ġcur ved
ĠO z
ĠCh ap
Ġevery time
Ġar my
ĠCl int
ĠEl vis
S pe
Ġt or
ĠD ol
ĠTHE SE
ĠAr thur
ag ine
Ġsuper natural
urd ers
ick ing
Ġdra mas
Ġg ag
ĠJo an
Ġjump ing
ĠCan not
Ġsearch ed
Ġwip ed
Ġmin us
Ġinstall ment
n an
Ġcar ries
ĠF our
Ġfunn ier
Ġve gan
S topped
n on
s im
ik es
ĠM ic
ĠJ am
Ġprotect ed
ĠST ILL
Ġsp orts
co at
ĠF AKE
ac les
Ġde finite
Ġgr asp
ud os
ðŁĺ į
Ġminim um
R ob
Ġpepper mint
Ġgust o
U LL
st ream
ĠS ky
ĠF ree
ĠJan uary
Ġg rocery
Ġaff air
Ġinstruct or
dis c
ĠDece mber
ĠD em
AS H
ĠT ruly
Ġsuper f
Ġorgan izer
ĠF air
ĠSE E
ĠW oman
Ġadvent ures
Ġhorrend ous
on a
Ġwonder ed
ĠCh i
AD E
ĠHow ard
ĠW ork
Ġgri pping
Ġcl imate
Ġbu zz
Ġjob s
Ġpro ves
Ġfa c
if orm
Ġbra id
Ġti ene
Ġdra gs
Ġfocus es
at o
Ġsh attered
Ġr ashes
h air
v ably
ĠB ath
am ount
Ġprim ary
Ġign ored
ĠN ichol
ĠK ids
w ould
ĠWOR ST
Ġsp ite
Ġtal ents
enn is
Ġus ar
az or
Ġmove ments
ĠSund ay
ot o
Ġdim in
Ġstruct ure
un ted
Ġunbe arable
i ber
Ġvers at
ĠDown ton
Ġpatch y
Ġton ed
n ic
ĠR ings
uck ed
Ġdevelop ing
ĠWor ked
ĠEX T
ic ulty
Ġsl ash
ĠM other
ĠS pr
ĠMor gan
Ġm Ã¡s
Ġtim ing
wh ite
il ed
i ac
Ġ lle
ĠPh ill
AS ON
bl ock
ch est
Ġscient ist
ĠD igital
bud get
Ġspark le
Ġbl at
Ġmind less
St arted
Ġpar an
Ġwel come
cl oth
s mells
ir a
ĠF ur
Ġcont ribut
u um
Ġhon or
ĠAnth ony
i ation
Ġp ix
Ġchar ges
Ġgu ilty
d ro
Ġmo on
Ġreal ism
Ġr ise
ĠSe an
Ġp ine
t aking
Ġimmedi ate
Ġstri pped
Ġsp are
ĠC L
Ġflow er
Ġindepend ent
: (
Ġpl ans
bs olute
Ġrock s
Ġcount ries
ĠF a
Ġscript s
avor ite
Ġg ain
c ore
Ġsh ared
Ġlength s
nd ry
Ġn our
S te
l aim
Ġpall et
Ġinter action
St ar
ĠP ersonally
Ġun acceptable
ab or
u able
Ġt ask
IS H
ĠPer ry
Ġrem ained
Ġtime less
ĠUn iversal
Ġharm ful
r ous
A dd
ĠS aw
at on
inc ere
ĠSe ller
ME LL
Ġst aff
ĠR os
Ġdiff iculty
ĠDON T
ĠZ ERO
ĠMus ic
8 8
ĠPl ot
wor ld
Ġmedic ine
Ġbit ter
L a
Ġtem porary
Ġunf old
ĠE ye
Ġdisappe ars
Ġhapp ily
. '
3 2
Ġchalleng es
Ġf ulf
ie ces
ĠAr n
ors es
ĠAnd erson
Ġpart ially
H A
Ġhor rid
rit er
Ġinv ent
ĠC ind
ic it
Ġw ider
Ġal ert
ru it
Ġstra p
ĠMex ico
Ġprin cip
Ġsulf ate
ĠR O
Ġhy ster
Ġproduc ing
Ġsurv ival
Ġint ensity
ĠA ff
9 7
am or
Ġens ure
Ġch ron
ĠDav is
Ġh ates
3 6
ĠE r
ang ing
re asy
ĠCl in
ivers ary
u v
Ġl aughter
it z
ĠW ANT
Ġdisplay ed
Ġgroom ing
Ġd om
Ġfl uff
co on
ĠOr dered
Ġme as
ens itive
umb o
Ġclos est
le ts
ur onic
al ia
Ġexpl aining
P ro
b ian
Ġhy per
orig inal
ĠDISAP POINT
ĠH ans
ĠNE W
Ġmill ions
ĠPUR CH
ĠAug ust
ĠD un
ign ant
Ġteach es
Ġbu g
Ġsc ares
ace a
ature s
S ee
Ġst ood
Ġst ead
Ġsubs cri
ĠBe at
Ġsand alwood
Ġincre asing
Ġret inol
Ġtoler ate
Ġst ones
ĠB ook
Ġcan s
ĠHaw ai
Ġcur ing
Ġinc om
ĠC os
u gging
er ve
Ġcr ushed
Ġal ike
Ġpar ody
Ġmil es
ĠZ ero
ĠR en
ention al
Ġinvest ed
Ġh ar
Ġfilmm aker
Ġra pe
f ull
Ġcould nt
ĠJ erry
does n
g i
Ġg all
az e
Ġnostal gia
Ġcompart ments
Ġscrew s
Ġsuff ers
Ġcare d
Ġblack heads
ĠO l
S aw
Ġmark ed
Ġincon ven
Ġj aw
es ter
ent ious
ĠRE TURN
Ġpred ict
ĠC BS
j ud
Ġun natural
ather ine
Ġref used
ĠBro ad
all ic
ĠC amp
ose x
ĠDan ny
ĠA g
Ġthought ful
ĠSk ip
al th
ĠD oc
Ġch amp
Ġblem ishes
el ing
ap oint
ĠO VER
Ġins ulting
Ġcult ural
ĠEd ward
Ġantip erspirant
ĠHall mark
ĠP ur
Ġscrub ber
Ġs ket
Ġset tle
Ġdil uted
Ġchun ky
it able
Ġsurround ing
ĠOct ober
Ġmo b
ĠK N
ri or
Ġra ise
ĠG en
ĠIn c
Ġprint ed
ĠK at
ĠRecommend ed
en ch
D el
Ġveh icle
us ive
ĠWas n
Ġr od
os er
G o
Ġgr ateful
ĠBe es
T W
Ġun iform
Ġmagnific ent
p ort
iff icult
Ġg imm
Ġin h
Ġre new
os ity
b d
Ġleg al
ĠOr gan
ĠN ove
Ġwar mer
b c
ĠS ER
Ġflashback s
Ġsoph istic
ĠTER RIBLE
Ġent er
ĠWH O
ĠSe a
ĠBe ll
Ġtap ed
Ġinterpret ation
B ec
Ġscratch y
Ġwal ks
ĠR oman
Ġc reme
atch ed
Ġsk y
ut ions
ĠPark er
ĠJack ie
g en
ĠT ree
Ġs am
Ġt un
Ġbal anced
M iss
ĠV ik
ĠFr anc
ĠJord an
ĠMo on
inc luding
Ġcirc le
oth y
go ing
Ġrob ot
ĠMaybe lline
Ġhit ting
Ġflu id
Ġill ustr
ĠCh annel
Ġclich es
g ate
ce eds
ĠAW FUL
Y e
c alled
Ġcontin uing
Ġ2 6
Ġcor rupt
Ġd ime
Ġal together
ĠP ort
re ll
Ġres our
Ġprof ound
Ġbrass y
. &
ĠRe ceived
Ġan aly
Ġre h
Ġbl ank
Ġnotice ably
Ġallerg y
w y
Ġn ation
ĠL ow
ĠK ill
Ġpar ab
ĠðŁĳ İ
Ġfuzz y
, âĢĿ
Ġpair s
Ġcreat ion
in ated
ĠSe pt
Ġphys ically
Tot al
ou ps
Ġto ys
Ġsh aking
Ġh ill
ĠUS B
Ġj erk
Ġac qu
Sad ly
c olor
all s
Ġf ading
Ġcon vey
Ġsecure ly
Ġconf idence
Ġbe ats
at ible
Ġt ax
Ġk its
Ġstink y
L ast
er atin
St ory
Ġmurder ed
ĠWH Y
Ġst ale
ĠAdd itionally
Ġg ather
ĠE ric
ĠJul ia
Ġj elly
em ption
Ġd ual
el ed
Ġloc ally
Ġhand ed
Ġf et
ĠD uring
ĠS ound
Ġpie l
ĠM ons
Ġlarge ly
Des pite
Ġimag ined
Ġcas ual
Ġdisg usted
ĠWill is
Ġaw ards
Ġe lder
Ġsch ed
Ġsing er
T F
Ġest a
Ġinflu ence
th eless
N ew
Ġcontinu ity
s uper
Ġdown right
Ġcry stal
ĠC R
ĠL ip
ĠW asted
Ġext ent
Ġloc s
ĠF elt
Ġm itt
Ġhistor ically
Ġconstruct ed
p oor
or ial
ĠR ick
) ;
Ġconspir acy
ĠSc r
Ġex ists
ĠThere fore
en ny
ĠN on
VER Y
Ġtrim med
Ġsee k
ĠB rian
Ġcit iz
ĠNaz i
Ġsu ited
ĠEv il
/ /
Ġh i
Ġco oking
ĠChrist ians
Ġsensit ivity
Ġst itch
Ġasse mble
ere lla
Ġnot icing
OU R
Ġold s
Ġass ass
Ġinaccur ate
Ġport able
y o
Ġir re
Ġfra ction
Ġlux urious
st ic
Ġconven ience
ĠK elly
Ġref use
ĠM oney
h an
Ġse w
ĠB ACK
Ġcount less
ack ed
ci o
t ub
Ġlo aded
ĠSp ider
Ġp uffy
um ph
Ġ2 3
Ġamateur ish
Ġprofess ionally
Ġte nder
Ġimm ense
Ġh ue
Ġslee ve
al o
Ġam eric
Ġspend s
Ġdo s
Ġdiscuss ion
im al
Ġr ings
Ġ2 8
TH ER
od es
Ġsh in
ĠD ream
Ġlau ndry
Ġex amples
ertain ly
Ġweigh ed
U s
Ġ20 21
Ġboo st
b f
ĠT ed
ĠRe c
hin est
âŃĲ ï¸ı
Ġeff icient
Ġrot ten
Ġs ession
ust y
ĠP ink
Ġmeaning ful
Ġch uck
Br ush
Ġrest ored
F l
em ber
ab out
ĠCl ub
ĠCol ors
s omething
Ġpres ident
phe w
Ġrec comend
4 2
Ġself ish
OM G
Ġdown hill
Ġb ound
Ġsymb ol
ĠJ er
Ġsweat y
ul p
wor th
Ġin ev
Ġru le
Ġprefer ence
Ġre w
Ġsee king
Ġs ed
Ġple asing
Ġpowder y
ĠPol ish
Ġh ip
Ġcounter feit
ib ilities
Ġdisp ense
an ny
Ġhome made
Ġag reed
Ġsoak s
ĠViet nam
ar ge
Ġint ro
H aven
ĠH ay
ĠEast wood
Ġhands ome
no v
m aking
Ġre in
Ġj am
Ġhesit ate
Ġ:- )
Ġfrustr ation
st ead
P e
ĠH ul
Ġm aker
Ġso oth
Ġrele asing
Ġv ine
Ġbelie ves
h our
ĠF ather
K ids
Ġdur ability
Ġb orrow
ĠPr in
ĠE as
Ġexc lus
h igh
Ġfore st
Ġscrunch ies
Ġso o
Ġne phew
R ead
ĠC over
ĠF ive
ĠKe pt
Ġb one
ĠA C
Ġbase ball
it is
Ġsty lish
Ġag r
Ġshap es
Ġupl ifting
ĠOr der
ĠS pend
Ġgr oups
Ġscript ed
Ġst orm
lus ter
ĠS ony
ac ity
ĠRe e
Ġp upp
ĠE st
ĠJ ac
Ġho ly
ider ing
ĠR oll
ĠF BI
ĠCond itioner
le ar
Ġphot ograph
Ġmascul ine
Ġsh ines
job a
ðŁı ½
Ġdisag ree
co al
Ġspirit ual
Ġvill age
Ġre watch
ĠS qu
Ġour selves
Ġcho ppy
Dis appointing
Ġsp oken
ĠCh urch
o ch
Ġthrill ing
Ġdark ness
ĠSch ool
Ġno ir
aw esome
ok s
Ġton ight
E L
ĠF ore
Ġround ed
Ġextraord inary
O real
ĠL ive
Ġconcern s
ist ed
AS S
ĠMat thew
Ġcan ce
ĠT or
Ġrap id
ĠC ool
Ġsit com
Ġextra ct
hy dr
Ġed it
Ġsh irts
il a
Ġswim ming
ĠD ie
ter rible
sc ape
pt ions
8 9
ĠS MELL
ell ow
Ġintrig ued
Bec ause
Ġsl iding
Ġmatch ing
ĠS upp
ĠK enn
s eries
Ġaw e
Ġfeed back
Ġs oda
Ġw ine
Ġdraw ers
Ġtra um
for ce
Ġoun ces
Ġcompet ition
Ġmelt s
Ġhen na
Ġexfoli ation
Ġindic ated
Ġlif est
Ġconv ince
ort ing
?! ?!
ĠCle ans
Ġproject s
ĠAF TER
ĠA ction
Ġde mo
act ic
Ġc ush
Ġfa re
be it
Ġh ence
Ġmar ry
ðĿ Ĵ
Ġst ating
ad d
Ġad op
m ay
Ġme h
T ook
Ġg ems
ment ed
Ġbas ket
ĠE VEN
Ġ âĿ¤ï¸ı
Ġch ocolate
M O
Ġcompart ment
ĠC ount
Ġdraw ing
ĠJess ica
Ġobs c
t age
ĠSp ray
Ġcomp aring
Ġjud g
Ġting le
ĠAnd rew
Ġgrand mother
pr int
ĠFranc is
Ġform ulation
O ld
ĠH a
er ved
Ġhighl ighter
7 9
B ottle
IN K
Ġoccur red
Ġsmall est
Ġar r
ens ed
Ġrecharge able
u br
G od
enc ies
e asy
ĠB u
f ast
Ġm all
Ġan ger
ĠNo ah
ĠMat rix
ĠBE T
Ġcr ash
B u
ival ent
ĠLa ure
od ium
Ġn a
Ġcr own
ĠM ars
Ġwould nt
Ġknock off
ĠU ntil
Ġassoci ated
ens ions
Ġincons istent
Ġremaster ed
Ġde pend
Ġslo ppy
ĠPhil ips
a ved
on er
Ġsupp lies
s ized
Ġdread ful
Ġill eg
Sh ould
ĠEm ma
Ġeleg ant
Ġact ivity
Ġpre cious
Ġsub sequ
Ġtre nd
h ad
Ġinvol ve
Ġdynam ic
ĠH O
ĠG i
ĠTW O
Ġhand ling
C ON
Ġs atur
ra el
ĠK iss
Ġmiss es
for ward
Ġre ly
Ġele v
Ġsat ire
in ch
Ġsw ord
Ġaut o
Ġbuy ers
IL ER
Ġfr uity
Ġv ivid
Ġafter shave
ĠD og
co a
Ġp s
Ġsh red
Ġquestion able
ch o
Ġinv is
Ġs ided
ut her
ĠR ather
Ã± o
Ġw ins
ĠD irect
ach er
ustom er
Ġhouse hold
Ġstri ct
Ġtom orrow
ĠK irk
Ġcons cious
ĠCl ark
Ġme at
Ġh orses
ere my
ĠBr on
ard ed
Ġbi ased
Ġre vel
Ġforget table
ĠF antastic
Ġsmooth ing
ĠDe ep
Ġadvert ise
Ġstupid ity
Ġcraft ed
ĠOk ay
ĠJew ish
Ġd ensity
i ot
ĠNe ither
re f
Ġexp ense
ĠDe an
Ġo lor
Ġdece iving
C I
Ġcam er
Ġfr o
Ġpr on
Ġperform s
ĠBur ton
Ġt empt
ind ed
Ġoriginal s
Every one
ens ical
Ġcommit ted
Ġmod e
Ġche er
Ġrive ting
Ġident ity
Ġann oun
Ġcollect or
a ud
Ġh ubby
et er
UT E
Ġm ile
ĠAs h
AC E
ĠP itt
Ġover come
Ġsold ier
ic able
Ġmo ck
Ġroll s
ĠBr os
Ġlift ed
Ġg ut
pl ays
Return ed
Ġrub s
Ġsme ar
Ġgrand children
3 1
Ġdisc on
ĠW omen
Ġlo go
Ġstat us
st one
Ġcond uct
Ġset up
Ġspe ll
Pr obably
eram ic
ĠS K
ĠWh atever
edi a
Ġmane u
Ġkn ees
Ġmes h
Ġth irty
ree ze
ĠK ong
th an
Ġfun ky
Ġcreat ivity
T om
ver ted
ĠC ant
Ġprotect s
f d
ĠC ry
ound ing
ĠTom my
ĠH it
c ul
Ġres olved
OR Y
Ġunlike ly
Ġscenar io
Ġ âĺ
Dec ent
ĠTw ilight
Ġcord less
ĠJ ose
erv ative
Ġpoly gel
Ġu v
Ġfrequ ent
**** ****
ĠF IL
Ġbo ar
Ġvac uum
Ġfav our
T er
ĠD ep
Ġcom ical
op ath
Ġsmell y
et e
ĠChar l
th ank
ĠS ent
Ġincor por
ist ure
IR ST
ĠFort unately
ĠArn old
Ġt ong
Ġeduc ation
Ġling ers
ĠF IN
uc lear
Ġscratch ing
um ing
int age
Ġloose ly
Ġcast or
Ġrepresent ation
Ġdeterm ined
ĠMy ster
j u
ĠB ased
Ġsp oke
ĠH AS
ĠR achel
P L
Ġcou rage
Ġmist aken
Le ft
Ġdise ase
M G
K ind
Ġshe en
ĠAnd y
ĠDe f
ab ulous
ard less
... ]
H el
ĠS low
ci ence
Ġr hinest
Ġtr ade
W ife
u ate
Ġlearn s
Ġgoo ey
i per
ĠS on
Ġdist ance
ĠS ty
th ers
Ġcheap est
Ġout rageous
Ġstub born
ĠAust en
d im
Ġwestern s
ĠPr ince
ĠHor ror
it ting
Ġsp f
ĠTh r
Ġapp le
Ġclass es
ĠCan ada
Ġcartrid ge
ri al
ĠIt em
ment e
Ġlo cks
Ġhydr ation
Ġb aking
ĠSeason s
Ġ201 6
ĠCra ig
Ġaffect ed
Ġtal es
Ġrelax ed
Ġb ore
Ġmet allic
ra ce
ĠHard y
Ġfemin ine
omet imes
ĠInd ia
T LE
Ġcap ital
Ġtrust ed
Ġmagn ifying
Ġconsum er
ollow ed
Ġun ins
Ġhead ed
Ġslash er
ĠCh amp
Ġpo ignant
Ġtight en
Ġdiss ip
b es
ĠC ute
Ġtr ite
ve eno
Ġbuild s
Ġun for
ĠAl an
ĠI nt
Ġre ward
ic ago
f unny
Ġpr iest
!!!! !!!
Ġem br
Ġp um
atch es
Ġp ens
ra ma
ĠQu ite
rist les
Ġw are
id ently
Ġwash cloth
Ġcre ase
ĠG ary
ĠL uke
oo by
Ġsl ips
Ġjo in
qu is
Ġbet ray
Ġb ay
ĠV aseline
Ġstring y
pl ed
Ġis ol
Ġlong est
res pect
ĠNot e
Ġlead ers
Ġball et
u gg
ĠR am
gy pt
Ġprin cess
Ġsu p
ĠSt rong
Ġsympath etic
Ġsp arse
ĠUS ED
Ġpro ved
Ġgift ed
Ġdoz ens
iel berg
D ont
ĠC at
ĠAt t
Ġident ify
Ġav o
Ġt ut
Ġtra pped
Ġlaw s
Ġc ave
Ġdro pping
ĠG ene
ĠG ives
Ġlight en
ĠBob by
Ġsh aring
ĠK rist
Ġ20 19
Ġboun cy
rill iant
Act ing
ĠLOVE S
AT ION
Ġcomm and
gl as
min ator
ĠIM O
m ake
Ġche ated
Ġabr upt
min ute
ĠA ven
ĠEx cept
G oes
Ġdri ver
Ġexp osure
Ġch a
he arted
int e
Ġmin is
Ġsun block
Ġun con
Ġcomp assion
Ġslim y
Ġf ate
ĠAn na
ĠBE WARE
ĠF L
AR N
Ġper m
ĠL yn
Ġlay ing
Ġdi vers
rif ied
ĠLast s
ĠTh rough
Ġmag az
Ġsuccess fully
Ġdesper ately
4 1
Ġmach ines
Ġexperi encing
oss ibly
Ġque en
A ME
iz ard
ert ies
Ġfin an
Ġdest ruction
ĠL ore
oc r
Th ough
ĠW et
Ġstar ter
Ġfig ures
Ġtoilet ries
Ġdi vor
Ġprete nd
Ġdet ract
Ġcand le
Ġst ab
st yle
Ġmanufact uring
Ġrac ism
ĠC IA
Ġsp ill
ĠLook ed
Ġfa me
ĠCath olic
Ġm urders
Ġst amper
Ġout let
imp se
Ġfound ations
Ġprod uces
Ġbelie ving
ch ing
M any
Ġpos es
Ġbl ast
fin ed
Ġsoap y
Ġill ness
Ġreput ation
Ġliqu ids
Ġspark ly
Ġexpress ion
ĠH old
Ġdetang ler
Ġfi ber
Ġow ning
Ġtiss ue
H H
Ġthank fully
ol en
Ġsp oof
Ġpor que
Ġalb um
Ġunsc rew
Ġcor n
order ed
Ġbik ini
ĠCl ar
ff in
Ġencou rage
c ont
ĠT ur
Ġfa ced
ĠEnjoy ed
Ġc ig
Ġpro ven
Ġclean se
Ġrede em
Ġapprox imately
Ġa es
Ġres ulting
ĠAl ice
Ġgl impse
ct ors
Ġsa ver
ĠLou is
ĠNove mber
Ġprec ision
Ġsl ipping
Ġ201 7
Ġboot leg
Out standing
Ġreminis cent
pir ing
ĠS everal
RE ME
raph ic
Ġselect ed
f c
in n
Ġcomb ing
Ġc ents
Ġ7 5
M ar
Ġreal izing
Ġstraight ened
Ch ar
ĠE nded
Ġmount ain
Ġb ows
Ġd iner
ĠRog er
Ġf izz
Ġbe es
Ġk inky
Any way
is ms
Ġfar m
Ġbra ve
Ġinform ed
prising ly
M ake
Ġsteam er
Ġmanufact ured
Y I
ĠF UN
z il
ram atic
Ġcous in
ĠA cc
Ġbox ed
ĠTh ings
im um
ery l
ĠHOW EVER
b ought
e a
v a
4 6
Ġh ives
ob s
ro vers
Ġrins es
st ars
Ġprop erties
Ġpolit ically
Ġtri gger
Ġconcept s
ĠFur ther
x e
er ning
Ġimport ance
Ġaccept ed
ĠNorm ally
Ġf ed
ess ions
ĠJim my
Ġmarke ted
ĠMAN Y
; )
Ġru ining
as is
Ġsa v
ĠFr iend
Ġsuggest ion
Ġinstruct ed
Ġconsequ ences
Ġbeing s
Ġen semble
ĠV eg
ĠH art
Ġcontrol s
4 3
? ).
ĠAr my
Ġweap on
i y
an u
Ġar gan
Ġpret entious
Ġc ray
Ġinc ident
W N
br a
el ve
Ġbe lly
Ġsme ars
Ġcomfort ably
Ġcontem porary
Ġm ort
Ġspin ning
i ate
k en
am ente
j or
ĠWH EN
Ġor chest
ĠNE ED
Ġidi otic
Ġcomment ed
Ġdr astic
Ġlack luster
Ġexplos ions
Ġskin ned
Ġlet ters
Ġabr asive
ĠClin ique
Ġtop ics
ack s
Ġexist ed
Ġaccur ately
Ġclich Ã©
Ġprom ises
Ġl one
ĠG oo
Ġcomp on
Ġval uable
Ġcri mes
Ġr is
ag an
ĠRe view
Ġer rors
Ġmiser able
t one
AN G
Ġtre asure
ĠGirl s
H O
Ġpl atinum
im ated
ĠSh ipping
ur s
Ġsent iment
H ope
ĠAfric a
Col ors
ĠA R
Ġcomp atible
Ġg arden
Ġperf um
-------- --------
Ġrest aur
Ġheart warming
ĠGrant ed
Ġdec l
ios ity
ĠTy ler
Ġinvol ves
ĠH olds
d ish
wor thy
Ġreplace ments
ĠCind erella
C R
G rand
Ġab ilities
Ġun pl
ĠAr gan
Ġposs ibility
Ġthro at
Ġgo og
ne ver
Ġcont est
Ġsomet ime
ĠIs rael
Ġsole ly
rit z
W anted
ĠN ative
ven ile
ĠBl ade
ĠB or
ang es
Ġpub lish
Ġless er
Ġpot entially
Ġsp aces
Ġcame o
IS S
A b
Ġt ic
Ġcritic ism
ĠFIL M
Ġpl at
ĠG iven
Ġequ ivalent
! ),
ĠCl ancy
ĠOP I
Ġpel o
Ġros acea
Ġdis hes
Ġbuild up
Ġsuggest s
Be fore
il ted
ĠB arry
Ġfree ze
Ġhusband s
Ġn icks
Ġav id
Ġap olog
Ġhero ine
8 7
b on
Ġsacrif ice
fil m
Ġbar ret
Ġha unting
ĠV en
Ġmon omer
OR ING
Ġslap stick
Ġdri ves
Ġev olution
Ġthank ful
V S
ĠR azor
Ġvine gar
us ters
Ġre ject
pect or
Ġfra ud
s l
w en
uc ent
ĠRe member
Ġinvis ible
ĠP urchased
ten ance
¥ °
Ġto do
ĠTh ird
Ġfr uit
w aste
ĠRock y
Ġdep ressed
ĠM od
ĠðŁĺ į
Ġfl av
Ġreach ing
Ġine ffective
Ġdelight ed
all ey
ĠZomb ie
Ġin se
ĠG ets
ĠKN OW
Ġn ine
Ġdo se
ĠT at
res p
ĠGold en
ĠF orm
Ġnon etheless
Ġf ired
Ġ$$ $
Ġmaneu ver
Ġclos et
ĠKind a
Ġhur ry
aring ly
im ation
ĠB ern
Ġke eper
ĠCar ter
Ġexpect ation
Ġdu o
ĠR et
ps on
ke l
Ġti ghter
ĠF IRST
li k
Ġcatch ing
m ate
ail ed
Ġscrub s
oy ing
OR T
CE LL
ĠPac ific
ĠBET TER
m l
ĠK im
Ġestablish ed
ĠRobert s
p re
ĠR ub
Ġdri vel
Ġtrans fers
ĠDou glas
or ic
Ġsh all
Ã± as
Ġbrilli antly
br uary
Ġbob by
ĠV ir
urch asing
Ġdry s
it ially
ĠS to
Ġexpl ore
ĠFr an
Ġch ances
ud es
ĠRe yn
ĠS mooth
Ġuns ure
Ġdim ensional
N Y
f ume
ĠT we
ou li
Ġg ummy
ĠSp ielberg
umb les
Ġsal v
ĠHel en
ĠK n
Ġb in
Ġdec re
Ġlaw yer
ob b
ĠOR DER
W ork
Ġ/> &#
ac ies
Ġlas er
og an
ag en
Ġcondition ed
Ġeffect iveness
Ġscra pe
Ġunder tones
Ġrid ing
Ġintern ational
Ġsophistic ated
Ġimag ery
ER T
Ġdiss olve
dim ensional
gl oss
Ġto re
Ġresearch ed
Be ing
Ġagg ressive
Ġsu ave
Ġd are
Ġpre qu
So ft
Ġfright ening
S PO
Ġversat ile
Ġrec reat
Ġstereotyp ical
ĠS L
b ows
OU ND
ins on
ĠMc G
b ar
ĠM arsh
Ġqu ed
ĠR h
Ġdy s
Ġcontain ing
Ġz one
om y
ap or
ĠR el
ay ing
Ġmusical s
i ors
ĠV er
os o
Ġref lection
Ġwhere as
Ġh iding
iz able
ĠHA PP
ul ations
Ġafter ward
Ġsat in
ĠEx p
Ġbelief s
F E
Ġstre ets
Ġsubst itute
ĠR and
Ġstud ios
________ ________
r an
ol in
Ġa id
en z
Ġ3 2
ĠAl as
Ġexpress ions
C ont
Ġdi et
Ġprint s
ĠTe ch
Ġsp ice
S ame
Ġw ars
Ġinspir ation
Ġmethod s
ĠE gypt
Ġdist orted
b uster
f elt
Ġshampoo ing
âĢĿ ,
Ġaccur acy
Ġread s
ĠDam on
Sim ply
w alk
ĠS at
Ġal as
Ġdress er
ĠQu ick
ĠC reat
Ġtr ay
Ġelder ly
ĠMill er
ian o
Ġm ig
al most
form ed
ĠIT S
Ġpedic ure
c uts
ĠC inem
Ġus ers
Ġcomple ted
Per haps
ĠK urt
ĠM id
Ġpolish ed
pl ess
Ġev ident
E X
Ġind ie
Ġart work
ĠEx actly
Ġther apy
cred ible
ĠYE ARS
Ġchang er
ĠR oss
at al
Ġ20 22
Ġtamper ed
ĠSept ember
! ?
Ġrepres ented
Ġwh isk
Ġinvestig ation
Ġconvers ations
ĠR ome
gr oss
Ġ19 90
vent ually
Ġspread s
Ġmarvel ous
Ġhur ting
Ġlifest yle
Ġre un
Ġsh elves
Ġri g
Ġfoot ball
cond itioner
Ġpl acing
Ġll eg
G arbage
l est
Ġchild ish
Ġwrest ling
B as
Ġpro ced
Ġ201 5
Ġover done
OU GH
z ard
Ġs aga
Ġcont rovers
Ġ @
in ent
ĠC ase
ĠTH ERE
ĠMitch ell
Ġpo ison
s is
ĠPER FECT
ĠA ra
Ġshe ars
Ġslow er
ĠCle arly
Ġt ank
Ġs incere
ol esome
ĠB ummer
Ġling er
Ġtremend ous
g usting
th a
ig or
Ã¡ cil
Ġh ired
ĠPrin cess
ĠJ osh
Ġclar ity
Ġdepe nds
Ġrip off
Ġmer ch
Ġ201 8
ĠCo oper
Ġst aple
ĠM ont
Ġrecommend ing
bl ack
VIE W
Ġpuff iness
Ġlegend ary
or c
Ġrel uct
Ġp are
f um
Ġred emption
ĠSim ply
Ke eps
ĠM as
ott a
Ġs outh
ĠCh icago
M ich
ĠAr m
Ġpattern s
ĠTry ing
ĠSer um
Ġreve als
tit les
Ġintellect ual
ri ve
Ġst ray
um ents
ĠCam eron
Ġt ab
Ġcr is
ĠBe yond
ant om
Ġstretch ing
Ġpr ic
ri m
un ning
Ġdu plic
N A
ĠJ eremy
Ġim perfect
Ġ:- (
M art
Ġc ards
Ġcontinu ous
Ġfront al
ĠC OULD
Ġ- --
ic ians
Ġsh ar
Ġbed s
ul ating
ĠO MG
Ġautom atically
ĠP S
ĠChrist ie
Ġvi be
ĠW ON
Ġmain stream
Ġodd ly
fun ctional
Ġvel ve
Ġst olen
ĠLaw rence
es on
ĠB Y
ĠTr ust
ung le
Ġrep orted
Ġsty led
Ġlle go
Ġnostal gic
Ġcush ion
Ġbl ess
uc alypt
Ġperform ing
Ġment ally
ond a
Ġdedic ated
lik able
it ives
Ġgra pe
ig er
Ġch ain
Ġid k
ĠH ann
ĠE le
OU GHT
Ġaccompl ished
Ġn ative
ĠR ad
ĠA udio
G R
f irst
a qu
u ght
Ġo t
Ġc ats
A B
Ġchar coal
lo ad
ucalypt us
Ġn uclear
Ġn in
ĠAW ESOME
ib al
s chool
Ġtong ue
ĠW ind
Ġval id
ĠW anted
Ġround s
Ġh unting
Ġar rog
Ġtravel s
Ġg um
Ġsent ence
ĠðŁĺ Ĭ
Ġhom osex
ĠReyn olds
Ġne on
d oc
Ġsad d
Ġflo ating
ĠDra cula
og rap
Ġsh ips
Ġgrand ma
Ġaband oned
ch et
ĠM ass
ĠB ow
Ġinj ury
Ġcabin et
l asting
Ġbe ll
ĠIn tern
en stein
Ġemail ed
im ag
ĠB oo
L iterally
ĠIn ter
Ġgrab bed
low er
C omp
d ays
Ġno isy
Ġste als
O P
w olf
ĠðŁĺ ¡
Ġdefin ately
ĠB er
Ġprotect ing
Ġnons ensical
S ur
Ġbl ink
Ġmus cles
Ġsol ved
¹ ï¸ı
Ġcur iosity
ig an
ĠLO OK
ĠC all
ĠV amp
Ġtweez er
ĠE ve
Ġscient ists
Ġlog ical
Ġob l
ĠKe aton
Ġvamp ires
Ġgra ve
le ased
Ġpro st
Ġtrick s
ĠAB OUT
u u
Ġswe aring
Ġde but
ĠL arry
Ġback story
Ġf ought
Ġinteract ions
G IN
Ġst urd
Ġsh oe
Ġsit es
che ap
Ġf ried
Ġmain tenance
Ġ201 2
Ġinsight ful
Ġintegr ity
H appy
g ency
ĠL os
Ġcred ible
ĠAustr alia
Ġdu pe
Ġqu ote
qu er
ĠAS AP
ĠE L
ðŁ Ļ
EN S
F O
Ġtra ined
Ġho lly
ĠWW E
Ġcance led
Ġjour nal
W AYS
Ġwra ps
Poor ly
d irector
ĠAs ide
ep ing
ĠV era
Ġsal ons
ĠEXT REME
Ġm ath
Ġph r
ook y
ĠSc ar
ĠWal ter
ĠSci ence
x y
ĠFe bruary
riter ion
B lu
Ġend ings
Ġen light
Ġr ude
Ġthr ows
ĠW rong
Ġgo opy
d ark
Ġp ore
Ġc eramic
Ġgener ations
ĠWE LL
ĠDISAPPOINT ED
AT ED
ĠN ic
Ġv intage
++ ++
! .
ĠW RONG
ĠO LD
ĠPar amount
Ġholid ays
F IN
Ġpress ing
Ġreb oot
id ers
ĠAt l
Ġende aring
v ory
Ġown ers
ri ct
ĠA qu
ĠV e
Ġidi ots
ĠNY C
CELL ENT
Ġb ible
ob ody
Ġstr okes
L OR
ĠH uge
Ġsurv ived
Ġc ong
ĠWal t
Ġa ck
ĠT em
mm m
ĠL ater
Ġsy m
Ġtrick y
Ġ !<
Ġch unk
Ġs ust
our ne
Ġch rome
Ġex ceeded
Ġp aus
Ġexte nd
ĠCH E
Ġa th
Ġwe ft
Ġboth ers
Ġguest s
Ġtransl ucent
Ġper pet
ĠHIGH LY
p retty
il ation
ĠGra ce
Ġoffe nded
ĠLaur a
Ġwall s
ĠRid iculous
L ow
Ġbe ige
Re g
Ġfashion ed
ĠR oy
Ġsmud ged
ĠHe art
Ġprem ium
5 9
ĠIt aly
inc ent
Ġ; )
Ġpum ice
Ġunf unny
ud ge
E pisode
ĠLeon ard
ĠI II
ing ed
Ġc d
Ġles bian
j i
Ġn ational
ĠL and
st ill
Ġbelong s
s hip
ut ter
Ġcon j
Ġmus k
Ġcorpor ate
ĠV ers
M ust
Ġconv ol
ĠI ce
ĠG ord
Ġdeli ber
ĠJam ie
Ġv it
AU SE
Ġincre ased
b oth
Ġl unch
Ġbright ness
Ġwip ing
Ġsuit case
Ġtrib ute
ĠVeg as
Ġcloth s
z es
ad or
ĠV is
Ġ/> **
ĠP il
Ġfl op
ĠSt upid
Ġocc up
Ġsubstant ial
ĠEVERY THING
Ġp ued
ar ian
ĠC re
ĠG OT
Ġrob ots
Ġha ha
Ġarg ument
I RE
Ġprom ote
ĠHarr ison
Ġref ills
c as
w ife
cle an
Ġcont ract
Ġsafe ly
Ġdisc om
ĠWOR TH
i i
Ġcontin ually
Ġcar ic
Ġconf usion
W on
Ġhold ers
Ġh orm
Ġend ure
Ġsme ared
Ġprop s
an while
Ġun int
ĠE S
Ġsus pend
ier ce
Ġcell s
Ġstretch y
Ġdefe ats
Ġdisco vers
Ġaw ake
ty pe
mit ted
ag ain
friend ly
Ġlu bric
ĠTurn ed
Ġst im
Ġs ill
ĠP ass
Love ly
Ġvol um
ĠComp any
Ġdiscon nect
Ġl apt
ĠC a
Ġprev ents
ĠA ge
Ġplace ment
min ation
Ġrend ition
F ake
Ġtri ple
aa aa
l ength
ĠAd vent
Ġintrod uce
Ġwe althy
Ġfragr ant
Ġchrist mas
ĠS now
g us
Ġparan ormal
Ġ201 4
rep res
Ġcartrid ges
iz ations
Ġret ired
t ly
v an
Ġpen et
ĠDoll ar
ĠC ivil
ĠF ell
ĠW ife
ĠAd ams
Ġl int
Ġconc erning
Ġr um
Ġspoil er
Ġtang ling
Ġconvol uted
5 7
ak i
l ance
ct ure
Ġbe ating
ĠAust in
p aper
ĠIm agine
ap hor
ĠG ear
Ġcre ases
Ġtoilet ry
Ġrel atable
Ġcapt ions
Ġting ling
Ġs ail
Ġl ens
ĠC VS
Ġdiscom fort
p ol
Ġtop coat
Ġnew ly
Ġign orant
Ġglob al
Ġunbelie vably
A VE
i ated
Ġgrand kids
f b
Ġout fit
Ġbur st
i pt
Ġmon ot
Ġju venile
i very
Ġup coming
D umb
ED I
Ġtut orial
ud o
ĠBroad way
r ich
Ġw est
Ġmusic ians
c ould
ĠG un
ĠSt ays
Ġpar all
Ġstamp ing
Ġintern al
ĠHop ing
Ġin nov
Ġreg im
ĠBE C
Ġhom es
ĠPlan et
f its
Ġunder rated
Ġpay off
Ġinte nd
act s
Ġthous and
ĠTe a
Ġagg rav
ĠC ustomer
Ġmotiv ation
ĠB ry
ĠB and
Ġlab or
ĠCar l
Ġde ja
Ġest Ã¡
ĠPack aging
Ġserv ices
M ENT
Ġtexture d
a br
Ġl ining
Ġdis respect
ĠSil ver
Ġsu its
ĠL iving
Ġsw ipe
Ġsett led
6 1
ĠMur ray
Ġal ter
Ġdy es
Ġg ear
Ġb ite
ĠHarr is
Ġha unted
Ġstretch es
ĠR ing
Ġorgan ization
Ġrecy c
Ġdev ast
Ġincom plete
l am
Ġg aps
ĠCol in
D ON
u a
ĠC y
Ġunder whel
Ġheart s
Ġindic ate
Ġg ro
arant ino
Ġresist ance
Ġsp ort
ret urn
Ġarmp it
ĠL otion
ĠE p
Ġsympath y
b ig
Ġ .....
ur ance
Ġfree zing
Ġbath tub
h s
om ination
ĠB ottom
ĠM iddle
os is
Ġco ated
Ġfl uke
Ġgre ed
ĠTr ump
B C
Ġmar gin
Ġsour ces
Ġfa cing
Ġbr u
ĠY uck
ĠK ay
bs on
ĠTh us
Ġun iversal
he art
Ġpop ulation
Ġimmense ly
Ġconc lud
ðŁı ¾
Ġdestroy ing
Ġcreat or
A gain
Ġsuperf icial
Ġn ominated
Ġtit led
ĠSim ple
ĠEX P
Ġack now
Ġdraw s
an i
ĠSh ort
ĠVol ume
Ġman ly
ĠPURCH ASE
ĠM ount
op ened
00 00
ĠE D
Ġreg ards
Ġant ics
PLE TE
ive a
Ġfail ing
Ġunder lying
ax y
Ġpregn ancy
f ire
ĠK it
D ry
g reasy
ru ption
Ġresult ed
Ġglitter y
ĠI re
am ond
ĠFre eman
h is
i able
Ġb reeze
Ġpl ants
Ġactiv ities
ĠSH OULD
ograp her
Ġlif eless
ĠA veeno
Ġc yn
ĠE mp
ĠSE ASON
Ġdecept ive
5 8
C ool
Ġexpl icit
n el
Ġch erry
Ġirrit ates
Ġcontinu ously
od ge
ĠW ait
Ġpl ausible
) ...
Ġge nder
Ġminis eries
Ġsanit izer
Ġrhinest ones
Ġde wy
Ġpl um
Ġres olve
Ġrough ly
Ġfol k
Ġstain less
ĠW at
Ġfill s
ww w
th ought
Ġyour s
Ġclass y
Ġmanic ures
U D
d c
Ġt une
Ġco inc
ĠPL AY
Ġref uses
Dis like
Ġupset ting
Ġred dish
Ġrest oration
Ġri val
ĠST ARS
Ġoper ate
Ġco coa
Ġsto le
ĠSt and
Ġdraw back
tain ment
ĠEn ough
f est
Ġf ence
Ġperform ers
arn ed
Ġha bit
Ġskin ny
ĠC ertainly
ro le
ĠUlt ra
L ittle
ĠB D
um sy
ĠL ash
s en
ĠC riterion
ĠP a
Ġes per
Ġmain t
Ġthread s
Ġsn ug
ĠF usion
ull s
ret t
Ġpier cing
b uy
id al
ee k
Ġeff ic
le ck
Ġti res
Ġdeal t
Ġdisg u
cer in
ĠAL WAYS
ĠM iner
Ġla unch
Ġgang ster
Ġp ity
ĠP ear
F ORE
Ġprocess ed
ad get
Ġsoft ens
iss a
ĠBurn s
Ġchore ography
Ġvis iting
Ġhonest y
Ġprofess or
Ġsuff icient
velop ed
ĠBra zil
ans hip
Ġback dr
Ġbed room
A IL
ĠG il
ĠA st
ol ver
ĠSim on
Ġbleach ing
h op
r ob
ion ed
Ye ah
Ġp ants
ĠS ix
ĠC oc
Ġcl in
ĠANY THING
Ġuncon v
H ey
Ġp oured
ĠM AC
Ġ2 7
ĠEXTREME LY
d b
Ġfro ze
Ġwh olesome
Ġred o
g reens
Ġrout ines
Ġdeterm ine
ub s
Ġd ot
Ġtransl ation
ĠN ol
Ġdi amond
am ous
h orrible
ack y
Ġent ry
Ġchem ically
Ġap oc
Ġveter an
F T
s uch
ic ion
Ġj ail
Ġsub par
Ġb acter
om ic
U gh
Ġdeath s
Ġexist ing
g al
ie ving
Ġr oses
Ġbreat he
Ġinspir ational
Ġdrag on
fun ction
p ire
Ġun likable
l ace
ĠN ational
Ġrec on
Gl ad
ir able
Ġbreath taking
Ġmel ting
ĠRee ves
Ġdr own
0 7
Ġsum mary
Ġc ens
Ġpower ed
Ġjewel ry
Ġ200 1
Ġrubb ish
Ġholly wood
am aged
Ġcleans ers
ĠHawai i
ad ays
Ġblot chy
ĠC as
Ġman ne
Ġfi ance
ot a
Ġbreat hing
ou b
Ġp ause
Ġsu ng
Ġcris is
ĠS ir
aw ful
Pack age
Not e
a ited
ad ian
Ġ3 00
Ġext ensive
f ight
et ically
Ġeyel iners
Ġstead y
m ery
Ġach ieved
d ad
u eless
ĠðŁĺ ŀ
ĠTurn s
d og
Ġsupp lier
Ġheal ed
Ġlapt op
M ine
co ol
Ġelect ron
Ġcar rier
Ġr ank
Ġelimin ate
h o
Ġhapp iness
ĠC old
ĠB arely
Ġsp ider
ian e
Ġappear ances
Ġlegit imate
Ġsuc ceed
Ġconfir m
ĠF O
ĠSh a
Ġpower ing
Ġsatisf action
Ġneigh b
Ġback ing
Ġv om
ĠG ross
Ġman s
Ġter rifying
s mell
Ġst umbled
ĠO thers
Ġclaim ing
Ġ201 3
Al most
Ġs ings
Ġadjust ment
Ġdinosaur s
pl ots
Ġrac coon
Ġcamer as
Ġprep are
Ġstencil s
Ġmagaz ine
ĠA ward
iv a
Ġz ippers
Ġformula ic
Ġfilmm aking
Ġphilosoph y
Ġo ri
ĠRep ublic
O S
ĠAl f
ĠG reg
ĠCO LOR
Ġencounter ed
Ġd ang
Ġsir ve
Ġilleg al
Ġl un
ĠGi bson
Ġen orm
nt on
j ection
Ġn av
ĠG L
Ġcomp rom
Ġgl itch
ĠMo isture
ĠD ave
ud ic
ĠW ash
com p
iver ed
ĠS in
Ġstar ing
ĠTHE N
od orant
ĠS av
T akes
Ġb ust
Ġconsum ing
Ġ100 0
Ġcompe lled
Ġabsorb ent
p ense
ĠWh ether
ock ing
ori asis
Ġz inc
Ġaddict ive
ĠAustr alian
Ġsen ior
Ġdevelop s
Ġret ract
i ance
ID E
ĠCon ne
me l
Ġr hy
pl ane
Ġgl ory
Ġwid th
ĠS topped
ĠH off
u esome
ur ies
ĠE y
th anks
ĠD RY
ĠSt ud
ĠH ob
Ġsle pt
Ġtim er
Ġactiv ator
ĠM ind
Ġsing ers
ĠGord on
ur b
Ġmis cast
tern al
ĠJose ph
Ġover se
ĠDen zel
at ar
Ġknock ed
Ġwhisk ers
W ouldn
Ġghost s
Ġfool ish
Ġ/>âĢ ¢
i at
le e
ĠRe f
ĠWor se
R R
a ign
ce nd
Ġar rest
sc ented
Ġlay ered
Ġag ents
Ġentire ty
Ġhighlight ed
ect ive
ma id
ĠI mm
ah a
an ium
Ġst ings
Ġcatch es
BS OL
Ġfort une
Ġneighbor hood
ĠW ant
ĠT arantino
Ġri ps
ĠBr id
Ġd omin
ĠM atch
ong s
B ew
ĠSc ooby
ĠRE VIEW
Ġpron oun
Ġc ape
Ġra cing
ĠSP O
z ed
ĠL IT
ĠJul ie
ĠSA ME
Ġa qu
ĠF E
est ic
Ġuns atisf
ĠBarb ie
Ġvir gin
ico le
J ack
ri o
Ġinter rupt
ĠChristian ity
Ġtri umph
Ġbe ast
Ġprot e
Ġdiner o
L ESS
P R
Ġrev olution
Ġbrief ly
Ġgr uesome
ĠAct ors
Ġmembers hip
ĠM IN
ĠFor ce
f ound
Ġj er
Ġex ha
Ġar th
ĠId k
Ġic onic
Ġsp an
ile y
Ġart icle
oun ters
Ġcomedi an
Ġattack s
âĢ ľ
Ġte aring
che ck
E n
b id
er ie
ur ai
Ġsc reens
Ġg am
gr aded
Ġdescri ptions
hand ed
ĠPhill ips
a ways
ĠBoy s
Ġnur se
F U
Ġhop eless
Ġtransfer red
ĠVir gin
Ġarg ue
Act ually
Ġb umpy
ĠD ays
ail able
aly pse
F r
Ġstr ings
role um
Ġm it
Ġf rench
ĠF an
Ġexec ut
0 5
w ow
ĠSecond ly
oy d
Ġtechn ically
Ġansw ered
Ġfavour ite
Ġse nds
ĠM G
cept ion
Ġappro ved
ĠL ine
ĠBE FORE
ĠL u
Ġregim en
Ġdur a
ĠCrow e
ĠCast le
ĠDol by
Ġrestaur ant
d irect
ĠI ll
Ġsting ing
u ated
M en
Ġpure ly
Ġpigment ation
Ġauthentic ity
ĠCOM PLETE
Ġameric an
Ġme jor
Ġsubject s
ubr ick
ĠHit ler
Ġcur se
Ġmint y
D ark
Ġc ere
Ġworld s
r ite
ĠSt arted
Ġd ots
ĠV incent
Ġsyn c
st airs
Ġcl umsy
Ġforg ive
umin ous
ĠHel ps
ĠSpr ing
jud ice
se ason
Ġr er
Ġrep urchasing
d f
Ġcou ch
it ution
ri zz
Ġlic ense
ĠM A
Ġfoc using
Ġdef ense
Ġj et
ĠC li
Ġh ol
AL ITY
o ven
) !
J unk
ĠW A
ĠMake up
ĠAl oe
Ġsp aringly
Ġavo ided
Ġgr ief
Ġcro oked
Ġp ills
AR K
Ġfinan cial
ang led
ions hip
Ġreal izes
ĠSh ave
Ġed itor
Ġsubsequ ent
C ra
Ġye ll
Ġmus cle
Ġp im
Ġback up
edi ately
Ġsho ots
OTH ER
Ġout dated
te ll
Ġhy al
?! ?
Ġst ilted
Ġsal ts
und y
Ġdanc ers
Ġm ush
B UT
Ġab d
Ġcomp ens
ath a
ang les
Ġcy cle
Ġstun ts
ĠRuss ia
m ons
Ġfif teen
I OUS
e me
is c
ĠAl ong
Ġdem ons
ĠE ventually
Ġrep ly
Ġw ard
Ġcomb ine
Ġexcept ionally
Ġpract icing
belie vable
; .<
Ġb ol
hh h
8 4
ĠEm ily
Ġimagin ative
it er
Ġp ages
Ġdesign er
Ġbull et
ag ement
ĠHam mer
Ġmiser ably
O Y
ad os
ind er
ĠO per
Ġim itation
Ġsur real
Ġbored om
ðŁĳį ðŁĳį
Ġcred ibility
i ol
Ġal beit
ĠC LE
Ġdescri bes
Ġrespons ibility
Ġresour ces
ĠHe aven
Ġunse aled
BSOL UTE
ĠF resh
Ġhum our
Ġan k
ĠA ud
Ġlip gloss
T op
em ies
ĠMex ican
Ġna ive
Ġst ir
ĠSt op
ĠSer vice
ĠKenn edy
Ġn ick
ĠB og
Ġback wards
Ġcard io
Ġenc anta
ĠLes lie
B ased
G ift
f o
h ist
ĠA V
Ġfirm ly
ĠD ennis
ort on
Ġfl attering
Ġremind er
arent s
ang el
Ġfif th
O p
Ġcra m
Ġdev oted
Ġaffect s
Ġcompan ion
Ab out
y our
ĠH oly
c f
Ġfl ag
ĠKe anu
Ġmeaning less
h ot
Ġm att
od ing
Ġk eratin
8 2
ĠB ottle
id el
Ġra iny
Ġcal ming
ra in
s kin
g iving
Ġs arc
Ġb ush
ist ics
ond e
Ġdev il
ĠSand ler
: //
Ġsp ritz
Ġcrimin als
Mich ael
ann ers
Complete ly
Ġn umb
Ġadd iction
Ġodd s
ent er
ĠM ed
Ġemphas is
ĠM AKE
ĠCl o
ul as
Ġpe op
ĠA br
ĠD awn
ĠF ish
ĠR oad
Ġcho osing
Ġspl ot
Ġadapt ations
Ġsl ipped
form ers
ĠSp ice
Ġblat ant
Ġf uss
Ġins pect
ph ant
W E
Ġs essions
Did nt
y pe
hor ror
Ġstr uck
Ġdisc olor
ĠAnd is
Re commend
Ġvul ner
Ġsore ly
C ap
Ġun imp
ĠSe emed
ĠGener al
Ġn od
cl aim
ĠPoor ly
r in
Ġp se
Ġl udic
Ed it
or se
he ll
Ġdisc l
ĠHe y
ie ves
ol n
Ġrespond ed
c b
Ġun its
Ġcro chet
Bew are
R em
Ġp ap
Ġst able
Ġwh eels
ĠSus an
Ġhyster ical
ĠT E
ĠMag ic
Ġdepict s
pr ised
Ġweak ness
Ġappreci ation
ĠReg ardless
S I
Ġorgan ize
ĠMag n
Ġha zel
Ġst roke
ort ment
n ormal
Ġinterview ed
Ġm ouse
Ġle an
Ġwh is
Ġpr icing
pr obably
Ġg ags
AT ER
Ġimprove ments
Ġn it
ir m
ĠBra vo
Ġparab ens
f ruit
ist ically
Ġen gross
Ġbook let
Ġclass ical
Ġappe aring
Ġt ense
ĠV el
Ġfull ness
Ġrout e
Ġlux ury
Ġbudd y
U Y
Ġm ish
Ġcolog nes
be aring
ats on
Ġep il
Re al
ĠL ist
ĠNY X
Ġsubscri be
Ġcl ock
igh ters
ĠD AY
Ġtw in
ĠZ one
Ġl av
Ġcr ush
Ġve get
Ġse ed
ĠT alk
ĠL AST
ĠCh o
Ġexpl oded
Ġrelig iously
ĠMag gie
I nt
Ġra cial
Ġunder arm
Ġant agon
ĠCon st
E ach
ar thy
ĠW ERE
ĠD ial
ĠDon ald
ĠOli ver
F ell
ĠG er
ĠK ane
Ġcur sing
Ġpo co
Ġreve aling
u ation
Pe ople
Ġbe ars
A re
Ġatte nd
al ph
Ġrecogn ized
p aced
Ġwish ing
ĠK er
Ġwhere ver
% .
Ġho key
B ottom
ĠW ere
9 4
ĠF alse
ĠE ND
Ġf Ã¡cil
ĠP ix
Ġdeliver ing
ĠMich elle
Ġfingern ail
ĠM ajor
ĠBl ur
Ġj eal
Ġlist s
Ġheart ed
ĠCo vid
ĠMO V
Ġbi as
aw are
Ġperiod s
ĠH ATE
Ġconsum ers
Ġgrad ually
ac on
Ġincomp et
O mg
or gan
Ġbr idge
Ġbad ger
ĠSt raight
Ġcow boy
Ġbut ch
ĠK ubrick
E st
ĠG re
Ġvol umes
Ġdef ine
Ġps oriasis
ĠW TF
Ġfew er
Ġrev is
it ual
Ġhead aches
Ġhair brush
Ġwhat s
Ġinter ior
0 1
ĠH ood
ĠE P
Ġclump ed
Ġunins pired
ĠS N
Ġorigin ality
h em
ĠTh er
ĠW olf
Ġcall uses
Ġsn aps
Ġste aling
Ġthe ories
We ird
Ġhint s
ĠR oyal
Ġsme lt
ĠCom edy
Ġfa ve
Ġw is
Ġclear er
ĠHoff man
d oor
ĠL iam
Ġcent ered
Ġmes mer
asm ine
ut ch
Ġre verse
ĠG ly
Ġover rated
lic ation
Ġover he
ĠST AR
bl ade
Ġobs erv
m ins
s er
ĠW ig
Ġbr un
ac c
Ġobl ig
ĠApp le
Ġcom fy
Ġdep os
Ġtremend ously
Ġcontroll ed
Ġware house
ott les
Ġhydr ate
ĠMost ly
Ġsplit ting
ĠAc id
Ġenh anced
ĠGO D
ĠLOT R
ĠTh ick
ane ously
ĠP ay
Ġass ault
Ġsuck er
Ġcompr ar
M AN
Ġfun ctions
Ġtoss ing
Ġconcent rated
Ġexclus ively
ant ing
Ġgr ass
ĠRed ford
am il
Ġk icks
Ġneat ly
Ġrece ipt
Ġpot ent
Ġgar age
ir ot
Ġj azz
s orry
Ġsmud ging
ĠWho ever
Ġdo ctors
en joy
Ġsp r
A v
on ing
Ġg adget
Ġha vent
ĠN ivea
fe ld
Ġpe arl
Ġbu gs
Ġcomp re
Ġsign ature
B ox
ol ving
Ġdec ently
ĠN avy
Ġass ortment
Ġdiss apoint
Ġstraw berry
ĠO THER
Ġfing ert
Ġreach es
M r
Ġdanc er
EE L
inte gr
Ġt ar
ĠF AR
Ġph arm
Ġstink er
9 6
L I
ĠD er
ĠG reek
Ġconf ront
inc oln
ball s
Ġdiscontin ue
h um
Ġj e
Ġine pt
ul ed
Ġadjust ed
Ġcamp aign
Ġdub bing
, &
writ ing
Ġy ard
Ġtoler able
Ġye lling
Ġcapt ain
ĠST ORY
Ġcitiz ens
o ops
ĠN C
Ġun st
Ġprof it
Ġindic ation
Ġspark les
ĠI ra
Ġi T
Ġdri pping
Ġcig are
C KS
Ġang st
Ġinfect ion
Ġrec ipe
Ġann iversary
ĠR ain
Ġel bows
8 6
v ity
Ġjo joba
Ġdisco very
T ry
W rong
ĠS ummer
Ġstrict ly
Ġat e
Ġnow adays
un ction
!!!! <
Ġas hy
Ġte le
) ]]
m uch
Ġboun ce
ĠLe ave
Ġabsor bing
ĠM ADE
Ġcons ists
ĠCO VID
ĠFrank enstein
Ġmanne quin
ĠW es
Ġtre es
Ġoccur s
ĠC C
os ol
ical s
Ġinv asion
Ġg uts
Ġshap ing
Ġroot ing
Ġreorder ed
b etter
r ad
Ġt ick
ĠConn ery
d ri
ĠJ ay
ress es
ĠBat tle
ĠI an
ĠF u
Ġlight est
? ),
Ġbe er
Ġpos ter
Ġfuncion a
ill ion
P icture
Ġres ort
fer ence
T T
d ep
Ġbe nding
ĠSand ra
Ġtoen ail
ĠC urt
ĠBarb ara
ĠEmp ire
id ents
ĠF ood
Ġhard en
ĠJust ice
Ġbas ement
Ġleg acy
ĠBEC AUSE
7 6
on ut
Ġret ire
Ġimpl ausible
Ġarth rit
Ġse wn
ĠN ails
ex istent
Ġhyal uronic
ĠL am
Ġkn ee
Ġdec iding
ix ed
........ ........
ĠB attery
Ġmax imum
ĠHans en
L ES
Ġcharacter ization
ph a
Ġstri ke
Ġha y
ĠD ur
ous ing
Ġeng age
Ġsimpl istic
us sed
ĠBe ck
Ġrom p
Bl ack
Ġpl od
Ġtwist ing
ĠJ ar
Ġattack ed
B T
Ġh ilar
Ġ/> --
Ġling ering
N E
d ie
Ġ20 10
ĠTwe ez
doc umentary
ĠBro oks
Ġpeop les
t wo
Ġeas iest
ro be
Ġunf air
ĠAngel es
âŃĲï¸ı âŃĲï¸ı
T e
r un
ĠA ri
iv ors
ĠCan adian
Ġincreasing ly
Ġdis plays
Ġcomment aries
Watch ing
c s
Ġaccount s
P RO
ed ge
im a
Ġmod erate
it ate
ĠW rit
ĠH o
Ġed itions
Ġ/> [[
Ġsm h
ĠTer minator
ĠEnter tainment
w ax
Ġtime line
Ġoper ation
ĠGoo gle
~ ~
Ġhistor ic
Ġst er
ĠD aughter
Ġgra bs
Ġsecret s
pro fessional
ĠU r
Ġunderstand able
ĠH um
Ġsched ule
S how
ĠS weet
ĠC arp
ĠH ARD
Ġbene ath
Ġacrylic s
ĠAff leck
Ġbackdr op
ig ning
Ġassemb ly
ing u
Ġt abs
Cheap ly
ĠOb ama
D ried
o en
ĠL avender
ĠCons idering
im mer
ĠWh it
Ġprogram ming
7 3
Ġwe ave
ĠP oint
Ġmis repres
ĠClo oney
7 4
C D
an ie
US H
ĠS D
ĠM ain
Ġadv ised
b u
Ġd rew
Ġe go
Ġbl unt
B at
ĠD ries
ĠR iver
Ġ10 80
ĠBl air
ĠInst ant
Ġdram atically
Ġbra iding
oz en
Ġv ote
ĠCl ass
asc ara
rel ated
Ġ1 20
Ġtheir s
Ġpet roleum
Ġneighb ors
S A
Ġsh out
Ġfil ter
Ġfra gan
Ġstr anger
sh ow
Ġtransp ort
h uman
l ined
Ġc uss
ed ar
Ġshower ed
Ġshim mery
it led
ĠEd ge
Ġd ata
ir ley
pow er
ĠYe ars
Ġshar per
Un less
ĠMG M
ĠMor oc
an other
Ġcr umbled
ann els
Ġcross ed
ll ar
al a
ĠM ey
Ġkill ers
Ġj ack
Ġj oint
Ġ19 30
ĠMic key
Ġpart ies
AST IC
I Z
pe nding
ĠK ent
ĠW atson
ap ed
Ġdead ly
ĠJes se
uc ing
Ġmus ky
Ġast on
s ame
Ġback s
Ġhy ped
Ġgimm ick
U sing
Ġp iano
ĠCh uck
Ġaccomp an
x ter
Ġdo ve
Ġfr ozen
Ġde hydr
Ġsh y
Ġbacter ia
Ġmo s
ĠF all
Ġspe eds
Ġtroub led
Ġ 00
am azon
Ġover bearing
ĠSee ing
ĠF X
ak a
Ġfil ed
Ġhom age
Ġinst r
Ġdisg race
ĠWalk ing
Ġsqueez ed
Ġpim ple
Ġch asing
Ġindic ates
Ġopport un
w l
Ġre usable
Ġdys functional
9 3
Ġth igh
ĠBe ard
Ġha zard
st rong
ĠM ason
Ġproper ty
Ãº per
Ġst aged
in ations
Ġreapply ing
T O
ĠB ush
Ġti le
Ġneed le
ĠAli ens
Ġpatch ouli
Ġincons ist
Ġb iblical
Ġf ue
ĠSh aving
ĠWal greens
Ġmotor cy
Ġju ice
Ġrender ing
Ġexpl ored
Ġnause ating
ĠScar let
Ġgrand p
Ġ9 5
ĠJew s
h et
ĠH oney
Ġn arc
8 3
Ġnot able
Ġr oyal
ĠM acy
Ġse ams
Ġwork er
av ailable
Ġind ul
Ġment ions
ĠB roke
Ġcons ervative
AT H
Ġst unk
ĠSc ot
Ġcow ork
Ġhairst yle
Ġpres um
Ġheaven ly
Ġfund ament
ĠB ORING
Ġli me
Ġtri o
Ġvibr ation
pro v
ĠQU ALITY
Ġpres cription
omed ay
ĠCry stal
V e
Ġsh er
ĠAs s
Ġbuff er
ĠM ess
Ġmind ed
ĠH ate
ĠT am
Ġbr ick
Ġbeard s
Ġa unt
Ġpr ide
ur assic
Ġch am
writ ers
Ġal tered
Ġludic rous
v iet
Ġsc oop
Ġlar gest
Ġport ra
c ame
Ġs appy
Ġu gh
ĠB ud
art ing
ĠSome how
Ġton ing
ĠMe anwhile
Ġeyesh adows
ĠCent ury
A bsolute
ĠP ic
Ġad her
Ġsand paper
ple x
ell er
!!!!!!!! !!!!!!!!
Ġprogress es
ĠN icole
ps y
Ġunder tone
Ġsharp ener
ĠD u
fe el
ĠR a
ath on
Ġpe e
Ġcomedi ans
erson al
ĠJud y
ĠBeat les
Ġhead ing
Ġast ron
c reat
Ġspec ies
Ġtie mp
ĠThor nton
S omething
k ill
Th ree
uc umber
Ġoverlook ed
ĠMOV IES
ĠY oga
ob ic
Ġdefe nd
Ġ19 40
Ġz oom
Ġant ib
Ġcry st
7 2
ĠAl bert
Qu ick
Ġintention ally
Ġpartic les
ĠWho le
ĠC atherine
ĠF ragrance
ĠWe ird
Ġlos er
ĠBrit ain
age able
ops is
ĠTe am
ĠPo irot
Ġcray on
a ust
Ġl em
ĠM ia
Ġcr usty
Ġelect rical
Ġoverse as
Ġsusp icious
Ġlleg Ã³
I ve
l ol
Ġapp oint
Ġfa ux
Bas ically
A V
Ġadm ire
9 2
Ġrepres ents
ðŁĳİ ðŁĳİ
I O
Ġco ast
Ġco pper
ĠFor get
ens ible
Ġtra vest
yl ist
Ġkick ed
ent ric
Ġpat ri
ĠD ue
ĠDI Y
Ġadap ted
ĠHul k
re a
st ruct
ivers ity
R ed
ic op
Ġweak er
D Y
Ġpre cio
ĠJ ake
ĠF its
Ġcontact ing
Ġret ain
Ġs outhern
und ant
lev ant
ĠFe el
I LY
ĠiT unes
s ur
it ters
Ġco ach
Ġfin er
ee ee
ĠKore a
D A
h el
Ġhard ened
ĠBE EN
Ġdo ors
Ġfl are
Ġfresh ly
Ġamong st
ĠU FO
Ġuns atisfied
Ġegg s
Ġm ice
Ġd ating
Ġdi verse
ĠM aking
Ġpro ceed
ĠSt ate
is ma
Ġcru ise
pisod es
ĠRog ers
bi ased
ant asy
Ġstick iness
N one
Be aut
O riginal
on el
ĠC art
Ġwish es
Ġobs ession
Ġmig ra
ul pt
Ġoffic ers
T ypical
Ġinc o
ĠLe ague
Ġclump ing
Ġadap ter
Ġe ucalyptus
... )
ĠNe il
Ġadjust ing
m ust
ĠF ield
we ar
Ġyouth ful
le c
Ġuse able
Ġcl ues
Ġmod er
ĠFil ms
ĠThr ones
ĠD uke
ĠBU R
ian c
Ġinev itable
Ġplat form
Ġb ones
,, ,
ĠLyn ch
Ġde ar
ĠE M
gg age
Ġheart felt
Ġtend ency
Ġdis apointed
Ġh id
Ġen emies
Ġdra gging
Ġteach ers
Ġtiemp o
s low
ub urn
ĠHop kins
F ull
ĠDe fin
ĠMor se
cred ibly
P ol
ĠTh in
oduc ing
ig o
5 4
Ġhair cuts
ĠT erry
ĠG arbage
Ġdiv ine
5 2
Ġp ose
Ġd ipping
et aph
Ġch annels
ĠF YI
Ġland scape
Ġinconven ient
C W
ie w
ab led
ĠJul ian
Ġlet down
Ġri ver
ĠFl ash
ĠVamp ire
Ġp iv
ĠT OT
ĠG rey
Ġter rit
ĠCle ar
Ġbur ied
Ġsens es
Pr ice
Ġmal a
K inda
P redictable
ĠL incoln
ĠBlu Ray
ĠOr ange
uls ive
A UT
Ġti re
ĠF REE
Ġh ire
Ġvis its
ĠðŁĺ Ĥ
Ġfoil s
Ġd ice
Ġmor ality
I CT
Ġwe alth
Ġsp rink
Ġfree zes
Ġv hs
ĠJ O
ĠPr ot
look s
Ġh ouses
Ġsh ook
Ġlu ggage
Smell ed
ĠSt ri
by e
Ġra ving
Ġdet erg
as ia
Ġfor cing
Ġbuy s
âĢ¦ ..
erm ans
Ġwrink le
ĠSK IN
F avorite
ĠB ourne
Ġopt im
th s
itch ed
Ġluck ily
Ġinsert ed
ĠL as
Ġsty l
IL ERS
br ow
ers ed
Ġup right
ne ed
Ġposs ibilities
Ġsyst ems
Ġban ter
m ates
p ur
ish ment
ĠTH ING
Ġsw ive
Ġvis ited
ĠHun ter
Ġout do
Ġsad ness
imp y
ĠUs eless
Ġ3 6
ass es
ĠðŁĺ Ķ
ĠImp ossible
Ġn ap
ĠL anc
Ġbutter fly
Ġhe el
ap id
how ever
Ġmotiv ations
ĠIns pector
Ġexagger ated
Ġo m
Ġpart ial
Ġvoc al
Ġbird s
Ġcl ueless
com es
ĠNaz is
ig ent
Ġcontr ad
g reen
w ord
ĠM I
Ġcult ures
Ġ201 1
ropri ately
Ġattract ed
Ġbron ze
Ġtw e
Ġdown fall
Ġcap acity
ĠStre ep
er able
gg y
Ġprotagon ists
Ġd up
all one
Ġphys ics
cc a
Ġscenar ios
ĠAven gers
ĠIra q
Ġcl aw
Ġsurv ivors
M Y
ĠB erg
Ġun opened
Ġstar red
Ġde af
Ġsecond ary
Ġreapp lied
Ġpr ol
ĠF ro
Ġneed less
il arly
ĠMcC arthy
ĠBull ock
Ġch ases
iz zy
Ġb out
Ġd ented
Ġfe ars
Ġsur pass
ĠAr ch
ĠMus lim
Ġanx ious
Ġsh el
Ġse vent
ĠL isa
We ak
Ġrepe ating
Ġtravest y
i h
Ġli bert
co very
yl on
etaph il
Miss ing
Ġre ct
Ġ/> #
ĠC it
Ġprequ el
Ġdis integr
Ġshow c
Ġmelod rama
b les
ĠT our
Ġmor als
Ġtre k
ĠFer rell
Ġdis miss
Ġsp ooky
Ġinsane ly
ĠB aker
Ġconsider ably
ĠMons ter
Y our
Ġflav ors
C ur
ra w
Ġre use
Ġco ck
ved a
app e
ĠStr ange
... "
Ġflow ery
od er
ult s
T ruly
z en
ĠM ond
Ġaim ed
M ir
Ġmess ing
Ġdep ression
Look ing
Ġb aff
ĠA A
ĠPet e
Ġhom eless
Ġcoll aps
Ġp oof
op ic
No pe
Ġfet ched
br and
Ġne ur
Ġconv entional
Ġd re
ĠJ en
ĠLe g
i ating
Ġst aining
ĠF o
t own
ad ies
Ġab used
Ġre form
Ġmis under
Ġpale ttes
ĠLess on
ot al
Ġhard core
Ġcollect ing
Br oken
arn ier
ĠZ e
as o
ĠL ane
Ġfil thy
Ġimm ig
Ġun cut
urn s
Ġfl ood
Ġabs ent
ĠJo el
re ction
un less
Spe cial
Ġhum ble
Ġgloss es
ag ged
ĠC our
ĠT reat
ĠO ly
Ġpac ket
ĠB reak
Ġpe que
ĠY out
Ġart if
Ġmorning s
ĠDE FIN
av id
Ġform ed
Ġfragan cia
all erg
ect or
ĠAlex ander
Ġsh aky
ĠM ON
ĠN obody
ĠF le
Ġnight ly
Ġpost ing
Ġf urn
Ġsqu irt
W OW
Ġsh r
Ġj ac
Ġperman ently
quis ite
N G
Ġc ert
ĠD iana
Ġprofessional s
r up
Ġsign ed
Ġhero ic
Ġresearch ing
ĠWOR KS
Ġb es
Ġsmooth s
Ġbath s
hes ive
F ound
k er
ĠF ind
Ġheart breaking
ĠD iane
Ġang el
Ġcaut ious
Ġsc ifi
D r
c ream
Ġm ac
Ġsec ured
Ġbeh old
sh ould
Ġcompare s
ĠH OT
ĠBe ach
Ġed gy
oun ting
ĠH ep
Ġgrand father
Ġ200 8
Ġconfir med
alypt ic
Ġenorm ous
Ġm and
Ġcost ly
Ġteam s
ĠVal ent
m us
ra pped
un a
Ġman ager
orm an
Ġswe lling
u er
Ġsatisf y
Ġpo ke
arb y
Ġenc ounters
Ġmir acles
Ġcoup les
) :
th ick
Ġsp illing
Ġgri pe
Ġur ban
Ġus o
ĠT en
Ġgre edy
Ġmention ing
Ġassemb led
ĠCamp bell
ent ation
ĠP red
al og
Ġpat ients
h as
Ġsy nd
Ġdig it
ath etic
Ġwarm th
Ġblock buster
! )<
h r
H E
ion e
Ġ2 9
Ġra unchy
ĠCom b
Ġdim ension
Ġlic ensed
Ġsupple ment
Ġfact ual
ĠNe eson
ĠLast ly
Ġpan ic
ĠðŁ¤ ·
Ġhairst ylist
h rs
Ġall e
ĠD y
our ney
Ġgu ilt
Ġimperfect ions
Ġco herent
watch ed
he im
Ġwis dom
ĠCh ild
ĠPh antom
e cess
Ġse als
Ġrep ack
Ġemer gency
Ġdivers ity
Ġt ent
Ġperson s
ĠSH E
Ġdisc ern
Ġexpl oration
mb re
Ġchap ters
m id
Ġel abor
Ġdermat itis
E ng
are t
Ġrot ating
ĠTri m
t ion
ĠA bs
Ġflat ten
Ġment hol
ĠGet ting
Ġan th
Ġwork ers
ĠCh ildren
H ated
Ġsatur ated
Ġh ipp
ĠFin al
Ġvir us
5 6
Ġhel icop
Qu ite
Ġtort ured
A ction
Ġdump ed
M M
Ġup d
Ġcut ters
th rough
Ġlo osen
cl ass
E h
ĠE lect
Ġbar rier
Ġcamp ing
Ġcirc ular
ett es
L ost
Ġl ord
Ġunlike able
F abulous
Ġm erc
ĠF oot
ĠF onda
an ne
ĠT enn
pl us
UN K
Ġsque aky
Ġpse udo
orm ally
rench ing
Ġgranddaughter s
Ġch ief
ĠP ain
Ġex celente
ĠL at
Ġcatch y
* <
h l
Ġred uces
âĿ¤ï¸ı âĿ¤ï¸ı
Ġâĺ ¹ï¸ı
ot ional
ent al
Ġinex plic
ett i
P re
iny l
ĠMar c
Ġmurder er
Ġfog s
Ġur ge
ĠAW AY
ĠB uffy
Ġread er
Ġreduc ing
Ġobject s
Ġarrog ant
Ġbat hing
Ġbeat en
Ġtooth brush
ĠD ifferent
ĠC ub
Ġrest ore
ĠCoc onut
Ġschool s
Ġstra ps
ĠVictor ia
5 3
Ġspl ash
Ġd ates
$ $
ic ular
ĠTh ing
Ġsl ice
Ġsupport ed
Ġmark er
ĠB a
ĠO RI
Ġtodd lers
BSOLUTE LY
Ġp aired
Ġiron ic
ĠCon f
ĠUn iverse
Ġneg lect
Rob ert
Ġwar ped
Ġglor ious
ĠFurther more
O b
c ar
Ġev apor
Ġ15 0
Ġin her
ol ored
ffect s
Z Z
Ġlo ads
ok ay
Ġm und
ĠIre land
Ġli gh
Ġex ter
Ġsl ave
H or
ter y
Ġpred ecess
Ġc ities
ant ene
aus ed
ĠK arl
Ġint im
Ġcri mp
ĠAg atha
ĠB al
Ġsol utions
ĠAny thing
k ick
Ġout fits
Ġtra ff
io x
ĠD TS
Ġun biased
Ġman ga
ĠMir ror
es que
Ġlo re
Ġavoid ing
B ack
ĠL y
t f
ĠF ULL
Ġres ur
Ġhide ous
Ġtires ome
Ġform al
ath am
Q U
od dy
ĠThe at
Ġno ises
Ġl ou
Ġpo et
Ġscreen writer
Ġblock s
Ġlo vable
Ġun used
ue nd
ĠP y
Ġcompet ent
ĠHob bit
reh ensive
H ate
Ġad oles
s ided
Ġrec ip
Ġbl og
Ġred uction
ĠSh irley
Ġver a
Ġrapid ly
Ġtic ket
at oes
Ġgr anted
Ġang led
ĠT ar
ĠL ot
our s
Ġcop ied
Ġsch eme
ĠSp ir
Ġcontact s
Ġ200 5
Ġp ays
Ġdram at
et ween
ĠS ide
ĠL ake
Ġdet ached
ĠEX ACT
t akes
am azing
ĠG one
Ġspe cially
Ġliter ature
Ġst oring
ul ative
Ġout right
ĠP le
ment ioned
ĠWh eel
Ġdisc ussed
iv able
Ġl ays
aj a
Ġpluck ing
Ġgl am
ign ment
ĠHy dr
Ġc arn
ĠComp ared
ĠCost ner
Buy er
Ġimm ature
Ġbrun ette
s k
get table
Ġperson a
ĠBe ast
ĠLe gend
Ġtrop ical
P ut
Ġpush es
Ġdumb est
with out
Ġreflect s
ĠB reaking
Ġ5 00
rib utes
Ġdim ensions
b one
ong e
Ġchar isma
angu age
Ġcu ando
Ġcaption ing
oen ix
Ġmer it
Ġtransform ation
ĠPR ICE
Ġday time
ov ich
Ġtempt ed
0 8
m edi
il k
ap es
Ġprom inent
et c
s ize
Ġcl ipping
ple ase
Ġgri m
Look ed
T ime
ĠS id
Ġdist raction
Ġresemb les
in ity
ĠJ edi
ĠPro fessional
spe cial
Ġwas t
Ġcast le
' '
Ġb ast
Ġr anks
ĠL ion
ĠFriend s
se x
Ġsl a
Ġem ails
Ġstud ies
ĠKid man
Ġche ating
Ġther es
Ġcor ruption
Ġdoub ts
Ġprecise ly
ĠBlur ay
ĠCo le
ĠUP S
Ġintent ions
ans w
Ġch lor
Ġ200 9
fi ber
Ġcollect ions
Ġe g
Ġab usive
ĠR alph
Ġl ush
Ġroom s
amb oo
SPO ILER
ĠCHE AP
Ġrefer red
ðŁĺ¡ ðŁĺ¡
ĠT RI
Ġent itled
ĠBe gin
Ġfold s
Ġdisappoint s
Ġanticip ation
C O
ok u
pack ed
Ġt u
ĠD ri
ĠT ro
ĠO dd
Ġbreak er
Ġsyn opsis
Ġn est
ĠF ine
Ġcl unky
ĠCra w
Ġcelebr ity
ĠPow der
ĠNichol as
Ġborrow ed
Ġs omeday
ĠHep burn
m akes
Ġclean ly
Ġ6 5
Ġdr ove
Ġcomplex ity
Ġdefe at
Ġlone ly
act or
Ġpast el
Ġflex ibility
Ġra mp
AR Y
Ġcos play
ĠSw ed
ĠIM D
ĠB an
Ġp pl
Ġadd ressed
Ġspread ing
Ġclich ed
Ġmanufactur ers
ĠAv on
S ometimes
w oman
Ġl umpy
et ies
Ġrec o
ĠV ince
Ġloc ated
G G
Ġbed time
T urned
c or
Ġsuggest ions
ĠS eth
G e
H usband
Ġclar ifying
ARN ING
ĠC ou
ĠTr uth
G ets
ĠT ow
it ors
ĠPix ar
act ive
ĠMe g
ĠAL ERT
Ġrecyc led
ĠP sych
Ġ200 4
Ġe cc
ĠB are
ĠB OT
Ġ[ ...]
yr ics
Ġbe nds
br oken
Ġper se
f ine
u ki
Ġf umes
Ġc aked
ĠA ut
ĠC ow
Ġho llow
Any one
ap ist
ĠJ u
com plete
Ġsick ening
Ġprete nding
ĠF ut
WH ERE
Ġinstr ument
Ġsex uality
Ġsn oo
ĠSM ALL
Ġtrop es
d le
Ġeduc ated
he ld
ĠCol umb
ĠUlt imate
or ney
st upid
Ġatt raction
Ġin ject
im ents
ĠM AY
Ġcou nting
9 1
Ġe co
ich e
Ġstraight ens
iam ond
Y Y
ill ian
Ġfr ost
Ġexp ose
ost on
Ġpract ices
Ġslee ves
ĠConne lly
ĠRe acher
com edy
Ke ep
amm able
le nd
ĠC us
ĠT an
it ure
Ġd ed
Ġspray ers
unt il
Ġsla very
y les
ĠH ands
ĠY ear
zz les
St rong
Ġvol tage
Ġath let
ou ble
le ad
ĠR ED
uc cess
ox y
F il
Ġt ug
at ement
ĠD erm
put ting
Ġdiscolor ation
m ail
Ġsens ational
Ġbas ics
Ġprotect ant
ĠAlf red
ĠH IS
Ġcal iber
os a
b by
ist a
ame ter
Ġdevelop er
ĠRem inds
reh ensible
Ġaer osol
atal ie
te nded
Ġnew sp
ĠPicture s
A CH
Ġb read
ĠG ames
Ġsub mit
n ame
ct ic
ĠS en
ĠH al
Ġfe ather
ION S
Ġbul bs
Ġindust rial
Ġeth nic
Ġinh ab
Ġcha os
" ?
i Ã³n
ĠC ass
Ġexper ts
ĠPro ject
if etime
ag ram
un ior
Ġbl ues
Ġsust ain
Ġbra ins
Ġrot ary
ITE LY
Ġcy stic
Ġirre levant
V ideo
Ġport ions
ĠCl aire
3 00
Ġ/> [
Ġdis ple
Ġbel t
Ġint imate
Ġsink s
Ġscream s
Ġtra ve
Ġmanip ulate
ĠWalk er
Ġg unk
ch ange
me h
ĠH ud
and al
Ġcomb ed
c ute
Ġbul b
Ãº n
ĠFran co
et ics
ur istic
AN S
Ġmedic ation
Ġemp athy
U CK
t ip
et les
Ġcloud y
H alf
ĠC ross
ĠG R
In stead
Ġstri kes
Ġgreat ness
ĠSe x
Ġfold ed
Ġcou n
Ġsatisf actory
oooo o
Ġfl aked
ĠSo viet
Ġtreat s
ðŁĺ Ń
] <
ĠI D
ĠS outhern
ĠE yes
Ġsto ol
Ġindic ator
Ġprote in
ĠE li
ph an
Pl ot
imag in
Ġnarc iss
Ġlength y
Ġcommunic ation
ĠB OTH
ĠH uman
Ġser ving
ne ll
Ġfl ashes
AR B
Ġvelve t
ĠCH AR
ĠORI GIN
Ġcame os
Ġrep orter
Ġfig uring
Ġf ighter
Ġres on
Ġpresent ing
Ġmelod ramatic
Ġconj unction
Ġt ant
Ġex hib
ĠH ur
Ġinsight s
Ġfingert ips
l an
w ed
Ġfl ies
ĠDev il
w ide
Ġw olf
Ġbefore hand
ĠDe cent
Ġtrans it
sm all
==== ====
ianc Ã©
Ġtal c
bur g
w an
ĠO wen
ĠMar g
8 1
Ġ 34
lin ers
Ġh ose
Ġd un
ĠR ush
so ft
Ġcor al
ĠPr att
m inded
Ġcompet e
ĠAnn ie
Ġdeb ate
Ġterrit ory
ig ma
Ġold est
Ġlight ed
Ġfar ce
ĠCl ose
Ġstere o
ĠM eth
Ġun man
Ġunder ground
Ġtrash y
Ġlibert ies
Ġman kind
cess arily
Ġconc lus
ĠMyster y
Ġ5 5
ĠSt allone
Ġsim ult
Ġve z
f ront
ĠC era
ars on
Ġlift s
Ġunf olds
Ġreluct ant
0 3
AN CE
ĠSER IES
Ġinnov ative
Ġab ys
sc ent
ĠCl ay
Ġ erg
Ġgr an
stand ard
Ġmic row
ey e
so ap
Ġbill ion
Ġdeter ior
ĠYout ube
oy le
ab ilities
Ġ: )<
Ġdivor ce
on ce
th in
arant ine
Ġbenef icial
c iting
Ġl ined
Ġher bal
Ġwar rior
ĠAB C
- <
ap se
Ġcho pped
ĠPart y
Ġro pe
Ġint ric
Ġposs ess
f illed
Ġsp at
Ġinterest s
ĠMar ia
J OY
L ame
Ġ200 7
7 1
ro id
Ġkidn apped
ĠM is
ĠM ist
ound ed
J e
S ure
p m
Ġdynam ics
Ġcryst als
Ġra mb
Small er
er ant
ĠL au
Ġopt ed
Ġsurround ed
Ġha b
ĠH ER
Ġl yrics
product ion
ĠForm ula
ĠPear l
Ġopportun ities
b usters
Ġm uted
Ġrecommend ations
Ġabs ence
Can not
Ġdrastic ally
ĠG entle
Ġge ared
s ince
Ġdownlo aded
i ety
om bs
Ġlit eral
Ġstrong est
Ġsub plot
I d
ĠB ird
ĠF iction
ĠE Y
sh ine
Ġdiscuss ing
D irector
ĠNe eds
ract ive
D aughter
T ake
Ġh r
Ġp es
enc er
Ġrot ate
Ġautom atic
Ġst unt
Ġneed les
Ġoutdo ors
ĠE aster
Ġout door
Ġfem ales
ĠHAPP Y
in nam
Ġh olog
Ġcol on
ĠJ unk
be an
Ġown s
Ġweight s
ĠAL SO
Ġreput able
el and
ĠJ oker
ĠSh aver
ĠOrgan ic
p an
Ġw almart
fess or
Ġdisconnect ed
Ġa ka
Ġsens eless
Ġtreat ing
Ġcoup on
Ġgu ides
ool s
ĠNever theless
Ġencant o
h anger
Ġbeh ave
Ġrese mble
Ġflaw lessly
ut en
ĠB alm
Ġmusic ian
Ġbright en
Ġnav ig
Ġp ounds
le ast
Ġins ist
Ġdig ging
Ġweigh s
ĠJon athan
Ġunconv incing
in ate
ĠC ong
ĠP ine
Ġstuff er
Tr ash
Ġgood s
Ġlight ened
Ġfaith fully
Ġenvironment al
il ton
ĠThe ater
Ġgra il
Ġpsych o
Ġtur key
ĠMarsh all
ĠB us
ĠSE LL
ĠBUR N
ĠL inda
Ġfun eral
Ġear thy
Ġenth r
Ġtra p
ĠUn able
C L
ĠH om
ĠO d
Ġnew est
Ġcall ous
was hing
Ġcyn ical
0 9
ĠL an
Ġm im
ðŁĺ Ĭ
Ġhang s
Ġdisc ou
ell a
Ġpump ing
Ġgener ated
watch ing
Ġ( &#
Ġlangu ages
J ames
art e
Ġtw elve
ĠSh ows
Ġyoung est
T od
ar ate
am ins
og en
Ġhor rifying
Ġpast y
Ġlate x
Ġpad ding
Ġhat red
Ġt anners
ĠT ok
Ġtrans action
Ġsch ol
orough ly
Ġbre ast
Ġt id
Ġd ign
ĠDe xter
Ġcell ul
Tr ue
" ...
il er
ĠM em
ame l
ĠIT EM
Ġpink y
Un like
ĠMO ST
ĠTrans formers
Ġo ught
ĠT on
Ġsl ot
Ġres erv
.... .....
Ġrem akes
Ġund ers
Ġkick ing
ĠB TW
ĠSm art
ĠPro blem
ĠTra cy
Ġinco herent
im o
ĠV alley
light ly
ĠFrancis co
ĠMoroc can
ĠS ing
Ġex cell
ĠJul iet
Ġstereot ype
ĠEnter taining
ĠCON T
S on
g ra
it udes
Ġmy st
ĠG ermans
ge nds
ĠAnt i
5 1
Ġsher iff
Ġwere wolf
ĠMy ers
Ġlim its
Ġbrilli ance
D avid
m edium
n est
ou ge
Ġnot ion
ĠK udos
Ġsqu ir
ĠTR Y
ĠStan ley
D S
Ġw ings
Ġover d
Ġaltern atives
yy yy
Ġter min
Ġretail er
ĠSe ven
ru g
Ġembarrass ment
Ġsp ins
Ġstat ements
cri bed
Ġhook s
Ġinflu enced
ĠBel ieve
Ġloyal ty
ðŁĺį ðŁĺį
u its
ĠTurn er
Ġunw anted
G u
Ġsl id
Ġpassion ate
Ġun ruly
Ġcomp ut
Ġgr ays
Ġsn ake
Ġcount s
Ġchick en
Ġt unes
ĠP RE
ac ulous
Ġmanufact ure
ĠKrist en
Ġel f
dry ing
Ġdistur bed
Ġinnoc ence
Sp oiler
f to
ĠM ult
ĠF ollowed
Ġra ge
Ġste pped
Ġorchest ra
i vor
ar ound
Ġch at
Ġisol ated
ĠF R
Ġpo op
hh hh
amil iar
h en
Ġdisc ri
AS ED
Ġinf ant
C o
Ġdi ameter
Re view
Ġgust a
ĠLaure n
Ġw icked
Ġg ent
ch ild
Ġent r
Ġconf ron
Ġbackground s
ĠVik ing
d ont
Ġpos itions
Ġassist ant
Ġtact ics
Ġaes thetic
E m
S ent
Ġp onder
ID S
over n
Ġpriv ile
IN Y
Ġmyth ology
prov oking
Ġsh ining
zz zz
ED IT
Ġsin ister
Ġvom it
Ġgl ance
Ġcontem pl
0 2
Ġm udd
ĠJ urassic
ord ers
Ġknot ted
Ġaccomp any
ar ious
ĠHar vey
Ġdeterg ent
re k
ent ertain
Ġconnect ions
ĠCarp enter
Ġin ane
Ġ1 80
Ġcl icked
ĠThom pson
Ġmund ane
?? ???
Ġecc entric
F its
Ġtri angle
Ġaccom mod
s ub
Ġn un
ĠY ES
Ġcar pet
ĠS oph
answ ered
l ast
Ġun att
Ġpour ing
ne x
Ġstar ters
Ġ !!!!!
br own
Ġplay back
ĠSe nding
Ġexp osition
Ġprotect or
is ons
Ġsh ield
Ġsex ually
Ġfix ing
ĠNew s
Ġtroub les
u z
er als
iz ers
Ġphilosoph ical
p ing
Ġas ap
ft en
Ġest ate
Ġinvestig ate
Ġs om
ul se
Ġign or
Ġremain der
Ke pt
Ġgrape fruit
est a
Ġfeature tte
S C
Ġ3 1
ĠMel issa
ĠW B
Ġ( $
ĠP enn
per or
ograph ic
ĠTHAN K
ĠORIGIN AL
Ġdescri bing
Ġstrange ly
Ġexplan ations
ĠAnt on
Ġse per
ĠP A
og ical
Ġmust y
Ġconsider ation
ĠM erk
Ġglad ly
Ġdepict ing
Ġeffort lessly
Ġguarant eed
ial s
most ly
Ġescap es
. !
at ra
ĠO rigin
Ġview ings
Ġcontr ary
Ġwh ining
Ġr itual
ĠPl enty
Ġtrash ed
ĠPhil ip
Ġanaly sis
ĠR IGHT
ĠDis gusting
ĠPh oenix
Ġfasc inated
F air
â ľ
M ay
Ġwor ries
Ġj ungle
Ġste er
Ġbit ing
Ġsub plots
Ġbud ge
Ġtrack ing
Ġb ike
Ġf ist
Ġthem ed
ac re
rill er
ĠB OO
Ġne arby
Ġapp ropriately
pl aced
aa a
Ġcontroll ing
Ġch illing
Ġbo om
Ġair plane
Ġunp redictable
ĠH ero
" ),
B arely
ĠHe avy
aw a
Ġvis c
ĠPer iod
ĠR IP
Ġsentiment al
Ġha ce
Ġhair y
Ġgrab bing
Ġham mer
ĠB oston
Ġm others
Ġguess ed
ux e
Ġhomosex ual
k o
Ġform ulas
Ġcontinu ation
Ġalle ged
Ġc ucumber
ĠCH I
Ġcontrovers ial
ĠDEFIN ITELY
Ġrender ed
Ġdist ribute
R ight
p her
Ġra ising
Ġexpl oring
Ġforward ed
Ġthrill ers
Ġprevent ing
f s
ĠF ake
not ch
ĠJo h
Ġdistract ed
t an
ĠT al
ĠMc K
Ġbuff ing
Ġinn uend
D ifficult
Ġun available
Ġsound ing
Ã¡ p
Ġterror ist
force ment
Ġrig id
Ġsn iff
m ir
Ġcool er
ĠR ic
mo vies
Ġconf ess
H ollywood
ĠH olid
Ġ3 3
Ġclear ing
St r
Ġweak est
de veloped
Ġobject ive
Ġpreach y
h ome
ĠD ES
Ġchalleng ed
Ġcand id
ĠCurt is
Ġb or
ad ise
ob i
Ġsubtit led
0 4
Ġc ough
ĠA aron
ment ary
ci as
Ġcommit ment
ĠVel cro
ĠSh aw
Ġthrill s
ĠVan illa
v ate
Ġrev olves
H er
Ġclass room
oil ers
acter ial
Ġgoog le
Ġb ait
ps es
Ġsepar ates
ĠAny ways
Ġrer uns
oo ge
P art
g les
Ġam ber
ĠChar acter
Ġmoder ately
ĠC ard
ash a
Ġbuild ings
Ġquestion ing
st ep
ĠA veda
Ġsl ots
Ġprom otion
wor ked
ĠDick ens
ĠTech n
v ideo
EO PLE
Ġstri pping
Ġflake y
ĠMond ay
Ġsw allow
els on
IC H
cl assic
Ġsill iness
g undy
Ġf iancÃ©
ĠBr ing
Ġcorrect ed
wor st
Ġdrink s
Ġdust y
Ġw ann
Ġbe gun
ĠTH INK
Ġspl ur
Ġmerch and
Ġb anned
om i
Ġmonth ly
Ġ200 6
Ġrevel ation
Ġre vers
Ġpr ince
Ġpl ague
Ġar om
Ġinj ured
ĠTod d
ĠB iblical
Ġmass ager
Ġalcohol ic
Ġsh oddy
ck ing
ĠIn f
amor ph
st age
Ġwind ows
Ġabrupt ly
ĠAcc ording
Ġa fore
Ġpain ts
Ġdist ant
sh ot
ĠSte el
Ġarts y
Ġdemonstr ates
Ġread ily
Ġcr ing
Ġcall us
Ġunex pl
Ġreorder ing
ĠExt ract
um er
Ġsmooth ness
eng o
Ġsol ving
dra ma
Ġarthrit is
Ġportra it
Ġback pack
ang o
Wh ich
w onderful
Ġconsider able
Ġox id
Ġle ague
r ub
w ish
Ġun he
cover ed
Ġperfum ed
allerg enic
. (
Ġo mg
Ġd ressing
al ways
ĠW en
Ġdown s
Ġtravel ed
Ġcartoon ish
is se
or thy
Ġproblem atic
ĠImm ediately
ĠF i
Ġwrit es
Ġerg on
Ġpart ly
Ġmaster ful
Ġspir al
L ED
ĠW y
Ġsc attered
Ġmag ically
Ġiron y
Ġdi ab
Ġconcent ration
Ġobsc ure
Ġtight ening
Ġco vid
ĠDes ign
Ġstitch ing
ĠB right
Ġbu cket
ĠCo pp
Ġadhes ion
Ġex otic
Ġun answered
Ġbelie ver
e xt
Ġbl isters
Re c
Ġgri ps
ĠMoistur izer
h ind
em p
Ġsp out
Ġcare ers
Ġoper ated
ĠTra vel
w it
ison ic
Ġnone x
âĢ ĭ
ĠB erry
In s
Ġsoul s
ĠH olly
Ġsp oon
Ġgre as
ĠBet ty
ĠB arn
ĠSh op
Ġincorrect ly
Ġunman ageable
0 6
Ġb io
Ġpl ag
ĠðŁĺ ķ
ĠInd iana
ĠM TV
Ġgl itters
ĠDou ble
S kin
ort ant
Ġdev oid
Ġrenew ed
S k
Ġl ake
ĠB ald
ĠC reek
U nder
Ġ vert
Ġw obb
ĠL iked
Ġinstall ing
Ġintrod uces
Ġabys mal
A li
Ġ **
Ġtransl ate
z o
ol ine
Ġr ural
alk ing
Ġdefin itive
Ġwild ly
Ġder iv
Ġgo lf
ĠT ouch
AN GE
Ġinfect ed
ĠF EEL
ðŁĺ Ĥ
Ġcommunic ate
ĠFA V
H is
Ġre ef
cl osed
iam i
H olds
Ġn ylon
all as
Ġreal m
Ġhead line
Ġcons ult
Ġvel cro
c olic
F K
ill er
ap lex
Ġsl aughter
form ation
Ġconflict s
I mp
ĠR ent
Ġrel ent
Ġtraum a
Ġbl an
Ġspecial s
Ġapplic ators
Ġsimult aneously
Q ueen
R id
Ġex quisite
Com es
ĠTweez erman
Ġdis reg
Ġamb ig
, '
Ġr usted
ĠH urt
ĠR u
Ġmagn ified
Ġlather ing
Ġmal function
ĠOli via
Ġr uth
ĠT ik
Ġv ain
Ġsusp ension
Enjoy able
er vice
Ġev al
ĠNol an
B ristles
p res
t ies
Ġd ivid
al ong
Ġsp icy
Ġelectric ity
ĠSu ave
Ġhun ter
ic one
ĠC andy
ĠV in
Ġrod s
Ġd ances
Ġli ed
Bl ade
Ġmicro fiber
Ġpric eless
X X
ĠD umb
ĠF ed
oc aust
Ġpopular ity
Ġsp lend
Ġcost uming
Ġsun light
ĠEll en
ĠPac ino
Ġunfor gettable
Ġde me
ĠL G
la ud
P ER
Ġst ero
ĠP ost
Ġcl asp
Ġra bb
P ure
Ġha v
ĠH unt
Ġdark est
Ġacc ord
Ġresemb lance
Ġmain taining
Ġhe ft
Ġtra ce
Ġdiscover ing
Ġpil ots
ĠTim othy
et ly
Ġv oy
Ġmet aphor
Ġsepar ating
Ġund one
print s
ĠBrazil ian
ĠP EOPLE
Ġskin s
Ġob tain
U B
Ġle fto
Ġgly cerin
Ġwh iny
ĠG arnier
Ġdisc olored
Ġelabor ate
Ġshow case
ĠF oster
Ġinc lusion
Ġsoft ening
ĠEnter prise
Ġbuff s
Ġfemin ist
Ġplump ing
ĠM ask
ĠG oth
light s
Ġvague ly
" ).
; ...
on al
ĠR est
Ġsha ft
. ).
Ġs ab
Ġlo os
Ġdr um
Ġdiscount ed
ĠDI FF
ĠUr ban
ĠMerk ur
ap ing
Ġstr angers
Ġprog ressed
Ġpass able
ĠComm un
ĠLIT TLE
Ġp as
qu est
Ġout lets
Ġunderst atement
ĠSmell ed
W G
Ġt urd
ĠA bsolute
Ġdri ft
Ġmus e
ik a
Ġunderwhel ming
E ND
ĠDO WN
cur ly
ain ted
ĠSt atham
Ġins pire
Ġrain bow
ĠA PP
ĠP antene
Ġmount ains
ĠCus ack
re te
Ġst aging
Ġ7 2
Ġmis ery
Ġimpro ves
Ġcru cial
Ġsym pt
D ries
Ġa pr
ĠUlt imately
d ec
ld om
fin ished
red ients
Ġspeak ers
ĠK ings
retch ed
Ġuncle ar
Ġsc ulpt
ĠTH REE
ĠCraw ford
ĠB RO
Ġhang er
Ġob st
Ġshift s
ĠMoistur izing
Ġg ained
Ġnarr ated
ĠG IVE
ĠRE AD
Ġelimin ated
Ġcomput ers
Ġintr oducing
D own
s ky
Ġpre tt
Ġad ul
oc ative
ĠCarr ie
Ġcontrad ict
S ub
W ent
Ġt ables
Ġa uburn
Ġd um
st ri
Ġpoint y
Ġadvert ises
Ġr ates
Ġhe als
ĠB ed
cel ent
Ġparall el
r ating
Ġd ive
Ġun imagin
ĠKind le
Ġsurf aces
Ġw ives
ĠH an
ĠP H
uck le
Ġclipp ed
B rilliant
Ġg inger
Ġun aware
Ġscrap ing
t ry
Ġtransform ed
F OR
ĠB ang
ĠEas ily
P aul
Ġbo ards
G OOD
Ġcan n
ĠV ill
the arted
]] ,
ung ent
Ġpsych opath
ĠOper a
Ġinst ances
ĠSam uel
Fr ank
R ep
Ġb tw
Ġc ort
Ġon going
Ġfl ammable
Ġ$ .
Mo istur
- )
Ġun e
Ġlight ening
ĠMar ie
Ġmass aging
ot ch
ĠHe at
Ġmir aculous
Ġtrim s
Ġair ing
Ġpump ed
ĠInd ians
iqu id
Ġra ces
Ġver dad
W ar
Ġme and
ci ating
Ġbi ography
ĠI V
ri ors
re c
an or
Ġ4 00
U FF
ĠM ans
Ġfish ing
Ġignor ance
mas ter
Ġjo ined
l ot
t ails
w ich
ĠB ale
ry l
ile tte
Ġview point
Ġsurv iving
Ġpublish ed
Ġno ble
ĠL l
Ġen ch
Ġ ****
Ġres et
lud ed
ĠðŁĺ Ń
Ġdem ands
Ġspir its
f amily
Ġh inge
Ġapp laud
ĠSc enes
ĠS F
Ġ3 60
Ġsa fer
Ġmar athon
Ġtem por
ĠFe atures
With out
o ily
ĠC ary
Ġm ug
Ġg or
Ġsc an
Ġdet ox
ĠStar gate
Ġmild ew
return able
Ġfr idge
ĠT imes
Ġfl ush
ĠS ens
ĠS leep
ĠK aren
Ġble eds
Ġrot ation
U lt
Ġmon olog
Ġdri ps
AT ING
Us ually
Ġo int
Ġsk its
Ġunne cessarily
every thing
Ġnour ishing
ĠB RA
Ġcent ers
Ġstrength en
Ġnightm ares
Ġeconom ical
Ġoff s
ĠðŁĺ Ĵ
Ġclog s
Ġengross ing
R ich
S weet
Ġd ipped
Ġbr at
Ġep s
ĠFOR EVER
bit ious
Ġvulner able
n n
y rs
ol o
ĠF ra
ĠGood man
Ġneg atives
Ġdup ed
ĠPro fessor
- $
Ġtr oll
Se emed
Ġminor ity
Ġpl un
ĠSo ld
Ġpoint ing
Ġfulf ill
Ġtri pe
Ġmot ions
Ġagr ado
h ope
Ġm ap
ĠP P
Ġexp ressed
Ġaccess ible
Ġauthor ity
Ġd ict
gg ie
i w
i br
ĠD R
res her
Up on
il st
ul ent
ĠM urder
Ġjunk ie
sp ray
ĠPol ice
ĠEN JOY
Ġrel ies
ew orthy
Ġsuc ceeds
Ġdeliber ately
ow ed
ĠE AS
Ġaw aiting
Ġprom oting
ĠFrank ly
Christ ian
f le
Ġbit es
de al
ru ciating
Ġside burn
S ucks
or ious
Ġon s
Ġfor ty
ra h
Ġsubtit le
ĠLore al
Th ose
Ġqu arantine
Ġdestroy s
Ġinvolve ment
ĠG all
ĠE pisodes
Ġdoll s
Ġcapt uring
ĠDet ective
T ra
he y
P ersonally
Ġdur ation
ism atic
ĠIntern et
H OR
P Y
Ġexfoli ates
Ġsqueez ing
Ġward robe
Ġha ired
ĠM ascara
ĠY ellow
set t
ĠGe or
Ġincompet ent
ï ¼
ie val
Ġat least
ĠR oth
ĠR oom
Ġdeal er
ĠLI FE
Ġfurn iture
ĠIn itially
ĠP it
Ġhor rors
Ġther apist
Ġsc ope
Ġair port
Ġstri king
ĠRec ently
ĠU t
Pack aging
Ġmicrow ave
S us
ĠB i
ĠN atalie
ĠL ifetime
Ġmin erals
Ġcons cience
Ġinf amous
Ġeat en
Ġvis ibly
Ġle ver
Don ald
ĠHer c
Ġbrass iness
Ġpart ners
Ġbuild er
Ġcollect ors
ĠCos met
ĠHy dro
ĠDec ided
resp ons
Ġjeal ous
Ġh ips
fect ive
Ġdri p
ĠLove ly
Ġsw atch
Ġhydr ates
Ġfre ck
ĠRun ner
v als
Ġf als
ep y
Ġswe ll
ĠAv atar
Ġmotiv ated
Ġvast ly
ra ged
ĠL or
Ġim plic
ĠSh ark
Ġph ony
Ġble ak
Ġtable t
ĠRev olution
ĠCost co
Ġp ungent
ist ine
ĠF at
Ġfood s
Ġjudg ement
gh an
ĠF ight
Ġperform er
ĠBr other
Ġrecogn ition
Ġafore mentioned
p ieces
Ġg ard
ĠD vd
est on
Ġdec als
Ġorigin s
Ġfan atic
Ġfact ors
Ġposs essed
Ġrad iant
c ure
ĠH app
ĠBL ACK
ou st
ar io
ĠL im
Ġar med
Ġtr oops
ĠW inter
ĠJ ol
ĠAl ready
ðŁ ¥°
ĠRe ese
Ġdet ach
ĠNet work
Ġsh uts
ĠB uck
Ġsc ores
ĠT oy
ep isod
be fore
Ġill umin
FU ND
ĠT own
oss om
Ġfall out
arb or
T w
ut o
ĠS or
ĠM eryl
ile m
ĠProduct s
L S
s ad
Ġw ires
le te
ig ment
ĠR ES
Ġsim ilarly
IS O
oduc er
Ġconclus ions
ĠA ctor
ĠD oo
Ġsp ouse
ier a
I nd
l iterally
Ġa kin
Ġc asing
ain er
ĠL ashes
Ġgl aring
ĠWahl berg
ĠL augh
ik ing
ĠðŁĻ Ħ
ĠBl ades
Ġmotorcy cle
ĠM u
ĠH ong
ĠR anger
ĠThat s
Ġcook ie
Ġvary ing
Ġnonex istent
Ġre ar
Ġsk ull
Ġregret s
Ġminim ize
w arm
at ics
ke ep
ĠR ip
Ne xt
i ator
ant i
Ġ200 3
Ġbull ets
ĠBrid ges
ĠR ow
Ġsp ills
Ġleak age
ĠEX CELLENT
Ġeager ly
ĠS ar
ck er
ĠT iger
li est
ĠX mas
Ġdemon st
ĠG arden
ĠSc reen
ĠA BSOLUTELY
Ġman ually
Ġatt orney
Ġdetang les
vol ta
Ġphr ase
Ġe ast
augh ey
ĠSo on
Ġlabel ing
Ġlo ops
Ġsm iling
Ġblack s
Ġ19 99
Ġinv ented
Ġmix es
sh adow
ĠBet ween
ol as
Ġover s
Ġlather ed
Ġcompon ents
un ate
Ġremark ably
Ġescap ed
CE PT
uther land
ter m
Does nt
Ġbuild able
Ġsulf ates
e ous
lo aded
ĠMc Con
Ġfoam s
Ġri bb
Ġmud dy
T ING
l oc
ot te
Ġsw ing
Ġland ing
Some one
Ġvit amins
ĠD iamond
ĠC ab
ĠP redictable
Ġsw abs
umbers ome
ĠFa cial
Ġunsatisf ying
Ġe mo
ograph ed
Ġmal es
Ġshe ep
oll o
Ġph ones
Ġsil ence
Ġprof ile
Ġc odes
Ġfit ness
ĠSp ain
st ring
Ġsu d
Ġr att
Ġtri gg
Ġner ve
Ġhung ry
Ġt ingly
Th in
ch or
Ġr ays
Ġsturd ier
Ġre ver
ĠF ans
ĠF actory
Ġsl aves
ĠPack age
v as
fi antly
Ġelement ary
Ġcon ve
Ġrepresent ative
Ġterror ists
Ġfle w
n ail
Ġe erie
ri a
ĠP en
au cas
y ll
Ġst ack
ch em
Ġweigh ing
Ġborder line
Ġtw ins
Ġacc ustom
ĠCOM P
ĠScarlet t
B ob
t ight
w est
act ually
arch y
ĠST RONG
rop h
Ġlif es
Ġfunction ing
Ġarg uments
ĠFace book
ĠACT U
Ġdimin ished
c ult
i ere
Ġab ortion
p op
ĠP RI
Ġmom s
Ġsurv ivor
Ġcivil ization
Ġjac ket
Ġoff ense
ĠMitch um
ARB AGE
ĠG iant
Ġmold y
ĠDel ivery
Ġnause ous
am i
Ġpe ak
Ġrecip ient
W W
an ol
ĠB rilliant
Ġall ey
ĠT een
Ġair craft
Christ mas
, .
Ġb amboo
ĠF ried
Ġdist ingu
Ġass ured
Ġthigh s
Ġs Ãºper
ĠD A
ment al
Ġexpl ores
Ġve t
Ġcounter part
Ġarg u
B attery
Ġs ient
ative ly
Ġmad ness
ed ited
ĠD al
Ġbarret tes
ĠMount ain
p oon
Ġtri als
Ġbox ing
Ġpay ed
Ġhighlight ing
arre ll
Ġchron ic
Ġo sc
re et
ĠBE AUT
Ġshin ier
Ġy ummy
Ġwh ipped
ĠNichol son
ĠA xe
ĠT ON
ne ck
Ġdes cent
uck er
Ġfunction ality
Ġban ana
Ġenthusi asm
App arently
ĠB ristles
ĠExt ra
Ġd umps
ĠN a
Ġv ile
Ġcou pled
ĠNew man
Ġrepe ats
bl ue
Ġplod ding
ĠLe o
abs or
Ġdre ary
o allergenic
Ġin ability
Ġstud ied
ĠM ot
Ġjud ging
Ġgust Ã³
Ġo oz
Ġdo omed
ub ble
Ġexcess ively
g ling
ĠV oy
Ġspect rum
z one
Ġat roc
Ġqu otes
00 1
Ġmass es
Ġreun ion
icular ly
el ic
ĠN ut
sc enes
Ġinaccur acies
Ġesper aba
I LE
ĠD ifficult
Ġr Ã¡p
Ġv inyl
Ġ:( <
Rid iculous
S illy
ĠP OW
ĠP UT
Ġcoll agen
Ġgod s
as co
ĠBut ler
au ve
ition al
Ġvar ied
Ġtest s
ĠBon us
ĠAra b
ĠN in
vers ion
Ġplot line
Ġwall et
ĠLi ber
Ġfest ival
Ġsam pl
p es
Ġsharp ened
UP ID
ĠLl oyd
b ac
olog ne
Ġste ep
ĠColl ins
ĠEy el
Ġb ass
ĠC etaphil
ist an
ĠN ONE
Ġremo vable
Ġvari ation
Ġdistribut ion
Ġsplot chy
Ġbutch ered
I PP
Ġc ures
Ġimpro ving
Ġo le
Ġto d
Ġgl amor
Ġinstruct ional
ĠPl astic
Ġc gi
ĠC aine
ĠT ick
ĠG abr
Ġag rees
Ġpe a
ĠStud ios
D ra
nd ers
Ġh ats
le en
ĠM ST
Ġsu ms
Ġk ung
Ġbl ister
b etween
Ġre me
ĠD ance
ro ad
our se
rent ly
Ġclog ging
Ġlock ing
ĠCR AP
C rap
ĠS cript
Ġcon ceived
yl an
Ġland s
Ġsoph om
Ġ00 7
ĠFAV OR
Ġj arring
ĠW ick
Ġover view
Ġstr ate
ĠCra zy
Ġcolour s
S mooth
i ado
s ave
Ġnewsp aper
ĠN iro
Ġad min
ens on
Ġhard est
Ġpresum ably
H i
t ake
v il
Ġun original
ĠB um
ĠH usband
Ġstuff ed
Ġiss ued
Ġacc laim
RE EN
ĠOff ice
ĠCount ry
b ury
t ips
Ġst ark
Ġdesign ers
Ġreco very
Ġha llow
ĠG ift
Ġmot ives
cons cious
le vel
th on
Ġlo osing
ĠTR UE
Ġa the
es h
ĠW rest
ĠC rew
ĠO s
ps ons
ix on
ĠUn cle
Ġmerchand ise
Ġoffic ially
Ġm u
Ġst ung
ĠH oll
ĠN AIL
ĠTra volta
Ġmer its
at ly
Ġbe e
ĠD ARK
ĠF it
AM P
Ġdish onest
Ġexplos ion
G r
Ġs ou
Ġreact ed
ĠCar rey
W ater
ĠBe ar
Ġveh icles
A ng
Ġf er
VE D
Ġaccept ing
ĠGra ham
Ġencoura ging
V ING
en ly
ĠM ort
ĠSt urdy
her oes
Ġitch iness
Ġwarning s
l ab
Ġsl ather
Ġaddict ing
Ġwitness ed
Ġpharm acy
Ġre he
Ġsimilar ities
Ġdi agn
Ġsubtle ty
ĠRid ley
Ġdissip ates
it ably
Ġre n
Ġcon vert
Ġintention al
Ġadequ ately
Ġastron aut
ph one
ĠTHE IR
Ġsharp ness
apan ese
L F
N ail
Ġopen er
ug ar
Ġsuperb ly
ĠD est
Ġver b
!" <
b ath
Ġse ldom
se cond
Ġr ational
ĠK now
ur ous
Ġte al
Ġmult ip
Ġmeant ime
Ġkiss ing
I X
n ut
y et
Ġe h
ĠS utherland
Ġfl ows
Ġsoft ened
Ġreg ister
Ġvari ations
Ġatmos pher
Ġc edar
Wor se
Ġbur gundy
ĠHud son
ĠSh arp
ĠGu ard
Ġhelicop ter
S pray
Ġaware ness
Ġcontour ing
innam on
B ER
Ġre pr
ĠN BC
ĠR ot
ĠBe lla
olog ically
Ġscrub bed
ĠSat an
ĠWON DER
C ome
ic orn
ĠP ir
Ġprom oted
Ġspeak er
Ġinfl amed
Ġfac ility
R AY
ob able
Ġforward ing
ĠCur ls
Ġimpl ied
in feld
ĠA z
en act
Ġj umbo
ĠDe odorant
Ġdeter mination
Ġm aid
Ġco ffin
Ġsl am
es ar
Ġst ench
ĠSt udio
ND ER
Ġic on
Ġligh thearted
Ġ venge
Ġra ck
otes que
Ġdigit ally
Ġc ad
ver ty
ĠRob inson
ĠStill er
ĠNorm an
ĠEss ie
Ġreh ash
reat ed
N ormally
b ery
Ġd ilem
uc ci
Ġunf amiliar
Ġtransl ated
ĠTri ple
ĠFred dy
ĠChamp ionship
ĠTh umbs
Ġsteam ing
ĠH ath
ĠK han
ĠRE FUND
Ġpolit icians
ĠBry an
Ġswive l
ĠW aiting
Ġinst inct
vert ised
ĠH im
uc ed
Ġmeas ured
es ame
ĠSt ore
ĠSp ike
Ġfut uristic
Ġadmit tedly
ĠMaster piece
ĠC op
Ġam bitious
ĠIs n
erv atives
Ġcompon ent
Ob viously
Ġdemonst rated
F alse
F iles
ĠL ex
ĠJ oy
ĠV o
Ġ8 5
Ġruth less
p ool
ĠH AL
Ġdis abled
b ay
t est
Ġall eg
Ġpo verty
Ġdispens ers
Ġb illed
ĠN elson
Ġrec ib
Ġaccess ory
ĠLast ed
Ġunderst ated
Ġfort unate
ĠFUN NY
Ġargu ably
Ġbe ad
ip id
Ġra g
ĠBl anch
anc er
Ġpit iful
Ġc umbersome
Ġre el
ĠW ax
Ġcomp ilation
d ifferent
ĠW R
Ġme al
pt on
Ġsl apped
RE AM
Ġart ic
ĠQu inn
Ġfif ty
ĠBog art
Ġm l
ĠK il
ĠIn g
ĠSte p
Ġlou der
Ġaccustom ed
F elt
T it
Ġw ary
ĠD rew
ĠK ra
Ġhor iz
Ġsalv age
Ġ ig
Ġpr ize
Ġwor ship
ĠE NT
IN D
Ġfra mes
ster s
Ġwand ering
Ġner d
Ġrel ieve
ĠSp ock
Ġwide ly
Ġcliff hanger
Ġim pe
ĠST AY
E as
V A
Ġbe gging
Ġpro se
Ġmon key
ĠRe ed
Ġsmooth ed
Ġexc ruciating
Ġsad istic
Ã± os
Ġmechan ical
Ġelectron ic
B oy
Ġw akes
it as
Ġhor rified
Wh ite
Ġbe g
ess a
ĠT ypical
mo ving
Ġcrit ique
Ã± a
um n
app ly
Ġform ing
ĠHard ly
Ġanx iety
c ouldn
or ical
ĠMat te
Ġfa cil
Ġfl owing
og enic
Ġing en
ĠH yal
mo istur
ĠAl ba
ane ous
Ġemploy ees
Ġcuss ing
ĠF oll
Ġfun gus
Ġthick en
Ġbreak down
Ġside kick
Ġsuc ceeded
a ude
ĠT ales
Ġbar ley
ĠTri logy
Ġprincip al
Ġacknow led
Ġw aking
it ated
Ġpr istine
IC AL
ĠMc D
Ġconven iently
ĠN ancy
Ġacc used
ĠIM HO
Ġweft s
Ġclos es
ĠðŁĳ Į
Ġantagon ist
Ġsc uff
Ġ _
Ġcomp ra
ĠV CR
ĠHe ck
Ġpres erve
UL T
ĠDown ey
Ġpu ppy
Ġchuck le
ĠIMD B
ĠW ATER
ĠV ID
asc inating
Ġdom estic
Ġan c
ĠA h
ra ined
Ġbr ide
Ġrep orts
Ġdress es
ĠCera Ve
A MAZ
s a
Ġco ord
Ġrel atives
Ġang els
ĠPe ck
Ġdepart ure
Ġliter ary
Ġat om
ĠT ai
ĠVik ings
th m
not e
Ġforg iveness
ĠTit anic
Sim ple
Ġexplo itation
Ġmedic inal
b ag
ĠSh awn
In credible
z ona
Ġover l
OR S
Ġprim ers
ĠTrim mer
G ives
ĠB ot
Ġholog raphic
Ġf athers
Ġy awn
ĠS odium
gr ad
ĠD V
Ġteen y
Ġrespect ed
Ġac ademy
Ġsett les
]] <
ĠMe h
Ġpad ded
P lus
er ness
Ġc ul
id i
ak in
ĠL ang
arr ow
olog ists
Ġrob bed
ĠCur l
ĠRem o
s ensitive
Ġt ugging
Ġwh ites
man n
Ġpal ms
N ails
war z
ĠEP ISO
ĠA k
Ġex ceed
ĠM iy
ĠE nding
Ġpart ing
ĠK ath
Ġrel ieved
Ġmouth s
tr ue
Ġgall on
ĠTh under
ĠS ay
ĠC and
ĠE WG
Ġemb ar
Ġaffect ion
Ġcont ribute
ĠðŁ ¥°
ĠPr og
Ġaband on
Hel ps
c ap
ĠKing dom
Ġm ur
Ġh ousing
br id
Ġch i
Ġsl ime
ĠShe en
P ar
Ġc ulp
Ġreg ions
Ġpenet rate
Ġderiv ative
E xt
an ed
Ġg oth
Ġsharp ening
ju ven
Ġpr icy
Ġso res
ĠC ode
ĠP AL
ĠL ily
Ġcol ores
ĠJust in
Ġfant as
Ġengine ering
Bu en
Ġappoint ment
st ood
f ashion
Ġeconom ic
Ġfundament al
S am
ĠD NA
ĠM C
Ġra il
Ġun sett
Ġsk illed
ors ese
so ld
ĠHann ibal
Ġexecut ive
Ġdivid ers
a ciÃ³n
Ġl ite
ar lo
ĠP op
ĠAl pha
Ġland ed
ĠDra ma
ĠHath away
Ġn appy
Ġdifficult ies
Ġfoam y
Ġpedic ures
Ġmice llar
Ġp ound
og s
Ġcr unch
Ġdefect s
ĠWar ren
ĠCent ral
Ġto x
ĠF irth
Ġins uff
H and
Ġw oven
ĠM iami
Ġgen res
?? <
ific ations
Ġsooooo o
Ġdistribut or
ĠN ature
per haps
ĠTH R
Ġ/>âĢ ľ
Ġbes ide
Ġh ating
gr ading
uth or
Ġprogress ion
] ,
Ġp oll
A cc
h alf
ĠT SA
head ed
Ġrecogn izable
ĠðŁ¤ ¦
Ġmanip ulative
Us eless
1 50
f are
pt ic
we ird
Ġcomple ments
ĠUn ion
ĠPr ide
Ġmoment um
ĠVID EO
l iner
Ġj agged
Ġdon ate
ĠSt orm
ann on
Ġportray als
ĠSch ick
Ġhot ter
Ġtest im
Ġexist ent
M S
in fect
ad le
ĠIn side
Ġs or
Ġsubject ive
Ġrecord ings
ĠDa ily
E ste
ĠCh am
Ġsn ags
v ial
ey ed
Ġdisg ust
ĠS G
Ġcr ass
Ġrefer ring
at tle
Ġfo x
Ġremo vers
ĠMan h
Ġsympt oms
r ants
Ġh ast
Ġre telling
un ts
ign s
Ġinstall ation
ĠUp date
l ar
ĠD in
Ġob t
Ġprol ong
ĠGod father
Ġadop ted
Ġsarc astic
D ay
E P
Ġgo sh
ac ute
ĠBl onde
oub tedly
Ġman i
Ġdecre ase
L IE
Ġdis as
Ġrecommend s
Ġmas ters
work ing
it age
int s
Ġad verse
Ġmil ky
Ġvulgar ity
I r
Ġgl ues
Ġind o
Ġdiv ided
b ird
ĠS olid
Ġcomp osed
ab l
Ġpluck ed
Ġpir ate
ĠMarg aret
ĠP ierce
Ġv igor
ĠDis covery
ĠCAN NOT
ĠGener ation
lyn n
ĠTem ple
ĠS ays
Ġover acting
Ġrecord s
Ġtutorial s
ĠL arge
Ġpers u
Ġ198 4
e le
xt ies
Ġvend ors
Ġwitch es
Ter rific
aucas ian
ĠB att
Ġreg ime
Ġpain less
Ġcr umbles
pow ered
Ġtiss ues
Ġs oup
Ġg ate
ĠB ase
Ġnail ed
Ġra ped
li me
real istic
Ġbat man
I BLE
Ġcaric ature
Mir ror
amorph ic
C apt
ĠS AY
Ġpot ty
Ġarri ving
Ġstun ned
Ġinsert s
ĠThink ing
d ess
Ġgr otesque
ANT ASTIC
Ġpac kets
Ġwh iff
Ġscr oll
Ġdemonstr ate
Th ink
Ġchar ismatic
IT ION
ye ah
Ġtarget ed
if ier
Ġwaste ful
ĠIn credible
Ġpar fum
ĠSpace y
ĠP ull
Ġim o
pr one
Ġgra vity
Ġer r
ĠC UT
Ġ4 2
Ġdisc laim
Ġsort a
++ +
! ,
Z ero
b re
ist e
Ġpod cast
f ragrance
in stein
Ġd if
Ġen forcement
ĠAN OTHER
oph obic
Ġ Â
upp osed
Ġfog less
Ġwann abe
l ots
ĠTit us
Ġrubb ery
Ġse wing
Ġu Ã±as
Ġaccept ance
ĠPO S
Ġpupp et
Ġw acky
ĠD allas
ĠAm anda
Ġread ers
Ġauth ors
ches ter
B on
et a
ĠS op
ĠM edium
Ġr oof
ag ging
com b
Ġmod est
Ġvent ure
s ons
Ġ ***
Ġpos itives
Ġwind s
Ġfur ious
Ġhue le
N ight
ol t
Ġbar bers
L ife
op ing
ĠTH ICK
Ġalong side
Ġpix el
Ġs izing
ĠD ale
ĠT est
ĠJ od
As ide
Ġprem ier
ĠDOES N
ĠOp ened
Ġwhis per
g uy
Ġl am
ĠI Q
Ġsh ove
ruct ive
OW N
mm mm
mar ket
Ġdrunk en
Ġcaptiv ated
ĠPri vate
Ġdisrespect ful
g ree
p ink
it ical
Ġover t
Ġelastic ity
ĠGri ff
Ġbetray al
ĠHolid ay
ĠSU CKS
Bat man
Ġapp li
Ġel ite
ev il
ĠL ock
Ġexpand ed
m are
,, ,,
ĠAngel a
Ġscrunch ie
G irl
s il
ĠF ig
ĠSe ll
Ġtexture s
ĠOsc ars
gi ene
ĠCour t
f et
Ġs odium
Ġ/> ***
ĠT INY
ox ide
Ġswitch es
Ġattack ing
ĠExp ress
at ography
Ġde br
Ġcomp oser
Ġi vory
Ġdec line
Ġev olved
ĠðŁĺ ©
Ġstamp s
R ock
ĠS ong
ĠS ounds
ĠE lf
Ġliquid y
ik i
Ġexfoli ated
Ġpet ty
yy y
ĠEgypt ian
o ise
Ġim ple
Ġph ase
ĠInd eed
?" <
Ġembr ace
ĠD ylan
Ġsm arter
ever ly
av a
?? ?<
Ġrefund s
Ġcho oses
ĠMar ine
ĠWood s
rav iolet
Ġinse ct
ĠAri zona
Ġy uck
ĠS el
Ġun in
Ġra ved
ony m
ĠST OP
ĠGar ner
Ġeconom y
ĠLau der
f ra
ĠW izard
ĠH OUR
ĠR andy
ip edia
ĠGl ass
F ar
ĠN ap
ĠK ung
Ġtrave lling
H ands
er ave
Ġp izz
al an
ĠV iew
Ġepil ator
Ġdign ity
f ile
Ġl ust
Ġst em
ĠR ud
Ġnever theless
Ġcra z
EN CE
Ġtin iest
Other wise
T A
d el
Ġshare s
b ies
st raight
ĠA unt
ci pl
Ġred undant
upp et
reg ular
Ġarch ite
Ġsincere ly
ĠPr op
Ġinconsist encies
ĠElect ric
ĠF AST
Ġdown ward
Ġstraight forward
ĠQu est
Ġfir mer
Ġcraft s
Ġp unk
ĠD yn
Ġr ides
ĠWhen ever
ik ipedia
N iro
un ci
ĠL ume
ĠAn ime
ĠRE G
Ġstud ying
Ġp amper
ex per
p ic
Ġp ans
Ġor phan
Ġv iolet
ĠJ UNK
be autiful
Ã© s
Ġblat antly
ĠAlas ka
P eter
b h
ke ys
st ay
Ġby e
.... .<
Ġinspect ion
Cap rio
Ġt as
Ġare nt
Ġloc ate
ĠSc orsese
Ġopp on
Ġpsych otic
Ġa xe
es is
Ġtown s
ĠEm my
ĠS W
ĠF arrell
ass y
de finitely
With in
ĠAnn iversary
ĠEss ential
Ġn ieces
Ġno vice
Ġbr ood
ĠGl enn
ĠKill er
ĠDIFF ER
ad vent
Ġvo id
Ġfalse ly
Ġspat ula
Ġpre par
Ġatt itudes
Ġl uster
Ġgo als
Ġrec ur
Ġman go
Ġpink ish
ĠAL OT
Des cription
Ġhallow een
m ath
ĠM ah
Ġno zzles
Ġv icious
ĠShe ll
att an
Ġill ogical
Ġvict ory
ĠSN L
HOR RIBLE
T Y
d et
ĠM ann
ĠC ore
ĠBe e
ĠAng els
ye ars
r ie
re lease
ĠS yl
ĠW ord
Ġtrans itions
cc er
Ġpsych iat
ĠCheap ly
ĠBR USH
Ġeffic iently
T ok
Ġon screen
Ġstra ighter
Ġsignific ance
Ġhyp oc
Ġintric ate
Ġd umber
Ġimpl ies
Ġflesh ed
al one
ge on
Ġbl essed
Ġass ure
Ġtemperature s
ĠOl ive
Ġsh arks
Ġch ina
ĠL ed
Ġrem edy
friend s
ĠBald win
Ġent ers
Ġkind ness
pe ople
ĠH ills
view s
Ġrid ges
Ġpercent age
Recommend ed
ĠMcCon aughey
ur able
st y
ĠD irty
Ġwand s
Ġdefe ated
Ġnu anced
ĠFound ation
Ġe cho
ent a
ard ing
Ġsp it
Ġbra ided
Ġyellow ish
Ġcompet itive
S olid
W onder
b t
ast asia
Ġme ga
ĠT ell
ĠL ame
Ġres in
Ġes o
Ġner ves
Ġbarret te
ci ple
Ġplan es
Ġpost age
ĠNatural s
Ġaccompan ied
Str ange
ĠJol ie
or bs
Th ick
ĠN AS
Ġab omination
ĠV augh
Ġob li
ĠEx pensive
Ġ200 2
Ã© al
Ġra ises
Ġtoler ance
Sur prisingly
Ġc ue
ĠC A
ĠG overn
Ġcl one
Ġend ured
ĠSc ream
Ġchair s
L C
M ES
c at
Ġo ct
Ġn avy
ol s
ĠV S
Ġfl ashing
Ġdeod erant
ĠEXACT LY
f ill
it ious
Ġha l
me al
Ġpe g
be cca
eng u
Ġbrut ality
m at
ĠG ARBAGE
Ġho ot
D R
G ive
P lay
ĠD ist
ĠC irc
Ġconcert s
C ut
o ir
w et
Ġth ier
ĠL in
.... ......
ĠHe ats
ĠSci Fi
N atural
Ġin just
Ġch er
ĠB OUGHT
ĠWall ace
medi ate
Ġlefto ver
w r
Ġtheat res
yl um
rid ge
ĠSch mid
Ġthreat ening
ĠVirgin ia
V al
t aker
ĠN athan
Ġsee ks
Ġweight ed
ĠThrough out
L ess
Ġreal ities
we ek
i Ã³
v s
ort ions
ĠIs lam
ĠMir acle
Ġarc s
Ġadoles cent
ic ation
Ġab und
Ġco aster
Ġunpl ug
Ġenlight ening
Ġd war
ĠW ins
un o
ĠPr om
Ġwrink led
i as
ĠB ette
ĠE R
Ġcountry side
Ġprev ented
Ġmaint ained
ĠL one
Ġret ro
lud es
Ġgir ly
ir y
ain ts
ĠG am
Ġori ented
ĠL iquid
Ġdemand ing
Op ened
Ġpoet ry
G en
Ġfair ness
Ġrequ iring
oster ous
Ġinconven ience
Ġoint ment
el a
Ġsp ine
ĠAr k
ĠWell iver
Ġawkward ly
B illy
ĠL em
OO O
ĠKe ith
Ġfly aways
ĠENT IRE
P ump
m or
y ard
Ġc ub
Ġi P
Ġsoft ware
ĠAl cohol
arn ation
ĠEx c
Ġimpr obable
ĠMan ic
Ġobs ess
Ġrevis it
; &#
D ull
H ead
l iss
ĠP ACK
act ors
Ġcont amin
ention ally
ĠScr ooge
ĠFIN ALLY
B esides
L P
ar ters
ons on
Ġnight time
ĠNeed ed
Ġm a
Ġdis ney
be ing
Ġfault s
Ġstraighten ers
hy de
Ġpu zzle
ĠrÃ¡p ido
Ġg amb
ĠTh an
Ġup beat
pect ing
ĠNO PE
Ġdiss olved
ĠSam s
] .
m ind
Ġlight ning
ĠJeff rey
ĠLaur ie
Ġhood ed
ĠCOMPLETE LY
Ġg au
Ġun finished
Ġflash y
Ġencoura ged
C M
J ul
c oll
y a
ar o
Ġsu cc
ag al
te ch
Ġcl oying
ĠFl at
ĠDID N
Ġpredecess or
er ves
ĠP ICT
ĠSch warz
ĠBeaut ifully
p ot
ing ers
ĠC orn
oo h
Ġrel ation
Ġwra pper
Ġgentle man
ĠPred ator
M at
j e
ci er
edi ocre
de f
olver ine
ĠValent ine
or ange
St op
Ġill usion
t ale
m ain
Ġbe ef
Ġbu lly
ĠNo v
Ġremember ing
ĠANY ONE
ĠH ank
Ġcirc us
Or der
T R
mit t
Ġer otic
Ġsplend id
O ID
s n
ĠM ath
ack ing
Ġter rified
Ġoverwhel med
plic ity
Ġpun ishment
Ġaes th
Ġv apid
Ġrece ives
ĠPh ys
Ġcord ed
w all
be en
reak s
Ġdem ise
ĠBig foot
S il
Ġnot ably
ĠT ina
ĠDIS C
Ġexter ior
ic ism
Ġ/> .
ul ates
ia h
Ġair brush
s ometimes
Ġall ot
Ġco hesive
char acter
Ġpronoun ced
k k
ill o
Ġkn ob
ud ed
Ġpositive ly
Ġpeace ful
ĠAud rey
F ive
m ic
ed on
ĠSh ine
ĠBl ake
Ġsat ir
Ġve in
Ġworry ing
Ġdesper ation
Ġl bs
app le
pect ives
Ġprocess ing
ĠLI GHT
Ġintim id
Ġtempor arily
Ġm ute
ĠD ried
ĠM AK
ĠE than
Ġunder water
iv an
ĠTr ash
Ġvolum izing
M ight
m outh
ĠH eston
ĠO x
Ġdam ages
Ġorange y
âĻ ¥
p in
Ġ ion
Ġthick ening
Ġund amaged
ĠJud ge
Ġhyp oallergenic
Ġenthusi astic
Ġhorm onal
ĠMiner als
Ġatmospher ic
Ġt engo
Ġhy giene
Ġod ors
Ġpush er
Ġmesmer izing
F L
Ġa pt
Ġp oking
Ġg er
ar in
Ġrem arks
Ġsme aring
ibl ings
Ġdistribut ed
Ġt out
ĠS elf
ĠF ACE
Ġrec ipes
Ġtang ly
Ġpaus es
Ġle ap
Ġpain s
Ġcent uries
ĠRom ero
Ġcon ver
ĠP ast
ĠMore over
ĠAndrew s
Ġsh oved
Ġpl ugs
ood y
Ġdel ayed
Ġgrand e
Ġunexpl ained
Ġb b
ĠJ FK
Ġrep ulsive
Ġnur sing
Ġlimit ations
ĠClar isonic
Ġank les
ink le
av al
Ġins anity
Ġsn ipp
Ġfri ction
Ġrequ esting
Ġsqu irts
Ġexfoli ator
Ġinfl amm
Ġanc est
Ġg est
ust in
Ġle aning
Ġv ital
Ġmid st
Ġrose mary
Ġunst able
Ġsepar ation
gl ue
Ġjam med
ĠP enny
Ġselect ions
Ġconcent rate
c up
ĠM and
Ġwatch er
ĠST UFF
Ġign oring
ym ph
ĠW ag
Ġcomb ines
Ġtight ened
Ġdiss ervice
Ġmeasure ments
rum ents
g led
qu ate
St ay
Ġunatt ractive
H uge
ed e
Ġr asp
ard ly
ĠJack man
Beaut ifully
ĠB re
Ġiron ing
ĠBuy ing
Ġox ide
ĠTok yo
ce nding
Ġr ising
Ġbr anch
ĠP alm
umb ly
ĠMiss ing
Ġlink ed
Cle an
Need ed
Ge orge
fet ched
Ġle gends
Ġri m
Or Ã©al
Ġveter ans
l ittle
ĠF RI
ĠSe lle
RE AD
ĠG ray
Ġtr ope
off s
ĠSim psons
ĠC ri
Ġde mas
ĠF est
Ġint ol
Ġmem or
Ġpad dle
ĠMet al
ĠScot land
en berg
LL OW
âĢ¦ <
uss ie
Ġfu el
ĠCharl otte
ĠB ene
Ġnor th
ĠIN S
ĠBrush es
Ġsooth e
ĠGriff ith
ĠN orton
to xic
ily n
ach ing
Ġclean ers
Ġtop ical
Ġcoll ar
Ġfav ors
Ġfat al
Ġduplic ate
Ġdebr is
it ty
ĠK yle
Ġins ipid
ĠEvery body
ĠWITH OUT
Ġcitiz en
Ġsnoo ze
G O
ĠG ore
ĠF lynn
Ġpol ar
Ġfinger prints
Ġjew els
A H
Ġtra ins
Ġabs ol
ĠMar x
f lies
Ġg ee
ĠB art
ĠN at
Ġapp alling
ab el
pl an
ĠProduct ion
eron ica
Ġwrist s
S l
¼ ï¸ı
Ġb en
ent in
ĠD ies
ĠP ope
Ġbl ed
IS E
Ġpupp ets
Ġunimp ressed
Ã ¨
ĠA way
ĠG io
pr ot
Ġarrest ed
Ġf ighters
Ġh ides
Ġun related
Ġent ered
Ġgr ind
appe aling
an ut
ĠB udd
ĠCh ief
ah am
Ġcomplim ented
.âĢĿ <
Ġbudd ies
W arning
ie lle
ild ing
m ill
Ġfe athers
Ġup graded
au er
Ġes thetic
Ġoptim istic
L ive
ĠP urchase
ĠWe ak
ĠCinem a
ĠPy thon
Ġsideburn s
D ifferent
Ġd azz
are st
Ġdispens ing
s pir
ĠW ire
Ġout rage
ĠJ et
Ġbright ening
WH AT
ur g
Ġcom mend
ĠCh ase
sm anship
AA AA
ĠPO OR
Ġcigare tte
on ies
ĠD iv
ee e
ĠOr le
Del ivered
Ġinev itably
ĠFood s
v ance
ĠS ter
Ġr ats
Ġgl im
Ġclim bing
Ġmans ion
Ġst ages
ĠR uth
Ġexcept ions
Ġapoc alypse
Ġd uck
ĠC UR
Ġdisple ased
ĠW ing
Un able
Ġjud ges
P ower
m ine
Ġa plic
ĠRe qu
mit tedly
Ġsand ing
ĠApp ly
Ġimpro v
Ġachieve ment
ĠHot el
orc ist
d am
ol ph
ick en
pir ation
Ġunsett ling
ĠMiss ion
Ġexperiment ing
Ġaccommod ate
Y et
us ions
ĠL il
ĠJ ob
Ġapp alled
CE IVE
b ling
Ġc age
Ġc ider
Ġbl o
Ġass ess
Ġast ounding
Ġpurs uit
f ake
h al
Ġwh ilst
Ġpr ongs
ĠH onest
sc apes
Ġweird ly
ĠWH ITE
Ġdetect ives
Ġreflect ive
Ġbasket ball
h i
ĠL ead
Ġour s
ann i
ĠInst ruct
boy s
Ġw ounds
Ġc innamon
Ġpre ced
ĠK athy
ump ed
In itially
Ġdesp air
Ġchore ographed
ĠHyal uronic
Ġc a
ĠB ag
Ġmid way
Ġquiet ly
Ġpu zz
ĠSOME THING
Ġdisclaim er
n or
z art
Ġso ck
ĠS mo
ĠP ick
... &#
ĠK ur
Ġbrown ish
ĠCon an
Ġ199 8
Ġannoun ced
' .<
ic ate
RE CT
Ġsy rup
ident ally
Ġdialog ues
ĠSelle ck
D ead
us sy
th ood
ĠB ates
ĠC oun
ĠK EE
!!!! !!!!!
Ġlif el
Ġcontribut ed
ĠOly mp
H OW
f ish
z an
Ġo we
ĠL oc
ĠBe an
IT S
Ġqued a
g rand
Ġs iblings
ĠC uts
Ġrel ive
Ġ19 20
Super b
Ġuneven ly
Ġbees wax
Ġcaric atures
Ġsh ady
Ġimm ort
urt les
Ġmail ed
uv all
ank y
Ġgroom er
Ġrecover ing
ĠMons ters
ĠFAVOR ITE
I FUL
se mb
Ġsp arks
Ġprom o
ĠPre judice
Ġsymbol ism
b as
ri ger
Ġun lock
ĠEx pected
B le
S everal
Ġt ins
ier d
IL D
Ġgirlfriend s
mod ern
Ġtun ed
Ġchlor ine
Ġculp rit
Ġre ck
ri en
ĠC LO
Ġimp at
Ġdel ay
bl own
Ġv ice
ĠHA ND
s ure
ig ious
Ġ4 7
ĠEv ans
ĠDor is
ĠA bb
ĠO WN
iz a
Ġsp anish
Ġpurpose ly
ĠSpe ed
ĠTR ASH
ĠJac ob
Ġartif acts
W OR
VER T
ĠIN ST
f air
Ġsp ool
Ġprison ers
Ġcelebr ities
Ġox y
ĠRet inol
Ġantib acterial
Ġb umbling
ĠJ aws
ib bean
ĠðŁ ¥
Ġele ction
resp ond
Av oid
atch ing
Ġgreat s
Ġim per
oc ado
Ex cept
Ġund oubtedly
Ġfle e
ĠHun ger
ĠA gent
Ġout line
ĠSE T
Ġpers pectives
ĠVen us
ĠSPO ILER
hel p
M is
ĠB eth
ðŁ Į
Ġsn ail
Ġinvestig ating
N on
ĠA I
ĠO ri
ĠEx per
Ġhilar iously
J im
ar med
ri p
ist ant
Ġdent ist
dep th
Ġ( &
ĠP M
be e
oss ed
Ġtrad em
Ġrob bery
abs olutely
ĠFire fly
Ġmonot one
fashion ed
ĠC ARE
Ġ1 10
Ġseem ing
de hyde
Ġnet flix
Ġtall er
Ġrust y
er ving
Ġwh ine
we igh
Ġhel pless
Ġcr adle
ĠST UPID
ĠWA IT
n one
Ġe ats
ĠS ab
land er
ĠMon ty
vi vor
Ġm isf
Ġjust ified
Ġfl air
man y
Ġcorrect ness
Ġmed ieval
Ġmanip ulation
Ġimpe cc
Ġo mbre
at ner
ĠC ord
ĠH ilarious
Ġmon tage
Ġsand wich
Ġphotograph ed
ĠTenn ant
Ġm ate
ĠI vory
ir lfriend
Ġplot ting
Ġfold ing
ĠS OOOO
Ġen closed
Ġar ray
Ġsaving s
ĠChap stick
ĠSpir it
F our
m anship
Ġre bell
ĠM olly
ĠF avorite
ĠE ffects
Ġreason ing
P at
c in
Ġf usion
Ġdis mal
Ġsqu ad
Ġparticip ants
Ġinst ruments
Ġitch es
w ashed
Ġw ed
Ġw isp
Ġg eek
Ġsim plicity
ĠGood y
ath om
Ġmudd led
al ine
ight s
ĠRuss ians
e ars
Ġst are
Ġdis order
ĠTH IN
Ġsus pected
ĠON CE
ĠPe pper
Fl imsy
Ġp ots
us ually
ir rit
Ġch ops
stick y
ĠPl ace
g ive
v ier
am o
pe y
ĠP E
ĠV on
Ġdes ires
mb ers
ĠLo is
ĠBrad ley
G iven
j as
Ġd ar
st atic
ĠT aking
ĠP ossibly
ro e
Ġmon str
Re member
Ġanticip ating
Ġnu ances
Ġwh ip
Ġleft ist
ĠSh aron
Ġblow out
Ġadjust ments
Bl ue
ĠBar ney
Ġmount ed
Ġden y
Ġbre asts
Ġa pe
Ġposs ession
ĠCr an
b ps
Ġr ul
ĠH ated
Ġback ed
Ġmay hem
Ġinv esting
Ġassass in
Ġc ater
ĠS ize
ror aso
Ġl ion
ĠS pl
ĠD one
Ġv aseline
Ġwa hl
Ġprogress ive
ĠVers ion
ĠMON TH
l asses
ag ues
Ġti k
ĠP ART
yp ically
tt p
Ġk udos
Ġcra w
Ġsex ist
ĠAr gent
Ġsle eper
Ġsimpl er
Ġconclud e
p o
Ġas ian
ĠF antasy
Ġbra ce
S ucked
er ation
ĠS illy
ĠD uvall
ant is
Ġde fiantly
Ġhard ware
AN K
Ġsubject ed
Ġrespect s
Ġelastic s
Ġdud es
Ġsket ch
ĠOrle ans
b omb
ĠS up
Ġle cture
The ir
Ġtri vial
ale m
ĠChrist ina
Ġoffer ings
Ġunimagin ative
E ver
Ġw att
Ġun o
mar ine
M ad
Ġdeser ving
b ast
ic iently
Ġre juven
Ġcan vas
Ġdown er
li kes
ock ed
Ġro cket
ĠCO ME
ĠCD s
Ġbrut ally
ĠAD D
Ġhall uc
Ġmigra ine
Ġ %
st em
ĠO cean
Ġ3 9
Ġcharacter istics
Ġref riger
Ġdiss appointed
Ġblend ers
char ge
Ġ199 7
Ġassist ance
Ġleaders hip
F ollowed
Ġp int
Ġse ats
ist ration
ĠL adies
Ġfore most
Ġsqu ish
Ġdecept ion
ĠR icky
ĠE au
Ġad vers
Ġins urance
Ġfree ly
Ġprot est
Ġannoy ance
ĠðŁĺ ¢
Ġdoub led
gu ided
Ġhairst yles
Ġjudg ment
Ġfreck les
D AY
S et
Ġfr ayed
ĠSe ed
Ġstand point
eth anol
ĠMod el
Ġjournal ist
Ġn omin
uct ed
Ġsm ash
ĠSt uff
af ia
Ġapolog ize
Ġmaint ains
ĠSwed ish
O ff
Ġ icky
Ġb s
ic ke
ĠUn believable
Ġcoll apse
Ġunderstand s
Ġmor onic
Ġdist ortion
Ġpsych ology
Ġadm irable
Ġresc ued
ĠCleans er
ĠIn to
ĠDe Niro
Ġsw ipes
Ġscam med
Ġp k
ĠS ense
uc er
ĠAs ia
Ġsupport s
Ġcosmet ologist
Ġunexpected ly
D irect
Ġafter math
ĠFr ustr
ĠGl ue
Ġessential s
Ġarm or
Ġpill ows
ĠHel p
Ġpainting s
ĠWHO LE
st ant
Ġte lev
it ating
Ġb inged
ĠD uck
ab by
Ġ19 95
erg ens
lo e
Ġdest ination
rig uing
ĠMach ine
Ġincomp rehensible
d ance
p icture
ok ie
Ġ5 2
Ġdem onic
ĠSC ENT
Ġconcent r
Ġengine er
ĠBer lin
ĠMc Queen
ĠBron ner
Ġsophom oric
! âĢĿ
Ġm m
Th ird
Ġun rated
Ġfil th
Ġpo le
ains aw
Ġribb on
Ġo at
Ġg h
Ġy ucky
ĠP ump
Ġpre fers
Ġir respons
Ġemphas ize
ĠEas tern
Ġreject ed
ĠM S
ĠC ro
ĠH ogan
he avy
ane y
Ġreact s
Ġ.. .<
Ġquiet er
ĠScott ish
Ġdevast ating
ag le
Ġstiff er
Ġst acked
ĠS i
act ica
Ġcr ashes
Ġri ot
Ġsket chy
Ġpap ers
Ġo val
ar rived
to ld
Ġwash able
ĠSam urai
se nd
ĠB everly
ĠP oly
Ġqu art
ĠF al
ĠIn v
ĠSh y
So ap
Ġgam ble
s us
ĠR A
be nder
ĠAn astasia
ĠMar ilyn
Dis ney
Ġwound ed
Ġmos qu
D an
iv ities
Ġroom mate
Sh ipping
yl ene
ĠEv a
Ġpuff s
ĠSchmid t
ed uc
Ġbut ters
ĠS ensitive
Ġcon co
Ġun appealing
ĠBl ues
Ġmor ally
Ġcollect ed
Ġintense ly
ĠTra in
ĠAdvent ure
Ġm ens
ad r
ĠM ummy
Ġdis rupt
Ġsupp lied
Ġreg row
ĠQ ue
Ġproced ure
Ġpare ce
H ello
Ġcon form
Ġfl ipping
ob y
li a
Ġtra its
ĠBl oom
AT UR
ĠCo ast
Ġuns uccess
Ġshut ting
fo am
g ence
ĠS ull
ĠH ence
Ġstupid est
ĠVaugh n
c am
ĠI MA
Ġam ple
ĠSe infeld
ĠHugh es
Ġinvent ive
Ġp edi
Ġl ane
Ġup load
ĠR um
St ick
Ġphenomen on
ĠPur ple
Ġmargin al
m un
em ale
ĠG ay
Ġprep osterous
Ġnu ance
lace ment
in ction
if ty
Ġret ros
Sh ampoo
Ġindic ating
Ġsilic on
Ġresour ce
F I
l aced
ĠD om
Ġthin ned
Ġabsurd ity
ĠJoh ans
R es
Ġha cer
Ġle ct
ise x
Ġstuff ers
ins ki
ĠLO O
Ġmen us
ĠSc ary
min al
Ġshame ful
Ġformat ted
Ġclever ly
Ġblem ish
G L
Ġw olves
ĠB enn
ĠAnd re
Ġpor osity
ðŁĳį ðŁı»
Ġsuspect s
Ġenthusi ast
ĠDi Caprio
ĠH ust
ĠG iving
Ġcord s
ĠSal on
Ġunpl ugged
EX CELLENT
ĠS aid
un te
Ġun ivers
Ġgu id
itch ing
Ġwat ers
Ġhost s
Ġnecess ity
Ġseam less
Ġdemo g
Ġapoc alyptic
v ability
Ġsm iles
Ġatt est
ĠLight weight
m ight
Ġn ippers
am an
Ġr ant
em o
pense ful
ĠWag ner
Ġd ome
Ġwith stand
ĠP iper
ĠWell es
ĠMar io
L asted
ĠC ook
ĠR ab
ĠV iv
Ġche w
Ġunt angle
tra vel
ĠVictor ian
Ġbless ing
Ġs ang
Ġ3 000
Ġbo gus
Ġcond em
St urdy
Ġbuff ering
Ġpunch es
Ġsurf ing
ĠHAL F
ĠC ena
ĠV it
Ġconnect s
ATE LY
Ġseam lessly
ĠG and
Ġstra in
Ġwar med
Ġtruth s
sp oiler
Ġrepack aged
Ġtraff ic
K ing
Ġth erm
ed ed
ĠDon na
ib les
ĠCopp ola
B ay
Ġp ets
ast es
Sh ort
Ġimagin able
________________ ________________
ĠAdvent ures
Ġshel ter
ant o
ĠH ack
Ġside ways
Sh ame
Ġfort unately
im s
ĠW a
Ġvol uminous
ĠWith ers
Ġinf ur
Ġforg iving
ðŁĳ Į
Ġprincip les
Eng lish
Ġl an
ul ary
Ġun professional
ĠRe y
Pol ish
B UY
f low
Ġe ct
Ġman agement
Ġche at
Ġent ering
co pe
ĠSp oiler
ĠRay mond
l iness
le ft
ad en
ĠM ISS
Ġsk i
Ġho c
Ġsum m
ev in
V is
an tha
Ġref ers
Ġcraft smanship
ĠMir ren
ĠOP EN
Ġshin ny
Ġm auve
en ger
Ġch op
ĠD AYS
ĠM ESS
int ed
ĠBr ide
Ġpsych ic
Ġdesp icable
Ġbatt ling
r ows
ĠW EE
am alan
Ġsty ler
OO L
Ġso ccer
Ġconc rete
Ġda wn
m ag
in arily
il ated
Ġsun ny
Ġregret ted
ĠTI MES
Ġbun s
Ġenh ances
ĠHul u
ĠM edia
Ġac ad
Ġsplur ge
A udio
F ree
d ell
ic ated
Ġch ills
ĠM US
Ġunc ertain
h ate
Ġadapt ion
ĠAp ollo
Ġgly colic
Ġmistaken ly
Ġrhy thm
r ary
Ġm arsh
Ġcor respond
irth day
Ġver bal
Ġqual ify
ĠC ontin
ist on
Ġman if
Ġper oxide
ĠFore ver
M us
Ġhy dro
Ġperfume y
St arts
ĠSha un
ĠTh eron
ĠFut ure
ĠDV R
ĠN aturally
ster y
Ġdrill s
Ġsoci opath
ĠCur ly
ĠWild er
ĠMil k
Ġvoc als
ĠPow ell
Ġcowork ers
s un
Ġwh ist
st o
Ġso y
Ġwe ary
Ġj unior
oc alypse
Ġroom y
ĠAD VERT
Ġcoinc idence
g t
Ġb reed
Ġpe ek
Ġhuge ly
Ġstrength s
AW ESOME
Ġhi j
ĠNC IS
ĠSELL ER
K evin
b aby
it utes
od d
Ġwas tes
Ġsc aly
Ġlive ly
Ġmis lead
Ġsix th
Ġunscrew ed
Ġcert ified
igment ation
B en
Ġa x
ĠS J
Ġgo op
ol is
Ġcomp rehensive
Ġpro ceeds
ĠSt u
ĠWe nd
ĠFe ature
ad vert
ĠM oses
ĠL atin
ĠG inger
ĠF alls
Ġcomple ment
Ġtest ament
ĠSE EN
Ġped est
Ġzip lock
Ġassass ination
Ġunhe althy
ĠWONDER FUL
ĠL ESS
ĠPP V
B L
Ġseason ed
Ġsch lock
Ġlay ering
Ġdefin ing
Ġacknow ledge
Ġj asmine
ĠD iss
Ġsp ons
Ġdi aper
Ġprep aring
Ġjo ins
ĠEVERY ONE
ĠSpider man
Ġprost itute
; !
L ist
b ombs
e nding
Ġm ash
ĠH arbor
Ġinc lined
cur ity
Ġconscious ness
Ġmuse um
K ED
Ġf oto
em pl
ind ul
elt s
ĠRe ason
Ġpay check
land s
Ġtrick ed
Ġdedic ation
Ġstrate gy
d ead
il ia
Ġproduct os
Ex pensive
ĠAb by
ĠBro ok
ĠSams ung
Ġ/> &
ĠA lec
ĠB uff
unk er
ĠSO FT
Ġwood sy
Ġscar f
f u
r ove
Ġcomp ressed
ĠThanks giving
ĠWH ERE
Ġpier c
ĠPil ates
Ġveget able
F y
ut ing
Ġso cially
ĠH ou
Ġret r
Ġdocument ed
ĠSP E
udd enly
ĠSA VE
Ġpix ie
Ġcham ber
AN Y
ðŁĺ ģ
Ġment ality
Ġloofah s
Brush es
Ġs ought
ing o
Ġl ap
ĠP roraso
ĠSh out
Ġri ff
ĠBr onson
ĠAr c
b ound
u ates
ĠB oss
Ġhel met
Ġ10 1
ĠLuck y
Ġsi xties
H oly
f iction
v ation
pr oduced
ĠPe ace
icy lic
He art
Ġretract able
C r
Ġpun ct
ĠDoc umentary
Ġa y
fe ll
ope z
Ġoper ating
ran os
et ing
Ġcon verted
Ġlea f
tt ps
Ġconnect ing
Ġscrap ed
g ift
ER IC
Ġhum il
Ġdark en
ank ing
ĠWar rior
ĠCar ibbean
Rich ard
b ase
t ried
ĠD anger
ĠP ers
Ġpo etic
Ġprom otes
Ġban al
Ġrew ind
h yp
r ot
it i
or ia
Ġwho lly
ĠU HD
ĠDid nt
ĠInst agram
Ġcompet itors
ðŁ¤ ¬
br al
Ġchar ms
Ġcast s
ĠSh ipped
ĠSpe aking
p ure
th riller
ĠN ik
Ġcr umble
Ġfresh ener
Ġchrist ian
sim o
******** ********
Ġinhab it
) ?
C ase
Ġf art
Ġover board
og es
Ġcirc ulation
H ot
P ain
ir ky
ay a
Ġ/> +
ĠS ort
OU NT
ĠMo zart
ĠGri mm
Ġdisreg ard
f lower
Ġwas her
ĠC opy
Ġplay able
ĠSh adow
Ġprofess ion
Ġpurs ue
Ġunse en
me lon
Ġbo ots
Ġinv igor
ĠCo hen
Ġrabb it
ĠS ucks
ĠR oc
Ġund ere
Ġassoci ate
m aker
ĠO IL
he nd
Ġsan itary
Ġsunburn ed
ĠL ogan
Ġsk it
Ġaw fully
Ġstand out
ĠSy d
ĠBerg man
Ġp ant
ĠE nt
form ance
Ġexfoli ant
Ġg ifting
Ġswe ars
Ġsteam ers
Ġstress ful
Ġaston ishing
D ep
od o
Ġus b
Ġr ice
un fortunately
Ġcr umbly
Ġdead line
Ġprem iere
Ġnovel ty
ĠAf ghan
Ġblur red
ĠManh attan
B el
ĠN ame
Ġest o
Ġdisappe aring
Ġparab en
E ither
Ġdis cipl
ĠG lo
ĠWe aver
ĠBl ock
Ġart icles
At t
e at
p ose
Ġus ado
Ġhe ist
ate e
cl im
Ġmouth wash
rr rr
ĠAsh ley
ĠAbr ams
Ġf al
ĠSp a
Ġcompet ing
Ġestab a
y an
al er
ĠP AY
Ġpol ite
ĠSil k
ĠBros nan
dri ven
le ton
Ġre fined
Ġsh ops
ĠT ools
Ġco oper
Ġdy stop
Ġvirt ue
Ġking dom
ĠCLE AR
ing es
ĠG ere
Ġte ase
Ġincorpor ate
Ġth ief
Ġd aring
Ġl atch
Ġal igned
Ġdis infect
Ġev olve
S ound
W rit
it os
Ġhe ars
Ġdisc arded
Ġadv oc
Ġrepe ll
ate ll
Ġcou ns
ĠGod s
Ch ris
Ġsciss or
Ġsuck ing
Ġitch ed
ĠRE CEIVE
UL OUS
Ġprin ciple
Ġb erry
et ed
ĠW ard
ĠM ale
ĠG I
ĠPort man
g as
Ġmurder ous
Ġran ch
Ġrespect ive
Ġsecret ly
Ġwild erness
Ġmanip ulated
Ġyour selves
ĠO uter
Ġmis guided
ĠFe b
Ġadm ir
Ġpizz a
e acute
Ġw re
ĠB acon
ĠV ader
Ġke en
Ġass igned
Ġmaster ed
Ġtruth ful
Ġdisgu ised
Ġ ......
ct r
ĠN y
Ġtra iner
Ġappe als
Ġbas hing
Ġgas oline
episod e
B ottles
f rizz
Ġw renching
ĠD omin
Ġun icorn
az aki
own ed
ĠK l
ĠSE AL
Ġexch anged
Ġin ade
el come
Ġcar bon
ĠBr oken
Ġla wn
C OM
Ġsc andal
oduc ers
ĠSp onge
ĠDoes nt
Ġcat ast
Ġmess es
Ġsuggest ing
Be yond
Ġoper as
Ġident ified
ĠSand alwood
ðŁı» âĢįâĻĢï¸ı
F amily
ĠH ale
Ġcan ned
Ġpl iers
Ġcle ars
Ġreal istically
Ġdra b
Ġsub ur
RE AK
Ġmis placed
ene z
Ġconceal ers
Ġspect acle
Ġalb ums
Go ing
Ġpierc ings
V ol
Ġc akes
Ġch ic
un like
Ġsw atches
Ġmod ified
Ġresid ents
Dis liked
ĠTit le
Ġris ks
p a
Ġthe ses
Ġp omp
Ġv ign
Ġpro ceeded
Ġinter mitt
af fe
Ġ197 7
F ace
Ġth ugs
ĠN ash
ĠN IGHT
ĠL opez
Ġ3 8
Ġke ys
ĠRe becca
Ġign ores
Ġgal ore
Ġunravel ed
ASS IC
Ġawe ful
Ġtradem ark
! &
h ole
l ive
gh etti
Ġnot ing
Ġcan on
ĠV eronica
Ġhome work
Ġimpress ions
Ġsum mar
Ġrehe ars
T C
Ġt ails
Ġd ents
Ġcomp osition
Ġinter mediate
d ict
Ġsooth es
Sk ip
P le
Ġc um
ĠS part
Ġpre judice
Ġsw ap
Ġorgan izing
ĠRed ken
Ġcitrus y
5 00
ie v
ĠW right
Ġwater ing
Ġev idently
Ġcelebr ate
Ġkidd os
Ġrew rite
ĠTik Tok
ĠPRI ME
y ers
ic ia
the ir
olog ies
Ġmen acing
ĠSto oges
ĠCli ppers
ĠMey er
Ex pected
Ġtit anium
ys sey
ĠACT ING
Ġutil iz
Ġp oo
on ous
me aning
ĠB less
ĠC ologne
Ġche cks
ney ed
Ġdad dy
ĠBOT TLE
T im
g ener
ĠW ont
ĠM ove
Ġtri be
Ġfar ther
Ġrid ic
Ġbother ing
Ġden ied
ĠWATCH ING
Ġgal axy
des pite
Ġdemas iado
Ġesthetic ian
F eel
d led
Ġche ep
Ġinv ited
Ġcopy right
ĠTr oy
ĠQu entin
Ġsne ak
er ia
ĠC AME
Ġrec ieve
]] .
" !
w rong
Ġd izzy
Ġwe ed
fe els
ĠK atherine
Ġinter tw
get s
get ic
Ġinexplic ably
ĠCub a
ĠColumb ia
Ġe tern
Ġst airs
op ers
op ard
ass ed
nam ent
Ġhost age
ĠEll iot
ĠSol o
AMAZ ING
R OR
m atic
Ġgo at
ĠR UN
ib es
Ġphot ographer
ĠWH ICH
ĠPic ard
ĠWithers poon
ome ver
Ġsub tly
ene gger
ric ia
ĠDes cription
Ġcompens ate
b ly
ĠM orm
pe lling
ĠL uther
Ġend lessly
Ġfl ame
ĠColor ado
ĠDor othy
ĠF ANTASTIC
az i
iss ors
ĠFr ont
Ġdist aste
ĠST ICK
ĠEm peror
Ġassum ption
Ġfu er
ĠPart s
Ġagr ad
as ma
se ems
op ed
ĠP aid
Ġforget ting
ĠReturn s
ĠPal mer
ĠHann ah
Ġspr ings
nd ar
ri et
Ġfinish es
Ġass ert
; ?
L A
M ag
p ires
Ġd ire
Ġd ifer
os i
ĠDra g
ĠDark ness
ĠBrand o
Ġlil ac
Ġgig antic
F ine
m atched
Ġe ternal
Ġact ively
aj o
Ġspot ty
Ġsacrif ices
Ġacqu ired
Hope fully
i enced
ĠA wards
Ġag ency
ĠCl iff
ĠðŁĺ ģ
inc ingly
Ġresid ual
Ġsuff iciently
ĠEVERY WHERE
ĠFore st
c ogn
Ġin qu
Ġ/> ...
Ġfe at
Ġ3 7
ĠSo cial
Ġtra b
ĠTH OUGHT
Ġbull ying
ĠAngel ina
ap ers
Ġty ing
oli ath
Ġrad iation
F ragrance
p erson
Ġl az
ad as
ĠB ul
Ġad mission
Ġexpect s
Ġexp osing
Ġlaugh ably
Ġmor ons
Ġcount ed
Ġstiff ness
Ġnet works
Ġtast eless
nd e
Ġout weigh
au pe
ĠK eratin
alk er
cl ose
Ġtun nel
ĠNon etheless
p urchased
w ild
ĠF RA
Ġdraw string
Ġcirc uit
oooo oo
dis appointed
J ason
ĠG otta
ĠSU RE
w ords
ĠP in
gin s
Ġinc ap
LOVE D
o ard
Ġun box
Ġext rem
Ġmor on
Ġvill ian
Ġretire ment
ĠWins let
adr iel
Ġw retched
Ġp esta
Ġl ac
ent h
ven ient
Ġdeb ating
Ġdivor ced
Ġramb ling
Ġs age
Ġcharacter izations
Ġsent ences
Ġgener ate
Ġsyn th
Ġscra per
S H
u i
ĠB ollywood
Ġsn ob
ĠADVERT IS
e ge
Ġp enn
Ġfavor able
ues day
Ġfree zer
Ġvis ions
Ġprom otional
Ch arl
Ġrad ical
Ġclim b
Ġflo ors
Ġreport ing
CON S
in stead
Ġd angers
Ġal ittle
ump ing
Ġlength en
Ġwebs ites
cra cy
Ġgadget s
Ġhesit ation
ĠWalk en
ĠDy son
Ġprepar ation
ĠNAS A
d umb
e ches
Ġf ren
es se
Ġlo ath
ĠR im
Ġaw ak
Ġres ent
Ġfeature ttes
Bl ades
Ġ197 8
ĠS alt
ink er
ab uki
ĠSe agal
Ġsw irl
Ġblow er
ĠDen ch
Ġdil ute
ĠBO X
Ġparan oid
Comp ared
Ġinflamm ation
bast ian
d est
Ġd reck
Ġle nd
Ġreflect ed
ĠRep air
tr ans
t ot
Â °
Ġd ing
ud a
ĠSt art
Ġimm ers
Ġfool s
ĠMiner al
Ġwobb ly
Ġdepth s
ĠSim mons
Ġmer cy
ĠHE LL
ĠDar cy
Ġhomosex uality
D uring
i ates
Ġcomp os
Ġ- <
ĠCl air
cent ered
Ġdefin es
Ġcelebr ation
walk er
lest ar
Ġbrood ing
Ġa pl
ig s
Ġcr ashing
lus ive
Ġrelax er
Ġmer maid
Ġexplo it
ĠFa ith
Ġl ur
ĠH our
be aut
ĠIm age
Ġens ues
Ġsne e
ĠWork ing
Ġchamp ion
ĠGreg ory
Ġarg uing
Ġdimin ish
ĠSPO ILERS
heim er
S ays
ouch ing
ĠSure ly
w ind
Ġp y
ĠW olverine
ĠN ixon
Ġbad ass
ĠCho ice
Ġto days
Ġam id
ĠY ep
ĠTO P
Ġglor ified
Ġrein for
Ġinterrupt ed
d vd
f resh
ke eper
Ġwid ow
col ored
Ġpray ing
B R
Ġpl iable
Ġwitness es
Ġgrandp arents
S n
ĠTh row
Ġperfect o
anc a
Ġton ers
Ġ198 5
Ġspaces hip
B EST
ĠS ed
Ġlong time
Ġmight y
Ġcr ud
Ġknock ing
ĠRose mary
? )<
om n
Ġr ises
Ġman iac
Ġte e
Ġreal ization
Ġcomplain s
Ġfir ming
ĠHerc ules
ĠW r
Ġbr o
Ġeth ical
Eas ily
ĠD ONE
Ġpl ight
wh atever
ĠSh atner
ric an
Ġrough er
ĠHol ocaust
Ġparticip ate
ll i
Ġmo ody
ur o
Ġscreen writers
ĠCom ing
Ġunre cogn
Ġcha otic
ĠGil bert
ĠFish er
x x
Ġm oust
ĠG ree
Ġchar ity
ens en
ĠK ar
Ġmon itor
sh ips
ĠIN TO
ĠReg ular
PLE ASE
Ġadvertis ements
c ake
s eriously
ĠN ex
ĠP or
ĠChrist ine
Ġrefund able
Ġtransp orted
ĠOrgan ics
idel ity
ĠGabr iel
I AL
ĠB unny
Ġgood ies
Ġfl ipped
Ġest oy
Ġpan el
ĠSur prisingly
ĠVal ue
p igmentation
ic ot
Ġlo ading
ĠH ERE
ĠL emon
Ġtr ays
ĠSE CON
pur ple
B ar
C or
ĠO ften
Ġpro ving
Ġmin es
Ġrest art
Ġpig ments
ĠTe levision
ĠGuy s
Ġdecor ative
Ġt ilt
ĠA ussie
ĠM AR
Ġal ign
ĠN aked
av ier
Ġwater line
ĠSh ep
Ġve ces
ĠPro v
Ġground breaking
ĠGre er
ĠSop ranos
Ġt bh
Ġam used
Ġvol ver
Ġclick ing
ĠWestern s
ĠGal actica
ref und
Ġexcell ence
Ġsc arring
ĠKe y
Ġbond ing
Ġemp ire
B ill
g ard
l ost
Ġy ield
Ġoil ed
Ġele phant
Ġaff airs
Ġt anned
et o
ĠS ting
ĠS aint
ĠH IM
Ġimp erson
Ġdest ructive
Ġoffe nd
ĠJer sey
C aused
an ormal
Ġre eks
ĠC rit
Ġcor pse
Ġn ing
Ġsnag ged
Ġdissip ate
ĠLG BT
a Ã±
Ġb urd
ĠN ord
ĠN ICE
Ġsun less
Ġ9 8
Ġtable ts
Ġdread s
it an
ĠS ING
ig il
ĠVER S
Ġthreat ened
arks on
Ġpouch es
ĠScr ub
en an
ĠP ad
ĠJ ama
Ġadd itions
form ative
Ġbelie vability
Ġide ology
Ġcred ited
Ġdiss olves
Try ing
Ġenthr alled
M in
N N
ĠSe arch
Ġmid night
ĠHam ilton
Ġu m
ĠU NDER
com ed
Ġserious ness
Ġsched uled
ĠBarry more
enjoy ed
ĠSell ers
Ġc ath
Ġgr ating
Ġstupid ly
ĠDan a
ðŁĳİ ðŁı»
W ARNING
Ġt read
ur u
Ġvol can
ĠDa isy
l ucky
Ġover weight
ĠV enez
Ġimp aired
Ġrem ade
Ġdeg ener
Ġobst acles
Ġinjust ice
C ant
or us
ight ful
ich o
Ġsub d
com ings
Ġappro val
aa ay
ĠPow ers
ĠSh adows
Ġz its
aj e
ĠCont acted
ĠSupp osed
ĠSull ivan
ĠO G
ip h
Ġaw ays
In credibly
ĠInd epend
ĠShow time
ĠWrit ing
ĠD ub
Ġwar riors
Ġconfront ation
Ġrecur ring
L uc
T ED
a o
Ġc ara
ĠG ard
ĠR angers
ĠE is
Ġacc um
ah n
ug o
Ġwashing s
ĠQu aid
bb ie
ĠApp lied
ĠChan el
Ġre lying
ĠH UM
ure au
ĠJ ourney
Ġstream ed
Ġcommun ist
ĠTW ICE
Ġexclus ive
Ġguid ance
h art
Ġdis may
urs day
ĠNic olas
Ġpr ude
ur er
Ġso ber
ĠL ET
ĠF ew
Ġsl anted
iss ue
ĠAl may
Ġem ery
ÃŃ cul
Ġhun ters
ĠBrand on
Ġsam urai
ĠMey ers
ĠBEAUT IFUL
Ġha lo
Ġbe aring
Ġcon air
Ġen er
ĠEx tended
ĠFe et
Ġlu ke
omer cial
Ġemploy ee
ĠInstruct ions
Ġn omination
ere k
ĠW ed
ĠRe agan
ĠUS ING
Ġauthor ized
Ġdisgu ise
Ġaccompany ing
at hing
ĠM alk
um m
ĠF ollow
Ġper ception
ĠK y
Ġsens ible
Ġvol unte
ĠCont rol
Ġank le
l ash
Ġs ins
ĠY ay
ĠBe lle
Ġwax es
Ġcompar isons
ĠPan ic
Ġearn est
Ġ199 4
ĠDaniel s
Ġdiscl osure
Ġmisunder stood
R ather
ar ming
al in
ĠG ang
ĠU GH
Ġcomm ander
Che esy
ĠMAY BE
W ant
Ġbehav iors
Ġpeque Ã±o
E ye
M I
ĠW ashed
ĠE arl
ĠSt ark
sh ort
Ġcam per
cond ition
ĠSim ilar
itar ian
Ġl umps
Ġshampoo ed
ik er
Ġland scapes
Ġjo hn
Ġelev ator
entertain ing
ri ft
ĠB ert
ĠM erc
ĠUP DATE
ĠTor o
absor bed
Ġlifel ong
ĠP iece
ig ence
Ġcl aws
Ġret ention
ĠAm ber
Ġfollow ers
Ġconf use
work ers
Ġnarciss istic
bac co
D D
Ġo mitted
ĠS S
Ġsl ant
aw k
Ġkill ings
Ġgross ly
uel a
Ġsket ches
ĠShy amalan
w ick
or ient
Ġab st
Ġher itage
RE N
Ġexpl ode
Ġoverwhelming ly
Ġsupple ments
ĠGal axy
ĠBle nds
Ġwhit ening
ĠPhill ip
Ġdevast ated
ĠC AR
ĠH ind
Ġbl ossom
ĠIn n
play able
ĠDE AD
Ġprison er
Ġcontrovers y
Ġup sc
ĠIn credibly
Ġattach es
ENT S
Ġencant Ã³
---------------- ----------------
Ġhoc key
Ġre im
Ġwax ed
Ġinex per
Ġdece ased
k now
t v
Ġb orders
th icone
ĠD ior
ĠSh rek
Ġirrespons ible
+ .
M el
X T
ig ator
ĠJo ey
v anced
ut ton
ĠM ouse
Ġam d
ĠO t
Ġcur tain
ro ck
work er
tw ist
Ġdom ain
Ġvenge ance
o qu
ĠL ance
ĠLe igh
Ġsle azy
An n
Ġsuff ice
back s
ĠBL U
Ġwhim s
c ou
Ġapp rove
Ġsm ok
ĠCh ron
pr ing
ĠHe nd
Ġsturd iness
ĠTOT ALLY
ĠO Z
ens es
Ġpar ad
Ġpost s
SE LF
Ġpir ated
Ġpued e
ra g
sh irt
Ġground ed
Ġpitch ed
Ġphr ases
ĠRot ten
? !<
a els
b atch
at ers
Ġ/> ~
Ġti pped
ig ans
ĠJ ude
lud e
Ġder ived
Ġpray er
Z Y
f ig
ĠP AR
ah ah
ĠHar old
Ġloof a
Ġfulf illed
Ġergon omic
Ġig ual
" ;
es us
ĠP om
ĠG ate
ge ant
OR D
ĠBr idge
Ġsympath ize
Ġinsult s
Ġdece it
Ġhack neyed
! ...
Ġk er
EN SE
land ish
ĠMar tha
Ġodor less
Ġdele te
t ick
Ġas ÃŃ
ĠT ag
pect acular
St ays
Ġfail ures
Ġcamp s
ĠGO ING
Ġglob s
ĠSub titles
Ġmonot onous
ĠFest ival
B ra
Ġc ries
Ġgo atee
Ġal go
Ġcap abilities
Ġri fle
Ġrepet ition
C C
G orgeous
Ġs ie
ĠD ud
Ġco pe
Ġye a
Ġday light
Ġbas es
ĠZ eal
Ġmurder ing
Ġmeas ures
Ġclin ical
Ġf ierce
Ġtw ent
ĠK ISS
Ġres ume
uff s
ĠKe nd
ĠMod ern
ĠIntern ational
Ġperse ver
Ġimpecc able
, )
Ġl ick
Ġre lied
ul u
Ġsw ords
Ġdissapoint ing
Ġc ust
ic ans
Ġver ify
Ġaut istic
Ġnavig ate
B rand
ail ing
Ġaccident al
Ġdiscuss ions
Ġs igh
Ġto we
ĠW ikipedia
ĠM int
iz en
ang ling
cl ock
Ġemp ath
Id k
v anni
ick ly
Ġkind le
Ġcar cin
Ġhy brid
ĠNow here
et al
Ġ/> '
Ġout law
Ġunder wear
Ġ4 50
Ġdec oration
Ġadd itives
Ġpres chool
Ġexha usted
Ġ ??
ĠH az
ĠCl aus
Ġanim ations
Ġmis ter
Ġbaby s
Return ing
ĠChap lin
Ġmeand ering
r ose
nd as
Ġm ounting
Ġd ug
Ġj apanese
Ġfr y
ac er
ĠNot ice
Ġblan ket
G ra
ĠT J
ĠL ind
ĠE instein
Ġrun ner
Ġinv ention
ĠAn akin
ĠWell s
Ġpink s
ĠMe gan
Ġast h
Ġcontest ants
G old
Ġl y
ĠG os
i ency
Ġ ???
Ġhistor ians
Ġadmit ted
af ety
Ġ198 9
Ġemploy ed
ĠB umble
Ġ( ?)
ĠL on
Ġret arded
Ġche e
ac ion
Ġ19 68
Ġspa cious
ĠPL US
Ġpall ets
Ġcorpor ations
Ġvoc ab
Ġcram med
Ġinnuend o
Ġgood bye
ud ges
Ġloc als
ĠMar ple
ĠDam me
Ġmob ile
Ġaccord ingly
Ġw tf
ĠS ue
Ġrec ru
Ġey ed
** <
Ġboot ies
ĠTreat ment
re qu
re ement
act resses
ĠR ace
Ġeffort less
Ġdefin it
Ġapproach es
Ġdepos it
w on
Ġch icks
Ġab ound
Ġslow ed
Ġcleans es
ĠFe ather
. ðŁĺ
ll ll
ĠA id
ma ids
ĠMon roe
Ġ197 9
Ġretail ers
W ig
Ġout break
Ġ5 1
ĠHe ath
Ġcomb ining
oph ane
Ġrespons es
r owing
as antly
od der
ir s
st rom
ĠAl mond
ograph ical
ana gh
Ġboo bs
Ġbetray ed
Ġdum bed
Ġtowe let
L ashes
Y uck
or p
Ġp aqu
ĠM AS
ard o
Ġpair ing
ĠEd gar
cel ain
Ġmill enn
Ġexagger ating
Je ff
se en
Ġde j
Ġend uring
Ġshort comings
bed ded
Ġiron ically
ic idal
ĠGr oup
ĠLo ves
Ġcens ored
Ġdumps ter
H ist
w avy
Ġh ug
Ġc yl
Ġor gin
Ġover shadow
ro it
Ġel bow
Ġpump kin
ĠLeonard o
Ġcomprom ised
and ra
Ġmon o
ĠCh er
Ġexerc ising
Ġto bacco
Ġst umble
âĢ ¼ï¸ı
ge e
ĠY ikes
ĠSh ane
ĠCo en
Ġunint ell
Ġener getic
B A
S P
Ġj umbled
ĠM os
Ġche f
Ġdra ft
Ġthin ly
bl ood
Ġsadd ened
j amin
Ġnot ices
ĠR aw
ord able
Ġsw ab
Ġste pping
Ġperiod ically
Ġgross ed
Ġpony tails
Ġped oph
fall s
ĠEAS Y
L asts
Ġchem o
Ġsick ly
Ġprogress ively
ĠTR U
Ġcere bral
or th
ĠS ulf
ge nder
Ġinter f
Ġcand les
Ġfreak in
ĠPlay er
Ġatte nded
Ġrecreat e
Ali en
Ġprett ier
ĠiP ad
a ac
Ġth y
re ceived
ent ing
Ġde ceived
ĠO H
Ġconv ict
did nt
Ġot ro
ĠI ves
ay e
ore al
Ġcl ash
Ġinf omercial
Ġest imated
Ġer ase
ĠSam antha
ĠWorth less
Ġgar ner
ĠFIN D
Ġabund ance
tot ally
Ġsc ree
ĠF AM
ĠJ asmine
Ġgr oo
Ġnon stop
Ġtrad itions
ĠAV OID
b idden
f r
es a
min utes
bo at
Ġnic kel
Ġcorpor ation
lab eled
ĠE V
ĠUn iversity
Ġsol ar
ĠWar ning
ĠHor se
ĠSur vivor
Ġgather ing
Ġweakness es
Ġshout ing
( (
Ġp ione
ĠH orn
ĠO cc
og ether
Ġ5 4
pr om
ĠIr an
ĠGer ard
ĠKil mer
Ġoat meal
T iny
n ails
Ġnot orious
Ġr ug
ĠSuper b
pow ering
Mo vies
ĠDi az
Ġo rig
ch air
ĠM D
Ġexp ed
Ġdilem ma
Ġsnipp ets
g ian
as i
ĠP oe
ĠG le
Ġinc ome
Ġprov ocative
ĠRob ot
Ġclim actic
ĠFO X
m is
re ality
Ġb er
or ters
ĠS oul
Ġrest ri
Ġmal o
Ġmanner isms
PRO S
c al
Ġe ject
ĠM un
pl astic
co st
Ġrede emed
Ġfield s
ĠClint on
Ġsitcom s
Ġformal dehyde
ĠPICT URE
urn ing
ĠK ILL
Ġdoc uments
Ġmor bid
ĠBrit s
Ġlink s
Ġcompre hend
T I
c re
g od
Ġh uh
Ġl in
ur ope
ĠD RI
ess ential
op rop
Ġad ored
ĠMar ines
Ġbutter flies
ĠCH R
lim ited
Ġpesta Ã±as
w yn
en en
Ġd ips
Ġbl ob
atur ity
âĢ¦ âĢ¦
ĠCol onel
oop ers
Ġreme mbers
âĻ¥ ï¸ı
) )
p anic
Ġt anks
Ġch ill
ĠM aterial
ĠT RA
ĠL INE
ish op
Ġhand held
bs ter
ĠSe attle
Ġtechn ician
Ġfunn el
ĠDou g
Ġbound aries
g one
Ġbottom s
ĠWOR SE
Ġcowork er
r od
us cious
Ġyou re
ĠW oo
ong r
ĠF itz
Ġche es
ĠCh loe
St icky
Ġsink ing
Last ly
ĠLaure l
ĠACTU ALLY
j ac
Ġt el
ab en
ĠHe idi
Ġind oor
Ġcall ouses
Ġmis mo
Ġfresh en
ĠZ ach
Ġsurv ives
ĠSMELL S
Ġnun ca
ĠMiy azaki
in formation
br Ã©
ĠS ister
ug u
Ġunw rapped
ĠHawai ian
v ention
Ġspe cks
Ġmass ages
Ġglim pses
H alloween
er ting
Ġc ement
atch er
Ġrich er
Ġtox ins
onym ous
fra me
in ters
ĠS aving
Ġno rel
Ġwar fare
Ġexper iments
Ġart istry
ĠIN TER
Ġutil ize
ĠOl aplex
Ġneglect ed
l ip
r ue
Ġch ased
Ġout landish
Ġmen os
Ġda Ã±
ĠMc M
Ar t
ĠSw iss
ĠAnton io
Ġreim bur
c ies
Ġund en
gl ass
upp ets
Ġ199 6
Ġarr ang
c ue
u ating
ĠC umber
ĠF inding
ĠCl arkson
ĠLou ise
ĠCent er
b ones
Ġn ations
Ġst ressed
Ġcl ing
Ġmagn es
Ġwand er
ĠTOT AL
. ),
Ġd ough
ĠAl one
Ġwear able
ĠMich aels
Ġdeb t
ĠDor co
Ġpir ates
ĠDIFFER ENT
ĠM ul
ĠM iles
ĠH arm
te xt
ĠJo joba
ĠCleans ing
Ġcigare ttes
ĠCosmet ics
m ist
Ġw izard
ay ers
Ġover used
ouch ed
Ġt ama
Ġdo l
Ġch art
ĠM ild
ĠT uesday
Ġaw some
ors hip
ĠSe ym
Ġexcellent ly
Ġprov ider
Ġspoil ing
ĠLight s
ĠCLE AN
F it
d i
g ame
Ġw ierd
ĠM IST
ĠC SI
Ġrec commend
Ġpro claim
Ġannoun ce
Ġplum per
ĠM aine
ĠIn tell
de ep
Ġdisplay ing
ĠMad onna
ĠTer ror
Ġdeliber ate
Ġaggrav ating
ĠNap ole
Ġfe ud
ĠAm ish
ON D
Ġind ucing
Ġhistor ian
Ġreward ing
IZ E
Ġbr it
Ġinter change
eng ers
Ġcommit ting
Ġliber ally
Ġsnag ging
Ġgall ery
Ġunint entionally
c os
Ġ ie
ĠM ix
Ġ4 4
gg les
Ġsw amp
Ġinf used
Ġsupport ive
Ġpour s
Ġresemb ling
% ,
Ġa ven
ĠM i
ĠM aur
ĠP rest
Ġgr inding
Ġdi ver
ĠSU CK
ĠGar land
Ġspe eches
Ġexc uses
Ġass ignment
ĠSp encer
Ġboun cing
Ġencoura ges
ĠEXP ECT
g ement
Ġall ev
ak ota
Ġco in
Ġcare less
Ġred head
Ġfra med
Ġeth ics
Ġanx iously
B rit
ĠC ell
Ġrec ons
ĠNo ir
Ġpres cribed
arr ings
Ġspec ified
Ġconv incingly
rig ue
ĠFred die
Ġnut ty
Ġincorpor ated
Ġdemog raphic
C ar
Ġan amorphic
Ġdo om
am ine
ĠF ear
Ġho bby
Ġsun k
par able
ĠSm h
ĠTh ursday
ci le
Ġannoying ly
Ġdef ault
Ġeduc ate
Ġinsult ed
Ġunc ont
Ġpric ier
Ġambig uous
I ng
Ġv a
Ġpre y
az ed
cri be
Ġmini ature
Ġstamp ed
Ġapproach ing
ĠBas il
Ġclar ify
Ġdesp ise
oxy ethanol
Ġj ade
Ġsub standard
Ġsign al
Ġec static
Ġconfl icted
ĠAfghan istan
x us
Ġm eds
as ers
Ġj oking
ĠD ull
Ġdis ast
irst y
ood le
Ġworld wide
Ġmind set
Ġfresh ness
ĠTr oll
ĠNight mare
ĠMus k
Ġfeed ing
ĠCare y
Ġmock ery
Ġreward ed
Ġpearl s
Ġfals ies
advent ure
l arge
er ay
Ġwa ver
ĠSe bastian
Ġgrand sons
Ġfix es
B LY
Ġre used
Ġgo sp
Ġr ows
ess y
Ġco ils
Ġsens ual
P iece
ĠC ris
Ġins ists
gl ued
ĠPRODUCT S
PO S
ĠSteven s
Ġdistinct ive
ĠBud dy
Ġrelent less
re nder
Ġp ist
Ġst reaking
ĠF abulous
ĠJ C
man ent
Ġdam ned
sh ower
Ġdest ined
ĠMc Donald
Ġuns afe
Ġlock er
Ġaddress es
Ġexagger ation
SPO ILERS
Ġvelve ty
ĠS um
fin ity
Ġseal ing
Ġrelax ation
Ġbear able
Ġscar iest
Ġphotograph s
ĠSeym our
M ary
f ive
Ġb f
ĠD ill
ign ific
Ġcr op
Ġtyp ing
Ġprim itive
ĠDies el
ĠC e
Ġdis m
Ġflo at
Cle arly
ĠKEE P
ĠZeal and
D am
Y OU
Ġt ester
Ġin advert
ag gy
Ġconvers ion
Ġ199 3
Ġfreak ed
Ġfund ing
Ġuniform s
Ġnin ja
Ġunderwhel med
Ġschol ars
Ġstero ids
Ġtas ks
Ġm aj
ĠM ick
Ġar row
ĠAl t
ĠWOR LD
ĠHE AD
ĠEst ee
Ġt ennis
ĠC rime
Ġspec s
B ruce
ing ton
!! )
ĠT ube
Ġrest rict
Cle ans
ĠKn owing
ĠSchwarz enegger
Ġnorel co
Ġd itch
Ġref uge
ĠCom fortable
Ġbright ens
ĠCO LL
Ġboot le
Ġdece p
MO ST
Ġglamor ous
R el
ĠW edding
ĠD S
Ġab oard
Ġscreen ing
Ġfish y
ĠAM ERIC
ĠDie go
i ene
Ġ icing
ĠT AKE
ĠF arm
Ġsm ack
Ġabsor ption
ĠPut ting
Light weight
O rigin
p ri
Ġbl iss
ĠV iol
Ġpe cul
ob ia
Ġopen ly
sc ary
ened ict
ðŁĳ ı
Ġstrand ed
Ġcross ing
ĠEss ence
Ġdecre ased
Ġlav ish
a is
Ġt a
Ġt asted
Ġd ÃŃa
ce ler
ĠS esame
qu es
Ġsl iced
ES E
Ġcomment ing
ĠAdd ed
Ġdread ed
Con f
ĠOp en
Ġhipp ie
re leased
Ġd ash
ĠWh edon
Ġform ats
Ġmot ive
Ġtem pl
Ġhab its
ĠSJ W
M on
g old
s mooth
ĠW AR
Ġwater melon
gr an
ĠLove craft
Ġfir ing
ĠGal adriel
Ġvocab ulary
f an
m art
Ġdis apoint
ĠG oliath
Ġsub t
ĠLO ST
ik o
Ġfire s
Ġinj uries
Ġisol ation
w ait
st s
Ġgl ows
Ġres ident
ub er
Ġspe edy
ĠDry er
ĠAqu a
Ġne ces
ĠP ed
ĠL athers
ĠR ider
Ġsp ont
Ġcro pped
Lo ving
ĠKenn eth
Ġg ou
Ġco ars
Ġpro jection
Ġfl our
ĠAr row
ĠHer oes
cred ited
Ġsensit ivities
ĠHand le
Ġsprink led
Ġresur rect
ĠMeth od
Ġhav oc
ĠNa omi
op en
Ġtr usting
Ġinter sp
Ġsuper heroes
Ġinstruct ors
Ġrev ol
ĠMor ris
Ġur ine
ĠShow er
Ġdrag ons
Ġpark ing
Ġcomprom ise
? âĢĿ
G I
R ose
k inda
w reck
ĠP erson
Ġdon ated
Ġbl amed
Ġsub marine
ĠLI VE
Ġglo ppy
Pl an
Ġexam ination
Char acters
Ġbaff led
Ġfantas ies
M ark
W asted
ĠS igh
pe lled
ĠJ ergens
Ġcre ma
Br ought
Ġunravel ing
an ked
Ġnot icable
ĠB oom
Ġun h
20 20
Ġblock ed
ĠGar cia
Ġobserv ations
Ġmonolog ue
Ġratt ling
ch ant
ĠC arm
Ġcond es
ĠSil ent
Ġescap ing
ðŁı½ âĢįâĻĢï¸ı
ĠC aucasian
Ġsm ug
Ġlow ered
Ġswe ater
Ġblock ing
Ġpeach y
Ġoccup ied
ĠDri ver
Ġinterf ere
S eller
ĠC RA
Ġv ess
ĠY u
ĠK not
Ġsl og
Ġadvent urous
II I
Ġdub ious
ĠOut standing
Ġheight s
ĠSL OW
Ġdun no
ĠNin ja
ĠJohans son
H y
Ġep it
Ġplay ful
Ġcomple t
gr own
Ġrepl ied
Ġauthor ities
Ġpreach ing
as ures
Ġfe ast
ous ed
Ġshock ingly
Ġcell ophane
Ġanticip ate
Ph one
Fil m
ĠHou ston
at us
Ġv on
Ġ20 23
Ġfore w
Ġdirector ial
Ġrev lon
ĠFin n
Ġw oe
Ġb enz
ĠS afe
Ġsu e
ĠRe venge
Ġgreen ish
ĠPri or
ĠCran ston
Ġmagnes ium
m ash
ĠP OL
ream ing
Ġcut est
col m
A p
Ġa h
Ġh iking
ĠM P
Ġv ic
Ġcra wl
Ġ19 69
Ġind ex
ĠPer fume
Ġenvironment ally
Ġnumb ing
ĠMalk ovich
me ga
ĠM AT
Ġqu its
Ġsl ack
Ġcounter top
Ġgrad ual
ĠMIN UT
Ġanth ology
M ER
ĠI R
Ġmon ument
Ġshort ed
Ġrelig ions
ĠCharl ize
Ġlens es
J UST
Ġg ums
ĠT ol
Ġgr as
Ġkidn apping
ĠAtl antis
ĠL iz
ĠG uns
Ġimpr ison
ĠGl ow
ĠFA IL
Ġstim ulating
Ġrevolution ary
C ast
ĠH on
D IS
F e
om ile
ĠD aw
ĠF DA
ĠE ps
Ġbath e
Ġtow er
De ath
ĠRam bo
Ġor g
Ġper me
ĠV ac
Ġcont empt
Ġage ndas
ĠPan ther
ĠSher iff
; ).
mo on
ock s
Ġmail ing
Ġm aqu
or ous
ĠB ottles
ĠE th
Ġdes cend
fort ably
Ġintr os
ĠHE LP
ĠAM C
ĠRome o
B urns
Ġex it
ĠN ON
ĠG IR
Ġcool s
Ġcompliment ary
ĠBum med
B urned
P aid
ed ing
ĠS ugar
ĠE t
ather apy
Ġred s
Ġz ipp
sh ampoo
land o
ĠWonder land
Ġcontribut ion
Ġmyst ical
ĠWrest le
Ġt uck
Ġb ick
Ġc aja
Ġout ing
Ġver ified
Ġgoth ic
c ifically
Ġspe lled
ec d
Ġmail box
ĠFrank lin
inter ested
Ġcourt room
Ġblink ing
ic er
ĠA AA
ĠD arth
ĠD erek
fe eling
Ġover st
Ġar ist
Ġdetang led
Ġach e
Need s
ĠclichÃ© s
Ġunrecogn izable
l it
Ġs anity
Ġre ign
Ġr anging
ĠC ave
ĠG RA
Ġent ity
Ġmor ph
ĠTom atoes
Ġdest iny
Ġbathroom s
LO L
ĠMart y
ĠLOT S
CI AL
Ġincap able
F ascinating
O dd
Ġche ering
Ġsub lime
ĠEx pl
ĠPh ot
ĠIr ons
Pl astic
Ġelimin ates
Ġelectron ics
Ġheft y
S u
Ġf oster
Ġin put
Ġex ternal
Ġ2 50
Ġins isted
sc r
Ġcomb inations
Ġenv ision
ĠStory line
mon th
ĠMas ters
ĠCart oon
N ING
b led
u Ã©s
Ġout ta
ĠT ru
omb ie
Ġmaster pieces
Ġsubsequ ently
Ġtic kets
ĠCa esar
o vers
w oke
ĠA part
ĠS UCH
ĠC reed
ĠL ets
Ġsa uce
Ġnew com
Ġshort ened
ĠSp y
Ġsweet ness
d p
Ġgo ose
ĠT ale
Ġinc ess
Ġcas i
bal anced
ĠLE AST
ĠMult iple
hyp ed
Ġn icked
ĠR idd
00 2
Re f
DON T
mus ic
H ouse
M agn
Ġ ).
ou f
Ġre bel
ĠS uddenly
ĠC ult
ĠN umber
Ġwood y
Ġadm ired
Ġscrap es
Ġseper ate
P ara
omet he
Ġfar mer
Ġgather ed
ocr ity
L ip
Ġb arn
Ġse mb
ĠW ISH
Ġfl atter
Ġplan ets
Ġscrew ing
Ġunus ually
Ġlu v
Ġmed itation
Ġ197 3
ĠRub y
ĠSid ney
1 20
ĠB irthday
Ġpre val
ĠGl en
Ġdefin etly
Ġpath os
ĠCast ing
Ġshr unk
Ġprivile ge
P oint
f og
te e
Ġins omn
Ġdispens es
Ġcomfort ing
ĠRead ing
Ġatte nding
Ġom brÃ©
ĠU NT
Ġunder developed
Ġadv is
ĠEl mo
amb i
ĠKen ra
Ġpiv otal
Ġabsol ut
ĠMINUT ES
g age
o pp
ĠJ udd
ĠSo ci
oun ce
Ġspot light
Ġglitch es
M om
Ġh d
Ġl ind
Ġpl ugging
ĠP atch
Ġcomp ression
Ġfl ops
Ġsto pper
AL SE
Ġr ogue
ass ing
Ġra ils
ĠBe hind
oc op
ĠCl ips
ĠEx orcist
Ġblush es
Ġpra ised
B ook
I V
or ad
Ġg n
Ġe arrings
ĠB ab
Ġmist ing
Ġclos eness
Ġrev ision
Ġincre ases
Ġhyper pigmentation
Ġdehydr ated
ĠTheat rical
C re
Ġn y
âĢ ĺ
Ġswe eping
Ġscript ing
etic ulous
Ġcritic ize
vi ol
Ġneur otic
ie u
op es
int ell
Ġtra ces
ĠSh annon
Ġcool est
ĠCon c
Ġforg iven
Ġpued o
organ ic
Ġprolong ed
Ġinade quate
B aby
ĠS ant
ĠG U
ĠR ated
Ġfl ames
ĠBl unt
Ġcap ability
ĠTom orrow
Ġstock ed
ĠPar adise
ĠTar zan
ĠBlanch ett
ongr ass
Ġtama Ã±o
Ġm oth
ĠH ang
Ġfe ared
Ġper t
Ġlamp s
*** <
Ġrequire ments
Ġcellul ite
ĠB ak
ist ency
iss y
Ġacc idently
ĠComm and
F orm
Ġh inges
Ġu h
Ġr ere
ig i
app er
Ġhate ful
Ġund e
ĠJan et
ðŁ¤ ¦
Ġscar ier
Ġgrandp a
l ings
l oud
Ġb od
Ġco al
Ġsuper man
Ġcoll abor
Ġextra v
Ġdist ress
Wor ld
He avy
Ġadop t
ĠInt ense
Ġmargin ally
Ġcandid ate
ĠHOUR S
ĠD utch
ĠL ace
Ġ4 9
ild a
ĠSt ones
Ġwet ting
........ ...
ĠBen jamin
Ġpet ite
Ġcaps ule
Ġvirt ual
ĠTHAN KS
ĠChamp ion
ĠField s
ra ved
ol ia
pr ove
ĠBe etles
ĠBUY ER
ĠSim pson
ov a
ðŁĴ ķ
ĠKarl off
Ġsh am
ĠD oyle
Ġfr on
ĠP age
ĠE ra
Ġgen etic
ĠBl ow
Ġlos ers
ĠSC AM
enes is
Ġconsequ ence
Ġupd ating
Ġhoriz ont
g ien
m akers
o is
s weet
th ree
Ġag ony
Ġtri via
Ġte nded
ĠV ine
ĠK P
erg art
Ġtem ple
Ġprint ing
Ġrespect ful
Ġtack le
lay er
ĠSto ck
Ġdiamond s
Ġtestim ony
Ġmanif est
W AY
Ġout put
ĠJ enny
ĠJ ungle
Ġsn apping
ĠBra ve
Ġ198 2
ĠDog s
Ġpecul iar
Ġb ills
Ġse as
um a
os itive
IN KS
Ġvisc osity
ĠLOO KS
P M
Ġf akes
ent ive
ĠS OUND
Ġout takes
Ġthere by
Ġbreak fast
Ġdecided ly
Ġ18 00
enz one
Ġwh irl
ĠAn imated
gar on
atell ite
e er
f aced
p urchase
Ġsp ies
way ne
Dis gusting
Ġground s
ĠJer icho
Ġhid rat
Ġspool ie
Ġpr y
ĠS as
Ġsuper market
Ġcond ensed
Ġband w
Ġreb u
Ġexplos ive
ĠArm strong
ĠJod ie
ĠCumber batch
ĠL anguage
Ġv ibes
ans as
Ġsl ows
Ġsal icylic
AN E
Ġtweez ing
ĠAct ress
Ġcollect ive
Ġcous ins
Ġunders ide
Ġuncont roll
F C
T ri
d ried
rench ed
Ġstink ing
ĠTe xture
!!!!!!!! !!
ĠOld man
ĠPre m
Ġ197 4
Who ever
Ġrecover ed
Ġentr ance
ĠFrustr ating
A bs
t al
Ġp ipe
ic ies
ĠL ab
ĠG ro
ail or
Ġkind ly
Ġpar ade
ĠSy Fy
Ġobserv ation
ĠCHAR ACT
stri ls
Ġmur ky
G host
re view
ĠL amp
Ġeven s
Ġend orse
Ġdes irable
Ġsoft ener
Ġhot test
Ġswe pt
!!!!! <
Ġnour ished
ĠTheat re
Ġs igning
Ġp ond
ĠH anna
un ce
ĠT ogether
ĠG or
int o
Ġag on
ĠTRI ED
Ġemo ll
ĠGio vanni
s el
ĠB orn
ĠM AG
Ġun playable
ĠK le
ĠVERS ION
h ence
ome gran
Ġno strils
Ġshow down
Ġsing ular
Ġcat alog
ĠBL UE
ifi able
Ste ve
omethe us
an se
ĠL ange
Ġtr ucks
Ġright eous
Ġinc est
Ġmar ca
ĠBr ady
Ġsyn ch
was n
ĠCase y
c u
Ġth ou
pe z
Ġv igil
ĠF IVE
Ġunder dog
ĠSh ield
Ġcr umbling
Ġname ly
Ġcre asing
oooo oooo
ĠFil es
ĠGold berg
Ġapproach ed
ĠSun screen
ĠFair y
Ġwisp y
º ï¸ı
or ice
Ġre think
Ġdis likes
Wh atever
Ġbott led
Ġ' '
oc us
Ġhot els
nes day
ad ers
Ġche wing
ex actly
Ġmind ful
Ġknock s
omen ess
mon ths
ĠHall e
ĠDec ay
Ġreh ab
Ġhilar ity
ĠMarc us
Ġmim ic
w olves
at ized
ay er
ĠM all
Ġsu g
oy l
Ġrece ption
Ġsens or
Ġvac c
ĠCH ILD
Ġbeach y
Th oroughly
ow ell
ld a
Ġex cel
qu al
Ġpre pped
ðŁĺ Ĵ
cle ar
Ġuns us
Ġspir ited
Ġaffect ing
ĠCL ASSIC
ĠTat um
Ġparall els
Ġrecons ider
Ġdisast rous
ĠS yn
Ġj ury
ĠC ars
Ġam pl
ĠE ight
oy a
ĠSh ar
Ġfit ted
ĠBr ings
Ġdefect ed
Ġlad der
Ġtweez e
ĠHold en
Ġt amed
Ġm ant
th ose
omet own
Ġed its
ĠCl ive
Ġrespect able
ĠHell o
ĠRECEIVE D
w ere
Ġm eticulous
Ġup loaded
ĠAm ong
Ġext r
aut h
Ġstra ined
Ġflat iron
Ġsqu ished
Ġrespond s
win ning
ĠVis ually
Ġtout ed
oprop yl
Ġsemb lance
ĠF ey
rit ty
Ġoil iness
cl ip
Ġbutter y
Ġquestion ed
ett a
Ġc Ã³
ĠL ime
Ġred one
Ġgener ously
y el
Ġst oned
ĠH i
Ġmay or
ĠWe ar
OU SE
Ġpract iced
ĠBUY ING
Sh ipped
uls ion
ĠSty le
ĠPa ula
ĠAbs orbs
Ġsampl er
Ġmoust ache
l bs
Ġbe etles
uct ive
ĠD une
ĠD ora
ĠC AP
Ġcon se
Ġres h
Ġunf l
Ġglo be
ĠNor thern
Ġmechan ics
Im agine
high ly
Ġpaqu ete
Ġin vers
ĠS uff
ĠC ox
Ġbit ch
ĠAl ert
Ġdra ined
iv ating
ĠGreat est
Ġdr one
gu ard
Ġremaster ing
Ġsarc asm
, ...
ion age
Ġwar ms
Ġide als
Ġcost ing
Ġvari eties
ĠMade a
Ġfog gy
ðŁĳį ðŁı¼
ĠMad ison
ĠZomb ies
Ġinvigor ating
Ġintersp ersed
c ant
h ar
Ġsec a
ual s
umb ing
erv ation
Ġment or
Ġgrad er
ĠPo pp
Ġbast ante
A h
H ell
Ġt iring
ĠJ azz
ĠK on
ĠCh erry
ĠAl icia
reme mber
Ġnuts hell
ĠBatt lestar
M D
t il
ĠB anks
ĠU m
Ġes pe
Ġexp ire
Ġlength ening
att i
ĠBE LIE
ĠMe aning
Ġmigra ines
Ġatom izer
. -
s cience
z os
Ġf athom
st orm
ĠH emp
ty p
ĠSh ining
Ġpowder ed
ĠPr ison
Ġbond s
Ġhyp not
w ives
un ks
ĠT CM
Ġcl usters
ĠR ating
Ġmiss ions
Ġbeginning s
Ġund es
ĠGel ish
Ġvo iced
Ġdelight fully
Ġpine apple
ĠSin atra
t ok
Ġre enact
ĠT ypically
Ġper ceived
Ġhand ic
Ġint u
ĠBr ow
Ġdepict ions
ĠMass acre
ĠGeor gia
Ġdistaste ful
T AIN
Ġt arn
Ġl uscious
br oke
Ġse eds
ĠW OM
ci ble
Ġwin ners
Ġexist ential
Ġjer ky
Ġimpat ient
Ġcl uster
Ġinc idents
Ġcr ashed
Ġtap ered
DO ES
Get ting
Ġoblig atory
U GH
Ġc ues
us ement
pe nded
ĠH ook
Ġsk im
ĠO sw
Ġexp ans
eth oven
Ġaf ro
Ġfasc ination
ĠPat ricia
Ġmedic ated
Ġelim inating
Ġjerk er
ĠB RI
Ġcl o
Ġlit ter
Ġ4 6
ĠDon nie
ĠBr anagh
Ġequ als
ĠClar ke
r ates
Ġc ual
us ional
ĠW ore
Ġgood ie
Ġcon vent
Ġline ar
ĠCl aud
Ġprem ature
Ġs is
ce nds
ĠF F
Ġfine ly
rop he
Tr ans
Ġ199 2
Gu ess
Ġgent ler
ed a
ad ine
ore st
Ġdis par
Ġover blown
ĠV iolet
ĠU h
Ġnew bie
aut hor
ĠSt ra
ĠAn imal
ĠBr ody
ĠEvery time
Ġner dy
Ġg rime
Ġst al
ĠD H
Ġman aging
Ġcomple tion
Ġstr ung
Ġblond es
Ġrev ive
Ġcompassion ate
ĠSECON D
a ay
ir teen
ĠS AD
Ġch orus
ĠT iny
Ġclean up
ount ain
ĠJust ified
Ġann ual
ĠMo ving
Ġmedi ocrity
Ġevent ual
ĠEX CEPT
ĠOli vier
ĠKat ie
Ġmerch ant
Ġimmort al
Ġrel ates
Ġspec ulation
Ġdev olver
Ġprompt ed
Ġexam ine
ĠEps om
h usband
t urned
Th rough
ĠS om
Ġbl as
Ġ4 3
Ġinv al
ĠLe ather
GE T
ano ia
Ġbuzz ing
Ġversat ility
Ġdetract s
ĠOd yssey
l man
Ġto ll
Ġst ake
ĠC erave
ĠN air
ĠT URN
ÃŃ as
Ġpand ering
Ġnomin ations
F ire
Ġlo oser
am ot
ĠP ee
Ġmen ace
oot ing
Ġunins piring
Ġunsatisf actory
Ġpsychiat rist
C li
Ġt ames
if th
ĠC rap
Ġco c
Ġnew born
xt ap
Ġfra ming
Ġpay ment
Ġmis led
Ġglow y
Ġinvestig ator
Ġtrend y
ĠVoy ager
Origin ally
Ġsh aken
Ġup stairs
Ġpro hib
Ġte asing
ro ved
ph ones
Ġclipp ings
Ġ198 7
Ġdiv ide
Gl ue
hib li
Ġsurpass ed
ucer in
c ode
Ġ {
Ġd well
ĠLe v
Ġjo ining
udd le
Ġmisrepres ented
Ġflatten ed
Ġsud sy
ĠCHR IST
A ir
Ġun le
pr ice
ĠFr ances
ST AND
Ġblow dryer
Ġbal ding
Che ck
Ġcri m
ĠChan ning
ĠCong ress
Ġvert ical
ĠHack man
Ġabst ract
e h
p ost
Ġan al
ush i
Ġher mos
Ġcast ed
Ġloss es
mar ks
Ġ198 3
Ġfright ened
ĠDal ton
Ġasth ma
4 00
Ġn aught
ĠC ash
Ġthere of
Ġho bb
ĠIn vest
era pe
ric ane
Some what
Ġling ered
Ġdemonstr ation
omegran ate
Ġl uc
Ġj aded
Ġhe ater
Ġpl oy
vis ible
Ġwire less
Ġutil ized
make up
ĠIng redients
Dep ressing
? &
H arry
i ara
Ķ ¥
Ġc ube
an itary
reat h
Ġpre face
ĠR at
Ġsp orad
Ġtw een
Ġpol icies
Ġ6 6
Ġneut rogena
ĠYE AR
ĠAbr aham
c ence
ĠI de
Ġun iversity
ro foam
Ġattach ing
Ġult a
ĠBat eman
ĠTra iler
ĠCast or
erspir ants
ĠSu z
Ġirre ver
Ġbru ises
Bon us
, (
K n
ĠA y
Ġj ab
ĠH ours
Ġrec ap
sy mpath
Ġbubb ly
ĠBow ie
Ġsevent ies
Ġ/>[ ...]
f ar
Ġex empl
ĠC ot
ĠN ina
Ġcan e
ĠT ud
Ġper mission
Ġet ched
IR D
ðŁĻ Ħ
A verage
Ġh ometown
Ġal t
ĠF ix
Ġcomp ound
Ġbo iling
ĠY ard
ĠSh ot
RO SS
Cra zy
Ġdiscern ible
it em
at ivity
Ġin herent
ĠW id
og yn
ðŁ ¥
Ġslipp ers
direct ed
Ġinexplic able
J OR
s ort
Ġw ack
ĠP ond
ason able
Ġdark ened
Ġexpl oding
ĠAn a
ĠChe ers
ĠDad dy
Ġmush y
appoint ment
Ġsoft est
ract ical
Ġremind ing
Ġamb ition
Ġnut rit
ĠMUS IC
is ive
ĠP ig
St inks
ear th
oil ed
Ġdoub les
ĠEnjoy able
Ġjoint s
Ġstyl ized
Ġsatir ical
ĠS ig
Ġsc ram
ĠF OUR
Ġtrue ly
Ġghost ly
ĠLo ving
Ġthro ats
Ġpronoun ce
ĠCow boy
Ġa irl
Ġh ike
Ġre production
Ġkn ives
Ġret ains
Ġcou rageous
Ġvide ot
Ġfill ers
ĠRob b
ĠST ART
ĠNice ly
Ġ197 2
TS D
Ġb achel
Ġsh ifting
ĠN ation
Ġfe ver
ĠL t
ĠJ illian
to ok
Ġem bedded
ift ies
Ġdig ress
Ġid ol
Ġtough er
Ġmedic ations
Worth less
Ġunfold ing
ĠFro st
educ ated
or g
Ġe ve
ĠW aited
ĠC reme
Ġde ploy
ĠT NG
ind ucing
Ġvar ies
Nice ly
Ġinstall ments
Ġlaw yers
âĢĶ âĢĶ
Most ly
ĠEN OUGH
Ġcrisp y
Ġarr anged
ĠEp ic
IOUS LY
Ġpoof y
Ġdeme anor
Ġastronaut s
Ġvign ettes
ĠVenez uela
Ġb unny
Ġpe anut
Ġtransfer ring
Ġrev ived
ĠMill ion
Ġconvey ed
ĠGovern ment
Ġgosp el
u ire
Ġa ce
Ġr ushing
ĠL ie
ĠSt ories
Ġrem orse
Ġreact ing
ĠBra in
ĠBar on
Ġwaist ed
ĠPil ot
Ġwhims ical
K EN
is an
ĠD B
Ġbr ides
os awa
ĠV I
Ġcont ra
Ġexp ires
zz y
ĠNe arly
ĠðŁĺ ī
Ġvibr ating
ĠAdd ing
Ġfund s
Ġje ans
Ġpreval ent
s ound
Ġo min
Ġor ang
ĠD ustin
Ġun rel
ĠO ster
Ex celent
Ġpass age
Ġregard ed
Ġsecret ary
ĠWorld s
ĠColl ector
Tod ay
Ġcul min
Ġgamb ling
Ġpedest rian
indul gent
am y
Ġam p
ĠR ise
Ġsol ves
Sh arp
Ġpers piration
Ġpor ch
ribut ed
Ġnic est
Ġobsc ene
rim mer
Ġundere ye
Ġdystop ian
beaut y
F inal
M ax
Ġ ?<
ur ist
ĠThe ory
Ġde er
ĠO UR
ĠAn imation
Ġuncom fortably
ĠPRO BLE
Ġvibr ates
ĠComm ander
ĠSav age
Int ense
Ġsquish y
Ġst ations
ĠJ J
Ġsacrif iced
Ġplag ued
P ORT
r one
Ġsh ipper
Ġso cket
ĠA me
ĠN TS
ans on
Ġcur sed
Ġir ides
Ġmet aph
ĠMar vin
Ġaccept s
Ġbusiness es
Ġtim ed
Ġblot ches
ocr atic
: :
s afe
Ġs nd
ore an
Ġimpr oper
ĠEl mer
De ep
Ġpat iently
ĠWat ers
Rec ently
Val ue
ĠCoun ty
Ġfuer te
Ġt inge
Ġe Bay
ĠL ar
Ġstart ling
Ġunder cover
Ġem bell
Ġline up
Ġrepl aces
Ġfoll icles
com fortable
ald i
ĠTra il
ĠAp es
Cons idering
Ġforew arned
C reat
at i
at um
ĠM urd
ĠAr ound
ĠApp lication
Ġju xtap
n ce
Ġnot eworthy
Ġest r
Ġobs erved
TER RIBLE
ĠWW I
Ġpin ched
Ġmold ed
Ġserv ants
Ġacclaim ed
ĠBrook lyn
S ty
Ġse ated
ĠH ugo
ĠR U
up date
Ġav ocado
Ġob jection
Ġsch iz
Ġprim era
Ġknowledge able
ĠPL OT
Ġbump ed
f old
ĠP ap
ang ular
ph ora
arl a
ĠGoth am
Ġcontamin ated
W ild
id y
Ġcl a
Ġbegin ing
Ġwet ness
ĠEx pect
lock s
Ġdispens ed
Ġoccur ring
Ġinterpret ations
ĠâĢ¦ .
Ġsung lasses
ĠREVIEW S
h orn
ĠL ug
Ġneg ot
200 1
kins on
Ġintellect ually
claim er
F resh
ill ette
ĠB rett
Ġsc um
ĠL aser
Ġfl ips
ĠCh em
Ġred es
Ġfrizz ies
con f
Ġstrength ening
Ġ!! <
Ġexte nds
ĠPat ton
Ġx mas
Ġtext ur
Ġinvers iÃ³n
erape ut
A c
M AS
Ġg ull
st eps
Ġde formed
ĠH alo
ink ing
ĠK illing
Ġ5 7
Ġsupp er
ĠSC EN
ĠRepublic an
Ġadmin istration
I ron
Ġm our
ct ed
ĠS a
ĠM uy
ĠH ung
ĠF AN
ĠU L
Ġhigh way
Ġrele vance
Ex citing
St raight
Ġbubb ling
ðŁĺŃ ðŁĺŃ
en ity
Ġd ominated
Ġl ump
ĠF lower
ĠJ agger
Ġwear er
ĠLe arn
ĠTw ist
Ġactiv ated
Ġ197 6
Ġsynd rome
v ision
Ġsurround ings
Ġstab bed
Ġreluct antly
! ).<
j er
ĠE gg
Ġover tones
ĠK au
Ġswe ep
ĠEx foli
ðŁĺ ©
ĠAnn oying
Ġthreat ens
âĺ ¹ï¸ı
ĠMorm on
ĠFAM ILY
C A
C RI
r ise
t otal
Ġd ut
ĠB ard
Ġsk impy
ĠK or
part icularly
Ġspl its
Ġaut ism
iox ide
Ġbarbers hop
Ġn as
Ġfor k
ad el
Ġle aps
Ġam usement
ĠR aid
Ġclass ified
Ġgra v
Ġconv ention
ĠPet ers
ĠIM M
Ġ198 8
Ġredeem able
Ġprequ els
Ġsubd ued
Ġm ater
Ġe au
ĠT ara
Ġcustom ize
Ġcollect s
Ġhost ile
Ġsubur ban
L ord
g om
Ġb ash
ĠB enedict
Ġsc ant
Ġfl ap
Ġmin ut
av ill
band s
mp re
ðŁĺ Ķ
Ġoper ations
Ġcolle agues
inds ay
ĠRom ance
ĠHO LD
Ġgau ge
READ Y
n amed
s r
Ġo st
Ġg lee
Th ings
ĠK ie
ny der
Ġfragr anced
Ġcat tle
Ġgray ish
ĠDel ivered
Ġunbe atable
Ġemer ge
every one
n ets
ra ints
ĠG orgeous
... ?
ĠJ oss
Ġinst it
Ġart ÃŃcul
Ġprof its
ĠLe af
ĠDial ogue
ĠClass ics
ĠPsych o
Ġs ack
Ġ5 6
sh arp
ĠChe aper
Ġhorm ones
D ID
c row
w ig
Ġm ast
ĠI gn
ĠB AT
Ġwork able
ive ting
ap on
ĠR ID
Ġass umes
Ġmyster iously
ÃŃ an
Ġrob otic
Ġinterp re
Ġpinch ing
Ġhall mark
Ġdissapoint ment
ĠTHR OUGH
s igh
ĠC rus
Ġel ves
Ġfar mers
Ġatt ribute
ĠBE ING
Ġpil ates
Ġdiv ision
Ġ; -)
rend an
ĠðŁĴ ķ
Ġoxy gen
Ġtherm al
Ġetern ity
B D
B TW
R oll
le aves
ĠP ale
ĠL CD
uff led
ĠSome what
Ġeng agement
Ġeight ies
ĠDet roit
ĠConn or
ĠFro zen
Ġathlet ic
ĠBRA ND
ĠIMA X
Ġinfur iating
ĠSoci ety
re place
em in
ĠY a
Ġac celer
oss al
Ġ19 75
oc alyptic
oph ren
Ġpublic ity
Ġprete nds
ĠHill ary
ĠWed nesday
S un
b ber
re ne
se a
Ġor deal
Ġover sized
Ġper il
ĠDe bbie
OU D
Ġass orted
ĠPr os
Ġadv ances
reg ion
osoph y
Ġinse cure
yll en
Ġdiagn osed
Ġzipp ered
> >
p arent
Ġd uct
ĠP ress
Ġform ulated
Ġver ge
Ġven ue
ĠNol te
m om
u ish
Ġt aupe
Ġp H
ĠP TSD
Ġra ves
ber l
Ġcar amel
Ġscript ure
you ng
Ġesc al
Ġtarget s
BE WARE
b its
Ġlo oses
ĠC OR
Ġti ger
Ġoff set
Ġcl ut
Ġstr ang
AL K
rav ity
ĠGen erally
n ope
y ellow
Ġas piring
ĠC otton
Ġcon qu
ves ter
Ġsec o
Ġswe lled
Ġant es
Ġrot ting
Ġund o
Ġhint ed
Ġharm less
Ġunc ons
Rob in
Ġrewatch ing
Ġconclud ed
ĠGos ling
M c
Ġha ph
ĠG h
Ġbl oom
Ġi Phone
au i
li able
Ġdevelop ments
Ġbuff ers
Ġcommon ly
Ġrestri ctions
D ue
D ES
G uy
b orough
ri ers
ĠF urious
Ġ19 63
First ly
ĠPh en
ĠBad ger
Ġchapstick s
Ġclown s
Moistur izing
G el
H a
is and
Ġse phora
Ġor anges
Ġbot ched
Ġstill s
ĠCle aning
ĠEr nest
Ġosc ar
J ennifer
j ah
r ather
Ġre per
al beit
ĠB ass
Ġinst itution
ĠRep lacement
Ġcompr ado
l og
Ġan s
ĠS le
ĠB ir
ĠM ut
ĠL ips
Ġlong ing
Ġtw ilight
Ġdirect s
Ġpolish ing
aw less
ĠBo at
Over priced
ĠHAPP EN
s cript
ke pt
ĠTh oroughly
Ġ/> .<
Ġle nds
Ġbec u
Ġcolor ized
Ġser vant
Ġsub mitted
Ġrep urchased
ĠUS S
Will iam
ĠTw in
ĠGar field
b um
b ottle
at omy
Ġout comes
Ġinto xic
Ġpass engers
ĠX L
Ġactiv ate
Ġsett ling
Ġdent al
Ġreform ulated
Ġs ane
Ġin finitely
Ġli b
ĠW CW
ĠP ie
Ġag ua
ide os
Ġrot o
Ġcloud s
ĠW idescreen
Ġhe mp
be ard
elt ic
Ġbra ke
Ġmaster fully
ĠWI G
Ġsubst it
ĠVan essa
ĠPle asant
an as
om as
ith ium
Ġdo o
Ġfil ters
ict ive
rill s
ĠCur rently
ĠBur ts
ĠWANT ED
ĠSupp orting
Ġadher ed
ĠSoph ie
Ġgor illa
Ġobsess ive
Ġovershadow ed
Ġhaph az
p aid
Ġto pped
ark y
ĠBe ethoven
Ġpos ing
ĠFl air
ĠReg ret
Ġast ring
Ġliber als
ĠJeff erson
Ġexpert ly
Ġchuck les
Ġster ile
Ġto ken
ĠR eno
ĠJ a
Ġra m
Ġtra ps
Ġiron ed
ĠPl atinum
ĠBrit t
ĠGrand daughter
Ġcompr Ã©
ĠPir ates
it als
Ġch inese
Ġme llow
ĠE ug
ab et
ph en
Ġgra cias
ĠAr cher
Ġbrill o
ĠMal colm
Grand daughter
Ġgreas iness
Ġtod os
Ġpixel ated
Ġrepell ent
F YI
Ġsu prised
Ġpl ush
Ġup wards
ĠF ACT
Ġper verted
ub bed
li ved
ĠCh and
Ġsur geon
Ġdr ums
Ġmach o
Ġdetail ing
IG N
Ġcook ies
Ġdistingu ish
m otion
ĠS aul
ĠE bert
Ġ19 67
Ġoper ator
He ats
Ġwild life
Ġ!!! <
ĠLOOK ING
ĠBenn ett
is o
pe at
Ġeven ings
Ġbrand ed
Ġrep aired
ĠAn iston
Ġdr ummer
Ġfriends hips
Ġcommun ities
Ġcelebr ated
ĠWat ts
S ize
Ġp m
Ġor al
ĠM ang
ĠT aken
ĠDVD S
Ġsn iper
ĠSp ort
Ġair y
Ġcompan ions
ĠRon ald
ĠPal est
Ġmesmer ized
Ġconve ys
I AN
J oe
s uckle
Ġb ark
Ġp oker
ot in
Ġy arn
ĠD RA
Ġrepl ay
Ġcam b
ĠSO AP
BO DY
reed om
ĠACT ION
Ġdepend ent
ĠOrigin ally
Ġcann ibal
Ġinadvert ently
ĠCOLL ECT
gom ery
; ),
B AD
d ue
z ers
ĠA P
Ġun not
ĠO EM
ĠJ ill
Ġless en
Ġgun ky
Bl ood
Sp oilers
Sm art
Ġdesp uÃ©s
ĠRod ney
Ġprofound ly
Ġdos ent
ĠORDER ED
ĠBrid get
Ġconfron ted
* .
? ...
S w
c m
man ia
ex pl
Ġtight ness
Ġpred icted
Ġpar anoia
Ġneck lace
ĠHar ley
m oney
Ġre ass
ĠM ack
ĠC alled
Al ready
Ġdie hard
Ġantic lim
Ġ198 6
Ġwing ed
Ġathlet es
Ġrefriger ator
b ul
Ġre e
Ġwith dra
ra iser
ĠR ib
Ġback yard
Ġke t
Ġbit ters
Ġdisc ard
ĠDo om
tit ude
tra cks
Ġjer ks
Ġw er
ĠD rey
ĠC ate
Ġinter play
Ġempt ied
reg or
ĠGhost busters
Ġofficial s
Ġtor ment
Ġunfor g
ĠEL F
ĠCommun ist
Ġlifes aver
Ġathe ist
ĠMONTH S
Ġp uck
Ġproduct ive
ag raph
un ct
ob viously
ĠK ai
Ġcomple ting
fortun e
Ġfantastic ally
ĠGl over
Ġdev ol
Ġ198 1
Ġimplic ations
ĠFoll owing
Acc ording
M ediocre
c ott
ĠB omb
ĠP arents
Ġres erved
Ġdi ving
Ġpor celain
pack aged
ĠSky walker
Ġfraud ulent
O SE
f antastic
ĠM IGHT
ĠC ob
ĠO uch
ĠRe x
Ġele ven
Ġrob ust
ĠPri mer
Ġbush y
Ġbecu ase
V ICE
in f
Ġp alp
uct ions
ĠB ing
ĠD ig
pr op
arch ing
go ers
Ġquant ities
ĠSy stem
pol ish
U U
os al
ĠP ra
ĠR ENT
Ġover kill
ud u
Ġdel usional
ĠAL READY
ðŁ¤ ·
John ny
ĠSqu are
CI ALLY
ĠStu art
Ġcondes cending
sympath etic
g ated
v ill
Ġs not
Ġe ld
st ories
ĠP orter
ight ly
Ġgl uten
ĠPer lman
ĠCons ider
ĠEN GL
ĠMid night
ĠEL SE
Ġatroc ities
Ġunsuccess ful
ĠLug osi
S eries
Ġt aut
Ġmo ister
Ġhor n
Ġred iculous
ĠDis k
Ġmis ogyn
oof y
Ġpsych ed
Ġcri pp
ĠWW F
Del ivery
Vol ume
S D
t ri
Ġsc ored
ĠE arly
Ġsp ikes
Ġput ty
Ġmas quer
Ġperson nel
Ġrest room
Ġbal ancing
Ġer aser
Ġreb uy
alt row
Ġpes ky
ĠKur osawa
ĠMIST AKE
f ix
Ġbe gs
ĠL ions
ĠV s
Ġeye balls
ier re
Ġmom my
Ġweird ness
ring e
Ġdev otion
Ġpor ous
Ġbull ies
Ġblot ting
Second ly
Ġarrog ance
Ġa un
Ġh ub
ag ne
Ġhard ens
Ġreg ional
ier on
Ġrid dled
ĠNe o
Ġmet e
Ġbom bed
ĠFrank ie
ĠIron ically
Ġsail ing
Ġdomin ant
Ġemoll ient
Ġunsus pecting
Ġg als
ĠW ise
Ġthr ust
ĠSt arts
Ġpres erved
ret urned
ĠSE VER
Ġwise ly
ĠSteph anie
Hand le
A nt
b umps
r ance
Ġc one
ll o
ĠS ie
Ġqu ib
Ġqu arters
Ġmar ble
In ter
ĠMc Cl
Ã© n
Ġprin ter
Ġshred ded
ĠCre mo
Ġsail or
Ġdehydr ator
P H
S ex
f inger
l ide
ĠS aga
ĠD akota
Ġr ation
ĠðŁ İ
Ġsand als
ĠCO VER
ĠSci ent
Ġinflu ences
Ġmut ant
ĠCinem atography
sen al
Ġlan olin
ĠR io
ĠDes ert
Ġrequire ment
Ġenthusi asts
Ġhen ch
B B
b eth
p ull
Ġp c
Ġp ud
us o
ĠH at
Ġun res
ĠF rizz
Ġsp aced
Ġ19 66
Ġimm oral
ĠGrand ma
ĠCost ello
Ġesp ionage
Ġpredict ably
Ġlaws uit
i otic
r ics
Ġc ass
Ġdec ay
ÃŃ simo
Ġrespect ively
Ġcave at
HH HH
p age
Ġp ena
Ġan ch
Ġv ault
ĠG ab
ĠK ling
Ġgre ys
Ġpred ator
Ġbarrel s
ĠFE W
Ġshowc ases
Ġ âĿ¤
Ġp oner
ĠS we
Ġde ck
ĠN ar
Ġif fy
ĠR oku
ĠSt icky
ĠSqu ad
Ġhazard ous
wr ought
) -
I mm
Ġt ans
ĠW ARNING
oo ke
Ġins pires
ĠCan non
ĠOr ton
ĠX box
Ġjaw line
Ġcapital ism
Ġpaus ing
ĠVers ace
ĠSix th
ĠJulian ne
w a
Ġst akes
ĠG yllen
ĠHe ather
???? ????
Ġadm its
Ġexperiment al
Ġros y
Ġdrown ed
c ape
g um
g oes
p ress
Ġb ureau
Ġan ecd
ĠN emo
and on
act iv
ĠV O
ning s
ipp i
oc ide
Ġswe ats
Ġdull ed
ĠNE XT
Ġcompet itor
Ġabr oad
ĠMir anda
idel ines
iox id
Ġtid y
Ġtrigg ered
d ain
at ical
Ġto pper
ĠM ik
ĠL AR
ĠY o
Ġsa c
aut ion
pow der
Ġgrad uate
Ġcivil ians
ĠBow l
ĠPain ful
Ġcla ustr
O cc
U V
g ray
ĠM ama
ĠH omer
au g
ĠSe en
ient o
Ġthrow back
Ġbi ological
Ġaim ing
D vd
E yel
Ġf odder
or o
ĠN OR
ĠT Y
Ġbl aming
Ġ6 4
ell en
Ġ7 6
Ġbrown s
ĠOr lando
ĠAL MOST
ĠPower ful
ĠIsrael i
Est a
Ġp engu
im on
ĠN ine
Ġag reement
ish a
ang s
ĠSe al
Ġrel ating
Ġbag gie
Ġspec ify
ĠPat ri
Ġweeke nds
at iv
lo ving
ĠFirst ly
char acters
Ġsuck ered
Ġbom bing
Ġposition ed
Ġqual ified
ĠBar ber
Ġbab e
Ġcounterpart s
Ġthe ft
an uts
qu ite
ĠL az
Ġcr ust
ÃŃ o
Ġmel anch
Ġrepresent ing
ĠVen ice
ĠRef und
Ġooz ing
ĠNapole on
c ow
t aste
ĠM MA
ak u
Ġthr one
Ġimag ining
ĠAng le
Ġspark ed
Ġder anged
Ġpurs uing
ĠNex xus
C ost
Ġt ugs
Ġto pless
ur ally
ter ly
Ġan ts
Ġun em
atter s
ĠList en
Ġbitters weet
F ort
Ġbe le
Ġch ores
ĠCh ucky
Ġimp ly
Ġwrit ings
sy n
ĠLO W
Ġru gged
Ġfacial s
Ġfog ged
girl s
SS IBLE
ĠPURCH ASED
Ġdisintegr ated
Ġpk g
H I
c ontin
t ons
ï ¿
Ġf ont
ĠS IN
ach ron
ĠCom mentary
ST ER
CR EDI
irrit ating
Mus ic
! ?!
i ott
ad owing
st ock
ĠM use
ĠG UY
Ġbra very
Ġcy cles
Ġrecy cle
ĠHydr ating
Ġeg reg
Ġp ulse
Ġl ice
Ġe bay
ĠG osp
ĠR ice
Ġ5 8
Ġcome back
ĠAp ocalypse
Reg ion
ĠMuslim s
Ġench anting
Ġne arest
ĠF irm
Ġad ren
Ġgl uing
ĠIs aac
ĠST INKS
ĠCond ition
ĠReview s
ĠEPISO DE
ĠHust on
M att
W TF
al on
Ġr anges
ĠE ar
Ġbl ing
ĠK ir
Ġ4 1
ĠDe gree
ĠQu iet
ĠUlt raviolet
ĠBaby liss
Bu eno
Ġbothers ome
ĠWend y
Ġth ieves
Ġto mb
Ġex h
Ġfri g
Ġdraw ings
Ġequ ality
ode on
Ġlegit imately
ĠDisc s
Ġcoun ters
ĠBene fit
al i
ĠP AIN
ĠL og
form er
ĠWill ie
âĻ ¡
ĠTE LL
Ġupd ates
ĠUNT IL
ĠA ce
art ment
Ġsub mer
St and
thy l
Ġbell s
ENS IVE
ĠKent ucky
Ġobli vious
Ġretr ieve
B ORING
C oll
in ently
an ke
Ġhe ap
ĠP altrow
ens ored
Ġimag inary
iod e
Ġconv icted
Super man
ERS ON
Ġgoog led
c ule
ĠS nyder
Ġch ess
ĠR Q
ac us
Ġsens ibilities
Ġirrit ations
ĠSp ot
Ġsick ness
ĠNor ris
Ġmock ing
ĠVill age
B rien
Ġc ale
Ġp ulp
Ġli mb
Ġv oted
ĠG ONE
Ġper v
ne g
Ġspe lling
ell ed
Ġobs erve
Ġfund ed
het to
Ġorgin al
ans ki
ĠCh ange
oc used
Ġgra mm
Ġcustom s
Ġconv iction
bl ah
Ġmyth s
ĠMont gomery
Ġregrow th
ĠSyd ney
' )
L augh
Ġn ast
ic on
Ġwh omever
ce ive
Ġwe aves
ĠH ost
ĠF ALL
ab elle
ĠU gly
Ġsw ift
ĠST O
Ġsolid ly
Ġroutine ly
ESS ED
ĠTw ice
organ ized
ĠLanc aster
Ġo tra
Ġg f
Ġha h
qu oise
Ġv alley
Ġen rich
ðŁĺ ŀ
ov sky
Ġagg ress
Ġhopeless ly
C ES
R ented
Ġsp awn
res ist
00 4
Ġwon ky
ĠPr oof
Al right
Ġpat ron
Ġrev ital
cip her
Ġrend ers
Ġunfold ed
Ġrevel ations
Ġappli ance
ignific ant
C over
c apt
ĠI psy
or ically
ĠT ip
ĠL ives
iff any
Ġho ax
Ġgr in
ĠSp ent
Ġpath s
Up dated
ĠPack aged
ĠBaby lon
ĠTit ans
ĠStand ard
Ġassess ment
v ices
Ġh itch
ĠI P
Ġce iling
ĠHO PE
Ġramp ant
ext ra
Ġblo ated
ĠIndepend ence
e ach
h ands
Ġth under
re commend
th ird
ok o
Ġqu ot
Ġrec alled
Ġthere after
Ġbelie vers
Ġpos ters
You ng
ĠNew ton
Ġcal ms
Ad vertised
PE CIALLY
~~ ~~
Ġimmig rants
C al
T ON
r ust
Ġb ind
ĠO wn
Ġwhite heads
ax ter
Ġbra iner
Ġteach ings
ĠThr owing
ĠBern ard
C ream
Ġc roc
ĠD wayne
Ġal arming
Ġacc ol
Ġgra ms
Ġmot el
Ġtransition ing
ĠCover girl
Ġelev ated
Ġconduct or
O H
h aving
m n
at ery
Ġst umbles
ĠB ol
ok i
ĠP ulls
ĠR ol
ĠV i
Ġshine y
Ġer rand
ĠSuch et
Ġden ial
Ġtemp les
ĠCit rus
Ġarom atherapy
ĠOsw ald
B oo
G entle
P rime
R azor
it erate
Ġj unky
VE L
ins ert
Ġvoice over
bo ards
GH TER
ĠDI RECT
ĠCou ple
ĠNTS C
p ain
s pl
Ġd orm
as ier
le ted
ra c
ĠP unk
ĠK ell
play ing
ĠGl oss
OM B
Ġdownlo ading
ĠHar per
Ġhon orable
Ġmiraculous ly
ĠChron icles
P ossibly
th ora
ĠM ini
ĠT oby
ĠP oll
ĠL ux
ĠF low
ĠF lex
Ġper plex
ĠOut side
Ġrein force
Ġs orrow
Ġb aked
Ġre inc
ĠS Y
um ed
ĠG hibli
Ġdown stairs
Ġsal ve
Product s
Ġsleep s
Ġaff il
Ġelect ed
Ġtrip od
Ġmeet ings
ĠSur prised
Ġlaunch ed
Ġbaff ling
l ord
Ġm aturity
ch anged
Ġti er
ĠT M
ĠP am
ĠF ury
ish ly
Ġrepl en
Ġviol in
Ġaf icion
Ġfav s
Ġfreak y
C uts
d oll
ĠB unch
ac o
aw ork
ĠDe al
Ġwand ers
Ġach ieving
Ġboyfriend s
Ġillustr ate
Ġsav age
ĠNic kel
ĠCli pper
Ġblas ph
er r
ill es
ag g
ĠR ap
form s
Ġdeal ers
ĠSome body
Ġath lete
Int riguing
ĠTam bor
ï¼ ģ
ĠMAK ES
Ġempath ize
f ic
Ġc oded
ĠH aha
ĠG enesis
ĠOR ANGE
Ġdefe nding
Ġearn s
Ġ199 1
Ġexha usting
Ang el
? ,
G ER
w renching
in am
ĠB ark
ĠB abe
Ġcan non
ĠL ect
ĠG a
Ġman ners
Ġapp ar
Ġaren a
Ġdig est
Ġuns anitary
Ġdu el
ĠEll iott
Ġsubstant ially
Ġinsomn ia
Ġomin ous
P G
W AS
is i
Ġfa uc
Ġv ale
Ġun isex
ĠV ul
Ġple thora
Ġ19 64
Ġimm ersed
sh aped
ĠFOR M
ĠExt reme
Ġexam ined
struct ions
ĠLan tern
B ring
G AN
ri ad
Ġsp lic
Ġfl aming
Ġwa aaay
Ġshort est
Ġnarr ating
Ġfrequ ency
Ġschiz ophren
ĠR az
Ġper cept
Ġinter fer
Ġz any
ote ch
Ġspl inter
ĠAd ult
omp a
Any thing
Ġbank rupt
E nd
L arge
j os
Ġha pless
ĠC ad
Ġover coming
app arently
ER ALLY
Ġcrit ically
Ġdoubt ful
Ġap ology
Ġmeas uring
ĠConst ant
Vis ually
" -
Ġf resher
il ized
ĠM aj
ĠT omb
aus es
Ġmas ked
ĠBl ah
Ġrep ublic
Ġvi ene
Ġstr ateg
Ġdream ed
ĠMon ica
ĠHaw k
D ear
l otion
m ony
s or
Ġg y
ĠS em
im us
Ġsm ugg
Ġavail ability
Ġprior ity
ĠHD TV
Ġjud ged
ĠJud i
Ġdump ing
ĠRu ined
rigue z
ĠPopp ins
Ġo uch
ĠD ame
ĠV ice
ary l
IR ED
De fective
Ġstat ue
Ġedit ors
ĠBor is
ĠTher apy
s u
Ġn ue
ĠB ach
ĠD rive
per manent
AT ES
AT IVE
ĠUn usable
vent ful
Ġscrub bers
istur bing
Ġporn o
Ġhun ger
Ġsen iors
Ġmort ar
Ġalleged ly
hope fully
ergart en
Ġirides cent
Ġestr anged
? !!
c ount
Ġb ail
Ġde mented
ons ense
ĠAr dell
Ġheart beat
Ġhol o
Ġapr icot
V C
Ġt ines
Ġs inc
Ġg arb
us k
ĠM EN
Ġsp ur
Ġmin ister
Ġref resher
Ġcreat ions
Ġbeh alf
Ġball oon
Ġcold er
ĠAc cess
ĠMont ana
ĠFried a
ĠNAIL S
Ir rit
Ġagon izing
( ?)
ow l
ĠS IZE
Ġwor m
Ġsa cred
ĠTV s
Ġnegative ly
ĠBy e
Ġhun ted
ĠChurch ill
Ġsav ior
ĠestÃ¡ n
Ġha cked
ic io
ch anging
ĠTh ai
Ġex ited
ĠH enson
ĠP assion
ĠG RE
Ġpre st
Ġpre jud
Ġover use
Ġra pt
ber ries
Ġter ry
Ġinv ite
ĠBr ought
Ġfog ging
ðŁ¤ £
ĠClair ol
D oo
L ousy
S i
c amp
p redictable
Ġm afia
all e
Ġan chor
ĠC W
ap ocalyptic
ĠCl oud
Ġsch em
Ġparent al
Ġavo ids
Imp ossible
icke ll
Ġinterchange able
D en
Ġc av
ri ages
th al
Ġch ord
ast ical
Ġv ino
Ġser ie
Great est
Ġint ens
val on
ha ired
ĠSw an
ĠCarol ina
ĠMA JOR
ĠEM PT
ĠFRI END
is el
is ure
Ġp uke
Ġst ank
Ġhard ships
Ġra id
Ġgentle men
ĠGl ob
ĠGu est
Ġexplo its
Ġgly col
Ġaesth etically
p y
in ches
Ġsh akes
qu a
ĠC rest
ĠG und
Ġtr ump
Ġeas tern
ĠHe alth
Ġint ensive
Ġbar bar
Ġcam c
Ġ$$ .
Ġshell ac
Ġshred s
Ġcollaps es
Mis leading
Ġh ust
ĠB ub
ĠC AST
Ġv apor
ig en
ĠR aim
ĠE ucerin
Ġ2 20
Ġback ward
Ġcur ves
ĠGood will
ĠOr son
Ġstruct ured
Ġpros pect
Ġstir ring
Ġobt ained
ï¿ ½
M ild
M aster
P res
Ġg ains
ĠW EN
Ġr ud
Ġup ward
ĠP ony
Ġqu int
au x
Ġph oned
ĠAd vanced
Ġvibr ate
ha al
Ġcross es
Ġrecyc ling
ĠAst aire
ĠEY ES
uten ant
Ġcouns el
2 50
W ait
Ġs aint
ĠThe m
ĠT ower
ĠF og
ĠE g
Ġsp ike
ph ia
ger ald
iple y
Ġbend able
ĠStre ngth
Ġinflu ential
Ġletter box
Ġgangster s
Ġinexper ienced
ing le
Ġd usting
Ġal ignment
ĠF OUND
ĠR V
Ġlast ly
Ġdel ve
ins ale
ins ky
Ġmar ch
Ġmod es
Ġpolit ician
ĠCr os
Ġmush room
Ġdecep cion
Ġs atellite
Ġv ial
mo il
Ġapp les
Ġid io
Ġap es
Ġlic orice
ĠMil itary
Ġfairy tale
Ġusar lo
Ġinvent ory
Ġastring ent
G ross
V an
g ave
Ġse man
ĠW ong
ine e
Ġar senal
ip ed
Ġret reat
Ġsur render
Ġref using
Ġir r
VE S
ĠBuy ers
Ġconsum ption
ĠStre isand
Ġspa ghetti
ĠEll is
ĠMyster ies
Ġproced ural
Ġhast a
Dan iel
E W
H ara
K ee
Ġbe an
Ġst ren
ĠB ones
Ġk inks
Ġun lucky
ĠR ath
ob ics
Ġvers a
Ġcr inging
In c
Ġsusp icion
ĠTra vis
Ġgrad ers
pro cess
F riend
e arly
Ġw impy
Ġsc otch
ĠG row
Ġatt ributes
Ġexc er
raph ics
Ġembarrass ingly
Ġgod dess
ĠEv an
Ġadm iration
Ġcontribut ions
ĠSING LE
Ġbrit ish
? .
P D
c ling
ra cial
ol ics
Ġr het
ĠP ract
ĠL av
Ġdisc red
Ġsusp ic
Ġtub s
Ġbon ito
Ġcinemat ographer
ĠPar fum
Ġconsum ed
ĠColl ege
EE EE
ĠBro ck
Ġquir k
think ing
ĠEy re
Ġarchite cture
Ġ icy
ĠL IST
Ġinc arnation
ĠDe e
ĠLe aving
Ġsocial ist
Ġrive ted
Ġdazz ling
ĠCLO SE
ATUR AL
G reen
a verage
Ġb ench
Ġcl an
ens er
ĠY uk
Ġrest oring
Ġdr ank
ĠMar ion
Ġsqu ares
ĠIN CREDI
ĠSA ID
ĠUnder taker
Ġende avor
Ġsalv ation
ĠOly phant
Ġexped ition
ĠENGL ISH
N ESS
Ġh unk
Ġan achron
ĠD D
ĠM oss
ĠP athetic
Ġbo asts
Ġrem n
Ġri vals
Ġcraft ing
ĠAdd s
Bl ah
Ġunw illing
Ġfulf illing
Ġgimm icky
Ġevapor ated
Ġcarn age
A lex
Ġcan ister
em b
Ġcon quer
ud ging
Ġprop he
ĠAn cient
ĠST RA
Ġsilic ones
ĠMiss ed
Ġarch ety
ĠCor por
Ġhyster ically
======== ========
Ġeps om
j erk
Th us
ĠC ANT
rit ical
ĠY ET
ĠK IDS
Ġbig ot
Ġmist ress
Ġsight s
Ġcamer awork
ocr ats
Ġexceed ingly
Ġoutrage ously
G B
T ip
Y ING
Ġt ener
ĠW i
ĠH SI
we ak
Ġread just
Ġcons iders
ows ki
Ġve ins
Sc ary
Ġfreak s
ĠWes ley
Ġsustain able
ĠRic ci
U ntil
Ġt ags
Ġu ber
ĠB it
Ġne mes
ĠH ollow
ĠWe ek
ĠDo ing
Ġmat rix
af a
ĠHaw ke
Ġdecl ined
Ġexecut ives
ĠHale y
Ġallev iate
ĠCRA ZY
b ill
t alk
Ġ Ã
Ġt ucked
en cia
ĠW ashes
Ġex ceeds
ĠG onna
Ġdri vers
Ġpar ks
Ġrisk ing
does nt
Ġillustr ated
Ġdivers ion
List en
Ġpomp ous
' <
G rant
b us
ĠP IE
he at
ien na
ien nes
ĠðŁ¤ £
Ġclamp s
Ġperfum y
ĠLeg acy
chem ical
Ġatroc ity
Ġvigor ously
c it
ĠM ads
Ġrest s
Ġmult itude
For get
ĠPh oto
ĠFl imsy
Ġthreat s
ĠExt ras
Ġ âľ
Ġn iche
Ġbe ans
ol ks
ĠL enn
Ġun sympathetic
Ġopen ings
Ġdi ale
ĠHam let
ĠMcC oy
ĠartÃŃcul o
f ed
h il
Ġ/> ****
uck ily
Ġ19 39
Ġinv ites
Ġbrain less
[...]
