{"<s>":0,"<pad>":1,"</s>":2,"<unk>":3,"<mask>":4,"!":5,"\"":6,"#":7,"$":8,"%":9,"&":10,"'":11,"(":12,")":13,"*":14,"+":15,",":16,"-":17,".":18,"/":19,"0":20,"1":21,"2":22,"3":23,"4":24,"5":25,"6":26,"7":27,"8":28,"9":29,":":30,";":31,"<":32,"=":33,">":34,"?":35,"@":36,"A":37,"B":38,"C":39,"D":40,"E":41,"F":42,"G":43,"H":44,"I":45,"J":46,"K":47,"L":48,"M":49,"N":50,"O":51,"P":52,"Q":53,"R":54,"S":55,"T":56,"U":57,"V":58,"W":59,"X":60,"Y":61,"Z":62,"[":63,"\\":64,"]":65,"^":66,"_":67,"`":68,"a":69,"b":70,"c":71,"d":72,"e":73,"f":74,"g":75,"h":76,"i":77,"j":78,"k":79,"l":80,"m":81,"n":82,"o":83,"p":84,"q":85,"r":86,"s":87,"t":88,"u":89,"v":90,"w":91,"x":92,"y":93,"z":94,"{":95,"|":96,"}":97,"~":98,"¡":99,"¢":100,"£":101,"¤":102,"¥":103,"¦":104,"§":105,"¨":106,"©":107,"ª":108,"«":109,"¬":110,"®":111,"¯":112,"°":113,"±":114,"²":115,"³":116,"´":117,"µ":118,"¶":119,"·":120,"¸":121,"¹":122,"º":123,"»":124,"¼":125,"½":126,"¾":127,"¿":128,"À":129,"Á":130,"Â":131,"Ã":132,"Ä":133,"Å":134,"Æ":135,"Ç":136,"È":137,"É":138,"Ê":139,"Ë":140,"Ì":141,"Í":142,"Î":143,"Ï":144,"Ð":145,"Ñ":146,"Ò":147,"Ó":148,"Ô":149,"Õ":150,"Ö":151,"×":152,"Ø":153,"Ù":154,"Ú":155,"Û":156,"Ü":157,"Ý":158,"Þ":159,"ß":160,"à":161,"á":162,"â":163,"ã":164,"ä":165,"å":166,"æ":167,"ç":168,"è":169,"é":170,"ê":171,"ë":172,"ì":173,"í":174,"î":175,"ï":176,"ð":177,"ñ":178,"ò":179,"ó":180,"ô":181,"õ":182,"ö":183,"÷":184,"ø":185,"ù":186,"ú":187,"û":188,"ü":189,"ý":190,"þ":191,"ÿ":192,"Ā":193,"ā":194,"Ă":195,"ă":196,"Ą":197,"ą":198,"Ć":199,"ć":200,"Ĉ":201,"ĉ":202,"Ċ":203,"ċ":204,"Č":205,"č":206,"Ď":207,"ď":208,"Đ":209,"đ":210,"Ē":211,"ē":212,"Ĕ":213,"ĕ":214,"Ė":215,"ė":216,"Ę":217,"ę":218,"Ě":219,"ě":220,"Ĝ":221,"ĝ":222,"Ğ":223,"ğ":224,"Ġ":225,"ġ":226,"Ģ":227,"ģ":228,"Ĥ":229,"ĥ":230,"Ħ":231,"ħ":232,"Ĩ":233,"ĩ":234,"Ī":235,"ī":236,"Ĭ":237,"ĭ":238,"Į":239,"į":240,"İ":241,"ı":242,"Ĳ":243,"ĳ":244,"Ĵ":245,"ĵ":246,"Ķ":247,"ķ":248,"ĸ":249,"Ĺ":250,"ĺ":251,"Ļ":252,"ļ":253,"Ľ":254,"ľ":255,"Ŀ":256,"ŀ":257,"Ł":258,"ł":259,"Ń":260,"Ġt":261,"Ġa":262,"Ġth":263,"in":264,"Ġs":265,"er":266,"Ġw":267,"Ġthe":268,"Ġo":269,"is":270,"it":271,"re":272,"Ġb":273,"nd":274,"Ġm":275,"Ġf":276,"Ġh":277,"ĠI":278,"at":279,"Ġc":280,"ing":281,"or":282,"ed":283,"ou":284,"es":285,"en":286,"Ġp":287,"Ġd":288,"as":289,"on":290,"ll":291,"Ġand":292,"Ġl":293,"Ġto":294,"Ġit":295,"Ġn":296,"ot":297,"Ġg":298,"an":299,"ar":300,"Ġof":301,"ve":302,"us":303,"ut":304,"Ġha":305,"le":306,"Ġe":307,"ct":308,"Ġis":309,"Ġin":310,"om":311,"ic":312,"Th":313,"Ġre":314,"Ġon":315,"ly":316,"Ġbe":317,"Ġthis":318,"ver":319,"od":320,"Ġwas":321,"al":322,"ow":323,"Ġfor":324,"Ġst":325,"Ġy":326,"ch":327,"gh":328,"ir":329,"ay":330,"ke":331,"id":332,"Ġmy":333,"me":334,"Ġmo":335,"Ġwh":336,"ent":337,"et":338,"Ġnot":339,"br":340,"ld":341,"ĠTh":342,"Ġ/":343,"Ġ/>":344,"Ġthat":345,"ie":346,"Ġpr":347,"ith":348,"Ġyou":349,"ion":350,"all":351,"ur":352,"ad":353,"Ġli":354,"Ġbut":355,"Ġwith":356,"ce":357,"Ġsh":358,"ter":359,"ri":360,"st":361,"th":362,"Ġus":363,"..":364,"Ġso":365,"'t":366,"il":367,"el":368,"Ġlo":369,"Ġhave":370,"Ġse":371,"vie":372,"pp":373,"Ġas":374,"Ġan":375,"ĠA":376,"ould":377,"âĢ":378,"ght":379,"Ġu":380,"ere":381,"ra":382,"ĠS":383,"ally":384,"'s":385,"ĠThe":386,"se":387,"Ġdo":388,"Ġgo":389,"very":390,"if":391,"uct":392,"ol":393,"ill":394,"ust":395,"âĢĻ":396,"Ġare":397,"ck":398,"Ġlike":399,"oduct":400,"Ġwor":401,"ĠIt":402,"reat":403,"Ġwe":404,"Ġproduct":405,"im":406,"Ġj":407,"Ġmovie":408,"Ġhair":409,"ble":410,"Ġch":411,"ĠB":412,"Ġall":413,"ĠW":414,"ul":415,"ok":416,"Ġor":417,".<":418,"Ġex":419,"Ġat":420,"Ġne":421,"ĠD":422,"ers":423,"Ġcom":424,"ĠM":425,"Ġone":426,"ain":427,"ast":428,"am":429,"pe":430,"Ġsu":431,"qu":432,"Ġme":433,"one":434,"ant":435,"Ġvery":436,"Ġr":437,"Ġout":438,"ag":439,"Ġthey":440,"Ġjust":441,"out":442,"est":443,"Ġfr":444,"Ġal":445,"ĠC":446,"ess":447,"ry":448,"ome":449,"Ġgood":450,"Ġget":451,"Ġde":452,"ĠH":453,"ist":454,"ice":455,"Ġhe":456,"ĠN":457,"Ġwould":458,"Ġ/><":459,"ak":460,"Ġdid":461,"ack":462,"Ġfe":463,"atch":464,"!!":465,"un":466,"Ġwork":467,"Ġsc":468,"Ġti":469,"Ġab":470,"ven":471,"Ġcan":472,"ive":473,"Ġk":474,"op":475,"Ġgreat":476,"ong":477,"ĠT":478,"Ġpl":479,"Ġuse":480,"em":481,"ies":482,"Ġhad":483,"Ġup":484,"Ġfrom":485,"Ġfa":486,"Ġdoes":487,"ough":488,"art":489,"um":490,"Ġ(":491,"ick":492,"Ġtime":493,"Ġact":494,"Ġcon":495,"Ġno":496,"ake":497,"ore":498,"Ġbr":499,"Ġlook":500,"Ġmore":501,"Ġany":502,"os":503,"Ġle":504,"ĠP":505,"oth":506,"ate":507,"ap":508,"Ġyour":509,"This":510,"Ġwatch":511,"fter":512,"Ġreally":513,"Ġdis":514,"ard":515,"ĠL":516,"ure":517,"The":518,"aus":519,"Ġhas":520,"ite":521,"Ġwill":522,"Ġqu":523,"Ġthem":524,"Ġam":525,"Ġshow":526,"ame":527,"Ġlove":528,"Ġabout":529,"Ġbec":530,"Ġv":531,"ig":532,"ĠG":533,"Ġbu":534,"tle":535,"Ġif":536,"Ġwhen":537,"ation":538,"Ġco":539,"and":540,"act":541,"Ġwhat":542,"Ġsome":543,"fe":544,"ved":545,"ause":546,"int":547,"ine":548,"Ġun":549,"ity":550,"Ġfil":551,"ought":552,"ind":553,"ĠF":554,"ight":555,"Ġag":556,"Ġthan":557,"Ġwell":558,"uch":559,"Ġfilm":560,"mell":561,"Ġoff":562,"Ġsk":563,"able":564,"urn":565,"Ġpre":566,"Ġdon":567,"ars":568,"Ġeven":569,"Ġonly":570,"te":571,"ĠO":572,"Ġen":573,"Ġ1":574,"Ġcl":575,"ĠR":576,"Ġafter":577,"ide":578,"...":579,"ound":580,"Ġoth":581,"ĠE":582,"Ġbecause":583,"ort":584,"Ġmuch":585,"ous":586,"ue":587,"ish":588,"ays":589,"ory":590,"ĠThis":591,"Ġskin":592,"Ġwere":593,"Ġsmell":594,"Ġover":595,"oint":596,"Ġwho":597,"pt":598,"ich":599,"Ġ2":600,"irst":601,"ade":602,"Ġtoo":603,"Ġused":604,"hing":605,"are":606,"Ġby":607,"iz":608,"Ġrec":609,"so":610,"Ġthese":611,"ink":612,"Ġbet":613,"Ġsp":614,"Ġcol":615,"Ġbeen":616,"ge":617,"Ġcomp":618,"Ġcould":619,"Ġhow":620,"Ġthere":621,"Ġother":622,"ail":623,"Ġpro":624,"Ġbuy":625,"ond":626,"ase":627,"Ġmake":628,"Ġman":629,"Ġper":630,"az":631,"app":632,"Ġ&":633,"Ġfeel":634,"view":635,"Ġsee":636,"Ġfirst":637,"Ġbl":638,"Ġad":639,"ĠJ":640,"age":641,"mo":642,"ment":643,"Ġapp":644,"per":645,"Ġchar":646,"ason":647,"34":648,"ves":649,"ave":650,"Ġdidn":651,"Ġcolor":652,"Ġlit":653,"Ġwant":654,"Ġlong":655,"Ġkn":656,"Ġevery":657,"oy":658,"Ġtw":659,"ire":660,"Ġar":661,"iff":662,"der":663,"Ġagain":664,"Ġpur":665,"Ġye":666,"Ġstory":667,"ep":668,"fect":669,"Ġ\"":670,"Ġser":671,"Ġhis":672,"to":673,"ens":674,"Ġbetter":675,"It":676,"ose":677,"Ġtri":678,"ful":679,"Ġ-":680,"Ġte":681,"own":682,"ft":683,"mend":684,"ci":685,"Ġdoesn":686,"ull":687,"Ġwhich":688,"Ġlittle":689,"Ġback":690,"ab":691,"ff":692,"ush":693,"ommend":694,"ting":695,"ving":696,"our":697,"oney":698,"Ġusing":699,"'m":700,"Ġher":701,"Ġdiff":702,"ud":703,"Ġend":704,"Ġway":705,"ip":706,"ily":707,"ery":708,"Ġrecommend":709,"Ġbad":710,"appoint":711,"ality":712,"Ġim":713,"Ġgot":714,"Ġdry":715,"ood":716,"ach":717,"Ġmoney":718,"Ġtr":719,"Ġmade":720,"ove":721,"ath":722,"Ġaw":723,"Ġlot":724,"Ġeas":725,"ty":726,"oo":727,"'ve":728,"Ġ3":729,"Ġpurch":730,"ile":731,"Ġcharact":732,"ĠV":733,"les":734,"akes":735,"Ġalso":736,"Ġthink":737,"Ġlast":738,"pect":739,"nt":740,"Ġpe":741,"Ġho":742,"Ġcle":743,"Ġneed":744,"Ġthr":745,"Ġdisappoint":746,"Ġtry":747,"Ġthing":748,"ne":749,"Ġbo":750,"ash":751,"Ġknow":752,"ult":753,"Ġtheir":754,"Ġthen":755,"res":756,"Ġreview":757,"igh":758,"ĠWh":759,"Ġits":760,"ks":761,"Ġbot":762,"other":763,"ence":764,"Ġey":765,"fore":766,"Ġi":767,"Ġfl":768,"rit":769,"Ġnever":770,"Ġcont":771,"ĠY":772,"Ġke":773,"Ġsa":774,"Ġstill":775,"ually":776,"ang":777,"Ġquality":778,"Ġinto":779,"Ġdiffer":780,"ater":781,"be":782,"ased":783,"Ġnow":784,"og":785,"pl":786,"Ġmin":787,"Ġnail":788,"Ġret":789,"ious":790,"ace":791,"ated":792,"Ġbrush":793,"thing":794,"ions":795,"omet":796,"ass":797,"ance":798,"Ġshe":799,"ute":800,"Ġnice":801,"Ġtwo":802,"Ġput":803,"Ġbought":804,"elf":805,"Ġseem":806,"Ġorder":807,"ict":808,"ĠAm":809,"gin":810,"Ġbefore":811,"amp":812,"Ġsm":813,"Ġgl":814,"Ġset":815,"Ġold":816,"ans":817,"Ġhapp":818,"Ġday":819,"Ġfun":820,"Ġpart":821,"ĠThey":822,"Ġprice":823,"ĠU":824,"Ġbest":825,"Ġface":826,"nder":827,"Ġmany":828,"ever":829,"ree":830,"ob":831,"Ġseries":832,"orm":833,"Ġdes":834,"right":835,"rible":836,"Ġsomet":837,"Ġhand":838,"ĠBut":839,"imes":840,"au":841,"Ġreturn":842,"Ġyears":843,"up":844,"ople":845,"Ġche":846,"Ġthrough":847,"Ġscent":848,"Ġmost":849,"Ġsame":850,"fin":851,"joy":852,"VD":853,"Great":854,"Ġshould":855,"Ġsay":856,"Ġseason":857,"Ġfew":858,"oll":859,"ition":860,"ical":861,"ĠMy":862,"Ġstart":863,"Ġpeople":864,"ors":865,"Ġfind":866,"Ġnew":867,"Ġever":868,"Ġhard":869,"Ġworth":870,"rand":871,"Ġpack":872,"ĠDVD":873,"Ġtried":874,"Ġreal":875,"Ġexpect":876,"vies":877,"ĠK":878,"ary":879,"ny":880,"ac":881,"Ġthought":882,"Ġsl":883,"tty":884,"Ġinter":885,"azon":886,"we":887,"ert":888,"Ġep":889,"Ġres":890,"Ġdisappointed":891,"Ġac":892,"vel":893,"&#":894,"Ġmovies":895,"ĠIf":896,"ĠNot":897,"Ġop":898,"Ġenjoy":899,"he":900,"isod":901,"red":902,"Ġhigh":903,"ray":904,"Ġcur":905,"Ġsomething":906,"Ġworks":907,"ark":908,"Ġgu":909,"ps":910,"Ġkeep":911,"Ġdown":912,"Ġdifferent":913,"Ġra":914,"Ġplay":915,"rong":916,"ro":917,"ese":918,"ĠAnd":919,"vers":920,"ub":921,"finite":922,"Ġgoing":923,"Ġlight":924,"ple":925,"Ġent":926,"ial":927,"aking":928,"Ġepisod":929,"Ġbit":930,"Ġunder":931,"finitely":932,"Ġeasy":933,"Ġwatching":934,"Ġsmall":935,"Ġcame":936,"Ġ&#":937,"Ġtimes":938,"Ġspe":939,"augh":940,"Ġenough":941,"Ġmon":942,"Ġpretty":943,"li":944,"ĠCh":945,"....":946,"Ġbeing":947,"oss":948,"Ġfound":949,"Ġwee":950,"Ġhel":951,"ince":952,"wh":953,"Ġgive":954,"Ġpo":955,"ĠSo":956,"Ġwaste":957,"xt":958,"Ġsure":959,"Ġmay":960,"ents":961,"Ġbottle":962,"Ġ5":963,"ress":964,"Ġinst":965,"ating":966,"Ġmakes":967,"Ġlooking":968,"ning":969,"Ġ4":970,"Ġwa":971,"Ġimp":972,"uff":973,"Ġright":974,"ild":975,"Ġscen":976,"wn":977,"Ġrece":978,"ise":979,"ĠAmazon":980,"!!!":981,"ect":982,"Ġcharacters":983,"Ġacting":984,"ize":985,"Ġnothing":986,"ER":987,"Ġinc":988,"Ġext":989,"ber":990,"Ġperfect":991,"ately":992,"Ġhold":993,"Ġdec":994,"Ġwhile":995,"Ġwithout":996,"ipp":997,"Ġsoft":998,"ream":999,"aut":1000,"iss":1001,"Ġcut":1002,"ways":1003,"Love":1004,"Ġgr":1005,"get":1006,"Ġproducts":1007,"Ġcomple":1008,"Ġsec":1009,"Ġanother":1010,"Ġfin":1011,"Ġhead":1012,"rigin":1013,"Ġread":1014,"Ġwhere":1015,"utes":1016,"OT":1017,"ĠSt":1018,"ces":1019,"ived":1020,"Ġcou":1021,"Ġbig":1022,").":1023,"Ġel":1024,"Ġactually":1025,"Ġsuper":1026,"ĠYou":1027,"Ġstick":1028,"Ġtra":1029,"Ġmonth":1030,"vor":1031,"Ġminutes":1032,"Ġturn":1033,"ual":1034,"azing":1035,"Ġfar":1036,"ĠIn":1037,"Ġhor":1038,"Ġreviews":1039,"Ġorigin":1040,"Ġopen":1041,"ĠThere":1042,"Ġclean":1043,"Ġhim":1044,"Ġthough":1045,"Ġthick":1046,"ather":1047,"Ġsince":1048,"ĠAl":1049,"less":1050,"her":1051,"astic":1052,"00":1053,"Ġadd":1054,"ten":1055,"ked":1056,"irect":1057,"Ġpol":1058,"Ġseen":1059,"Not":1060,"Ġdefinitely":1061,"ĠTH":1062,"atur":1063,"Ġplot":1064,"Ġatt":1065,"ng":1066,"Ġcheap":1067,"Ġmoist":1068,"Ġpurchase":1069,"Ġlooks":1070,"Ġabs":1071,"onder":1072,"Ġinterest":1073,"fort":1074,"Ġter":1075,"Ġgi":1076,"form":1077,"Ġalways":1078,"Ġanything":1079,"ĠWe":1080,"Ġbel":1081,"Ġaway":1082,"My":1083,"Ġaround":1084,"Ġlife":1085,"Ġdisc":1086,"Ġhelp":1087,"ertain":1088,"Ġtake":1089,"Ġnails":1090,"iend":1091,"Ġcome":1092,"Ġtop":1093,"read":1094,"Ġwanted":1095,"Ġoil":1096,"ðŁ":1097,"Ġsmells":1098,"ably":1099,"pr":1100,"Ġloved":1101,"icture":1102,"Ġcharacter":1103,"Ġcomplete":1104,"most":1105,"cell":1106,"Ġhour":1107,"cial":1108,"Ġwrit":1109,"Ġreceived":1110,"ead":1111,"Ġbrand":1112,"ible":1113,"Ġfavor":1114,"Ġdirect":1115,"ĠVery":1116,"Ġoriginal":1117,"Ġ.":1118,"Ġsupp":1119,"ign":1120,"Ġdone":1121,"Ġfine":1122,"ody":1123,"Ġstuff":1124,"Ġdays":1125,"IN":1126,"Ġown":1127,"ange":1128,"reen":1129,"bs":1130,"Ġfull":1131,"olute":1132,"Ġitem":1133,"Ġless":1134,"av":1135,"'re":1136,"Ġpow":1137,"Ġwon":1138,"Ġwhy":1139,"ock":1140,"Ġ$":1141,"ffect":1142,"Ġsha":1143,"self":1144,"Ġthose":1145,"Ġpicture":1146,"Very":1147,"Ġwasn":1148,"Ġwash":1149,"Ġapply":1150,"Ġcare":1151,"Ġcond":1152,"Ġsecond":1153,"Ġamazing":1154,"ular":1155,"Ġwater":1156,"oes":1157,"atter":1158,"cellent":1159,"Ġfam":1160,"lf":1161,"Ġmas":1162,"Ġstars":1163,"pped":1164,"Ġhere":1165,"Ġsoap":1166,"Ġvers":1167,"ids":1168,"ror":1169,"Ġdri":1170,"Ġbox":1171,"ĠHe":1172,"mer":1173,"elt":1174,"Ġins":1175,"Ġpurchased":1176,"Ġsur":1177,"Ġbeaut":1178,"Ġref":1179,"Ġbook":1180,"blem":1181,"Ġvide":1182,"Ġcra":1183,"ĠNo":1184,"ashes":1185,"aughter":1186,"'ll":1187,"Ġes":1188,"ations":1189,"Ġkind":1190,"erson":1191,"ĠNOT":1192,"Ġboth":1193,"Ġshamp":1194,"Ġproblem":1195,"Ġreg":1196,"Ġsim":1197,"ĠHow":1198,"Ġalmost":1199,"Ġwonder":1200,"Ġmoistur":1201,"Ġleft":1202,"Ġsuch":1203,"Ġbelie":1204,"Ġfo":1205,"ons":1206,"ward":1207,"ord":1208,"Ġdra":1209,"Ġhappy":1210,"Ġsmo":1211,"Ġquick":1212,"Wh":1213,"Ġjob":1214,"cri":1215,"Ġgetting":1216,"--":1217,"gr":1218,"Ġremo":1219,"atural":1220,"uck":1221,"Ġordered":1222,"Ġpoint":1223,"Ġisn":1224,"ited":1225,"Ġcondition":1226,"Ġwatched":1227,"not":1228,"ĠSe":1229,"Ġseems":1230,"Ġtrying":1231,"itive":1232,"reak":1233,"Ġexp":1234,"gg":1235,"Ġsaid":1236,"Ġcons":1237,"Ġfunny":1238,"cess":1239,"ph":1240,"Ġonce":1241,"olutely":1242,"Ġstrong":1243,"Ġyear":1244,"Ġcurl":1245,"iv":1246,"Ġem":1247,"Ġwear":1248,"Ġwhole":1249,"cept":1250,"Ġir":1251,"Ġhalf":1252,"Ġshampoo":1253,"day":1254,"Ġhum":1255,"ix":1256,"Ġthings":1257,"Ġeffect":1258,"edi":1259,"ense":1260,"Ġfavorite":1261,"Ġred":1262,"Ġfan":1263,"Ġdark":1264,"Ġstay":1265,"),":1266,"Ġeach":1267,"asy":1268,"oke":1269,"Ġreason":1270,"Ġstarted":1271,"ness":1272,"Ġmoisturiz":1273,"Ġsub":1274,"Ġro":1275,"uc":1276,"ĠRe":1277,"ically":1278,"its":1279,"ither":1280,"Ġour":1281,"Ġperson":1282,"Ġmus":1283,"Ġline":1284,"Ġcream":1285,"the":1286,"ised":1287,"ian":1288,"iful":1289,"ount":1290,"Ġsmooth":1291,"ru":1292,"ience":1293,"air":1294,"Ġthin":1295,"Ġversion":1296,"Ġstra":1297,"Ġok":1298,"Ġple":1299,"Ġeye":1300,"Ġexpected":1301,"Ġmakeup":1302,"Ġsize":1303,"Ġwish":1304,"Ġfeels":1305,"Ġepisode":1306,"Ġsever":1307,"Ġeyes":1308,"Ġpres":1309,"Ġrel":1310,"Ġcomes":1311,"Ġty":1312,"ump":1313,"ume":1314,"osed":1315,"Ġstar":1316,"Ġpolish":1317,"Ġpoor":1318,"Ġcolors":1319,"Ġfriend":1320,"Ġcouldn":1321,"Ġcast":1322,"ale":1323,"Ġfact":1324,"Ġgets":1325,"oring":1326,"These":1327,"Ġlet":1328,"Ġtell":1329,"aw":1330,"Ġmust":1331,"Ġdaughter":1332,"Ġspray":1333,"man":1334,"rist":1335,"lic":1336,"Ġbott":1337,"Ġnatural":1338,"ready":1339,"Ġvideo":1340,"Ġfamily":1341,"Ġelse":1342,"Ġmonths":1343,"ĠGreat":1344,"Ġmess":1345,"Ġleast":1346,"Ġactors":1347,"ĠBe":1348,"Ġfelt":1349,"ift":1350,"Ġfall":1351,"esome":1352,"ature":1353,"vious":1354,"Ġunt":1355,"ĠDon":1356,"Ġwent":1357,"Ġ10":1358,"Ġbuying":1359,"Ġdel":1360,"Ġalready":1361,"Ġcompletely":1362,"Ġable":1363,"led":1364,"Ġsens":1365,"arly":1366,"ĠSh":1367,"Ġeverything":1368,"Ġwait":1369,"ier":1370,"Ġcover":1371,"Ġrepl":1372,"Ġworked":1373,"Ġmiss":1374,"Ġph":1375,"Ġweek":1376,"Ġeasily":1377,"Ġiss":1378,"cially":1379,"Ġmight":1380,"Ġraz":1381,"ID":1382,"'d":1383,"rived":1384,"Ġwar":1385,"Ġshort":1386,"Ġhappen":1387,"lud":1388,"Ġview":1389,"Ġrem":1390,"ted":1391,"Ġinteresting":1392,"Ġchild":1393,"Ġseveral":1394,"Ġlonger":1395,"ner":1396,"Ġdescri":1397,"Ġform":1398,"Ġresult":1399,"Ġexc":1400,"Good":1401,"Ġgen":1402,"reme":1403,"ots":1404,"Ġnext":1405,"Ġquite":1406,"Ġthree":1407,"Ġliked":1408,"Ġgoes":1409,"Ġepisodes":1410,"Ġscenes":1411,"ows":1412,"Ġfra":1413,"Ġlea":1414,"ĠHowever":1415,"ĠDe":1416,"Ġshows":1417,"Ġuntil":1418,"Ġplace":1419,"Ġterrible":1420,"ara":1421,"stand":1422,"Ġtook":1423,"Ġbreak":1424,"ĠâĢ":1425,"Ġrun":1426,"Ġstore":1427,"pecially":1428,"Ġcouple":1429,"Ġgave":1430,"ia":1431,"Ġprob":1432,"Ġaction":1433,"ib":1434,"ime":1435,"ative":1436,"ank":1437,"Ġlashes":1438,"Ġhop":1439,"Ġ20":1440,"Ġ6":1441,"ention":1442,"ided":1443,"ensive":1444,"Ġev":1445,"Ġhaving":1446,"ied":1447,"ird":1448,"aging":1449,"Ġpie":1450,"Ġburn":1451,"Ġed":1452,"und":1453,"ren":1454,"Ġdur":1455,"Ġlooked":1456,"!!!!":1457,"ew":1458,"Ġbody":1459,"Ġabsolutely":1460,"Ġ,":1461,"enc":1462,"Ġanyone":1463,"Ġyet":1464,"ON":1465,"Ġentertain":1466,"ĠBl":1467,"co":1468,"ues":1469,"Ġsell":1470,"Ġprobably":1471,"ĠAs":1472,"Ġacc":1473,"Ġexper":1474,"Ġcap":1475,"Ġgre":1476,"fortun":1477,"ĠShe":1478,"Ġnight":1479,"Ġwouldn":1480,"ife":1481,"Ġguy":1482,"Ġ'":1483,"alk":1484,"oken":1485,"Ġfoll":1486,"Ġinstead":1487,"Ġstraight":1488,"Ġsty":1489,"gether":1490,"Ġwom":1491,"band":1492,"ell":1493,"Ġplastic":1494,"Ġperform":1495,"Ġentire":1496,"ĠJust":1497,"ĠThat":1498,"Ġhours":1499,"Ġkids":1500,"ings":1501,"irl":1502,"Ġclass":1503,"Ġgift":1504,"ĠWhen":1505,"ret":1506,"ook":1507,"ully":1508,"Ġcase":1509,"Ġsound":1510,"LL":1511,"Ġbeautiful":1512,"Ġweeks":1513,"Ġinclud":1514,"ption":1515,"Ġothers":1516,"Ġeither":1517,"ween":1518,"!<":1519,"Ġsomeone":1520,"ĠAlso":1521,"Ġhands":1522,"Ġpain":1523,"Ġpay":1524,"Ġsaw":1525,"If":1526,"line":1527,"OR":1528,"Ġblack":1529,"ĠWill":1530,"Ġbelieve":1531,"Ġpast":1532,"Ġclose":1533,"ates":1534,"Ġbegin":1535,"Ġide":1536,"Ġmaking":1537,"Ġtogether":1538,"VE":1539,"ĠWhat":1540,"Ġappe":1541,"Ġhorrible":1542,"ger":1543,"Ġworking":1544,"any":1545,"sc":1546,"ee":1547,"Ġfast":1548,"Ġenjoyed":1549,"Ġgel":1550,"Ġbetween":1551,"Ġquickly":1552,"Ġstand":1553,"ĠTHE":1554,"Ġwhite":1555,"Ġdet":1556,"Ġleave":1557,"Ġble":1558,"AT":1559,"iced":1560,"ips":1561,"Ġfilms":1562,"fortunately":1563,"Ġbag":1564,"ĠUn":1565,"ades":1566,"iny":1567,"ared":1568,"Ġmain":1569,"Ġcreat":1570,"Ġfit":1571,"Ġlow":1572,"Ġmaybe":1573,"Ġworst":1574,"Ġshower":1575,"aged":1576,"AS":1577,"Ġcomb":1578,"ĠChrist":1579,"Ġside":1580,"Ġhowever":1581,"ins":1582,"Ġtot":1583,"Ġcr":1584,"Ġmusic":1585,"ling":1586,"Ġones":1587,"Ġbroken":1588,"Ġfollow":1589,"Ġrazor":1590,"Ġmir":1591,"remely":1592,"ics":1593,"Ġwrong":1594,"ĠAfter":1595,"Ġfeeling":1596,"Ġespecially":1597,"Ġshave":1598,"Ġfree":1599,"ts":1600,"Ġeyel":1601,"Ġdoing":1602,"Ġsensitive":1603,"IS":1604,"Ġcoll":1605,"ides":1606,"io":1607,"Ġrest":1608,"Ġlotion":1609,"Ġhope":1610,"arn":1611,"Ġ19":1612,"rew":1613,"itch":1614,"Ġlip":1615,"ines":1616,"Ġcontin":1617,"Ġwonderful":1618,"Ġbroke":1619,"zz":1620,"ĠOn":1621,"Ġpull":1622,"??":1623,"Ġscr":1624,"ional":1625,"Ġfinish":1626,"Ġrele":1627,"Ġarrived":1628,"ĠFor":1629,"Ġcor":1630,"Ġmom":1631,"Ġguess":1632,"ont":1633,"âĢĿ":1634,"vert":1635,"Ġcar":1636,"Ġind":1637,"usband":1638,"Ġexcellent":1639,"Ġtrue":1640,"oc":1641,"Ġconditioner":1642,"Ġboring":1643,"ĠLove":1644,"Ġchang":1645,"Ġhot":1646,"ments":1647,"Ġsurpr":1648,"Ġlar":1649,"Ġslow":1650,"Ġav":1651,"Ġtakes":1652,"Ġsays":1653,"Ġitself":1654,"Ġcontain":1655,"where":1656,"Ġreplace":1657,"ruct":1658,"dd":1659,"quot":1660,"Ġworld":1661,"ma":1662,"eric":1663,"Ġyoung":1664,"Ġcost":1665,"Ġsw":1666,"Ġpackage":1667,"So":1668,"ton":1669,"Ġneeded":1670,"ES":1671,"ING":1672,"Ġago":1673,"Ġloves":1674,"Ġwig":1675,"Ġcall":1676,"ently":1677,"eng":1678,"bed":1679,"Ġsit":1680,"Ġmar":1681,"ider":1682,"Ġdam":1683,"Ġexact":1684,"Ġamount":1685,"Ġsto":1686,"Ġscene":1687,"Ġinv":1688,"Ġunderstand":1689,"gan":1690,"ĠAll":1691,"Ġhome":1692,"Ġhusband":1693,"Ġlist":1694,"Ġpower":1695,"Ġsun":1696,"Ġgirl":1697,"ah":1698,"Ġint":1699,"ouch":1700,"ost":1701,"Ġsupposed":1702,"Ġcompl":1703,"Did":1704,"Ġbrushes":1705,"ized":1706,"ĠâĢľ":1707,"Ġmyself":1708,"though":1709,"ED":1710,"fer":1711,"Ġ:":1712,"Ġz":1713,"Ġtrim":1714,"Ġcute":1715,"Ġdifference":1716,"Ġclear":1717,"Ġspecial":1718,"Ġheav":1719,"ĠTV":1720,"Ġawful":1721,"Ġleaves":1722,"Ġval":1723,"els":1724,"onest":1725,"Ġextremely":1726,"ilar":1727,"Ġbottles":1728,"Ġresults":1729,"Ġfragr":1730,"ND":1731,"Ġhighly":1732,"Ġduring":1733,"Ġing":1734,"edy":1735,"arr":1736,"Ġ8":1737,"Ġswe":1738,"orks":1739,"Ġhist":1740,"Ġtravel":1741,"part":1742,"mber":1743,"aste":1744,"Ġexpensive":1745,"Ġob":1746,"ction":1747,"Ġadvert":1748,"Ġdeal":1749,"ient":1750,"ument":1751,"Ġrather":1752,"Ġending":1753,"ther":1754,"fully":1755,"umb":1756,"Ġdeli":1757,"ouse":1758,"Ex":1759,"ĠðŁ":1760,"mas":1761,"Ġwife":1762,"vice":1763,"Ġidea":1764,"erally":1765,"Ġnorm":1766,"Ġmasc":1767,"RE":1768,"Ġpackaging":1769,"Ġlaugh":1770,"Ġmirror":1771,"Ġbas":1772,"Ġrep":1773,"OU":1774,"Ġkill":1775,"Ġdecided":1776,"Ġimm":1777,"Ġsad":1778,"iner":1779,"vd":1780,"ection":1781,"icult":1782,"Ġexpl":1783,"ky":1784,"ex":1785,"Ġopened":1786,"Ġgra":1787,"ipping":1788,"Ġdesign":1789,"Ġstop":1790,"ĠJo":1791,"Ġsing":1792,"Re":1793,"Ġcannot":1794,"ĠAmeric":1795,"like":1796,"ike":1797,"aid":1798,"Ġmind":1799,"ool":1800,"ired":1801,"aybe":1802,"antly":1803,"ĠWould":1804,"ats":1805,"Ġcour":1806,"ĠThese":1807,"Ġri":1808,"als":1809,"ms":1810,"Ġregular":1811,"Ġeveryone":1812,"Ġingred":1813,"Ġstopped":1814,"Ġart":1815,"Ġkept":1816,"Ġdoc":1817,"ients":1818,"ĠOne":1819,"They":1820,"Ġtrans":1821,"Ġseemed":1822,"Ġimpress":1823,"Ġsol":1824,"old":1825,"Ġtype":1826,"Ġexcited":1827,"ories":1828,"Ġchange":1829,"Ġperf":1830,"Ġdvd":1831,"rill":1832,"way":1833,"Ġawesome":1834,"Ġprop":1835,"Ġmag":1836,"Ġbar":1837,"Ġmor":1838,"Ġdifficult":1839,"Ġ7":1840,"asing":1841,"Ġglue":1842,"Ġlater":1843,"ossible":1844,"anc":1845,"Ġcop":1846,"Ġusually":1847,"ube":1848,"Ġwr":1849,"Ġrid":1850,"uy":1851,"ĠDo":1852,"roduct":1853,"Ġcompany":1854,"Ġfragrance":1855,"com":1856,"Ġvis":1857,"cks":1858,"Ġmean":1859,"Ġscreen":1860,"Ġsy":1861,"arch":1862,"Ġinside":1863,"ulous":1864,"Ġapplic":1865,"Ġson":1866,"Ġaud":1867,"Ġbath":1868,"arent":1869,"ĠGood":1870,"ster":1871,"Ġhy":1872,"Ġscri":1873,"Ġrefund":1874,"Ġheavy":1875,"oved":1876,"orant":1877,"velop":1878,"Ġmascara":1879,"ern":1880,"Ġtouch":1881,"Ġworse":1882,"Ġexactly":1883,"Ġpowder":1884,"Ġscript":1885,"Ġsoon":1886,"Ġhaven":1887,"ried":1888,"Ġwithin":1889,"Ġmatter":1890,"Ġport":1891,"Ġentertaining":1892,"Ġfing":1893,"Ġextra":1894,"Ġroll":1895,"Ġirrit":1896,"Ġremove":1897,"ĠAn":1898,"Ġsticky":1899,"ĠDis":1900,"que":1901,"ific":1902,"ĠEven":1903,"Ġcourse":1904,"Ġdocument":1905,"Ġvi":1906,"ĠNow":1907,"ength":1908,"ming":1909,"Ġdr":1910,"Ġprot":1911,"Ġturned":1912,"upid":1913,"Ġmod":1914,"Ġsense":1915,"Ġlead":1916,"Ġprov":1917,"Ġsent":1918,"Ġcho":1919,"**":1920,"uge":1921,"No":1922,"eless":1923,"In":1924,"Ġbeard":1925,"unch":1926,"Does":1927,"Ġconf":1928,"Ġwriting":1929,"Ġrub":1930,"Ġexperience":1931,"Ġdeod":1932,"Ġtoday":1933,"ĠCl":1934,"othing":1935,"istic":1936,"Ġ9":1937,"Ġfair":1938,"Ġoily":1939,"Ġconc":1940,"arb":1941,"Ġflat":1942,"Ġet":1943,"Ġbased":1944,"ane":1945,"ĠIT":1946,"Ġchem":1947,"Ġlips":1948,"Ġtwice":1949,"ances":1950,"Ġeffects":1951,"ply":1952,"Ġele":1953,"sy":1954,"Ġalong":1955,"Ġglad":1956,"ored":1957,"Ġfant":1958,"Ġ30":1959,"idd":1960,"Ġclassic":1961,"Ġgreasy":1962,"xture":1963,"Ġpiece":1964,"Ġdryer":1965,"olog":1966,"Ġfinally":1967,"ĠLO":1968,"Ġdevelop":1969,"arp":1970,"ĠBr":1971,"mells":1972,"uth":1973,"Ġhoping":1974,"Ġdep":1975,"ula":1976,"Ġfeature":1977,"Ġsal":1978,"AN":1979,"Ġsch":1980,"Ġgives":1981,"Ġdial":1982,"Just":1983,"Ġnoticed":1984,"but":1985,"Ġdisappointing":1986,"Ġlength":1987,"Ġlive":1988,"ject":1989,"Ġbare":1990,"Ġdue":1991,"ax":1992,"Ġfell":1993,"Ġdeodorant":1994,"uper":1995,"Ġcool":1996,"oduc":1997,"Ġsat":1998,"Ġhonest":1999,"urd":2000,"Ġpass":2001,"cc":2002,"Ġseller":2003,"]]":2004,"Ġforward":2005,"iness":2006,"Ġcertain":2007,"Ġpick":2008,"Ġfore":2009,"Ġstyle":2010,"Ġmatch":2011,"owing":2012,"Ġvalue":2013,"empt":2014,"member":2015,"ĠFr":2016,"Ġetc":2017,"ĠCan":2018,"Ġsil":2019,"Ġimmedi":2020,"[[":2021,"ior":2022,"Ġfriends":2023,"Ġexcept":2024,"ented":2025,"Ġwet":2026,"gs":2027,"resh":2028,"Ġ!":2029,"uly":2030,"Ġword":2031,"Ġfig":2032,"Ġdist":2033,"Ġuses":2034,"Ġperfume":2035,"Ġlack":2036,"Ġanim":2037,"Ġsex":2038,"my":2039,"ident":2040,"aps":2041,"lied":2042,"Ġinstruct":2043,"aterial":2044,"Ġmen":2045,"Ġseeing":2046,"AR":2047,"Ġcomedy":2048,"Ġneeds":2049,"Ġtotally":2050,"nding":2051,"Ġhuge":2052,"Ġissue":2053,"lish":2054,"Ġlost":2055,"Ġapart":2056,"Ġgiven":2057,"Ġmix":2058,"cked":2059,"Ġended":2060,"Ġass":2061,"Ġnotice":2062,"Ġlarge":2063,"ists":2064,"era":2065,"Ġimag":2066,"isf":2067,"Ġhappened":2068,"Ġdialog":2069,"alp":2070,"Ġlearn":2071,"Ġ--":2072,"Ġdried":2073,"Ġconsider":2074,"eth":2075,"Ġboy":2076,"Ġchildren":2077,"erg":2078,"Ġloc":2079,"As":2080,"fortable":2081,"hn":2082,"LE":2083,"Ġpartic":2084,"Ġpaid":2085,"Ġsn":2086,"Ġann":2087,"Ġpos":2088,"Ġissues":2089,"Ġprevious":2090,"ters":2091,"Ġmaterial":2092,"ĠChristmas":2093,"alm":2094,"unk":2095,"Ġslight":2096,"Ġseasons":2097,"ĠSp":2098,"Ġthinking":2099,"Ġheal":2100,"ator":2101,"Ġiron":2102,"Ġstr":2103,"Ġblades":2104,"ĠBU":2105,"ĠAt":2106,"ustom":2107,"more":2108,"ĠMaybe":2109,"Ġingredients":2110,"wood":2111,"ured":2112,"Ġbeh":2113,"ney":2114,"ined":2115,"Ġphot":2116,"ope":2117,"Ġreturned":2118,"Ġwritten":2119,"ets":2120,"Ġtexture":2121,"Ġprom":2122,"Ġfill":2123,"Ġclipp":2124,"Ġcontr":2125,"âĢ¦":2126,"Ġimmediately":2127,"Ġcoming":2128,"Ġstupid":2129,"Ġmis":2130,"Ġsimply":2131,"ĠDoes":2132,"Ġscalp":2133,"VER":2134,"ket":2135,"Ġprof":2136,"ĠMo":2137,"ann":2138,"Ġheat":2139,"Ġmoisturizer":2140,"Ġremember":2141,"Ġlines":2142,"Ġnon":2143,"TH":2144,"tern":2145,"Ġdecent":2146,"There":2147,"Ġhumor":2148,"Ġoverall":2149,"Ġends":2150,"Ġweird":2151,"Ġdocumentary":2152,"Ġsharp":2153,"St":2154,"atic":2155,"ene":2156,"etic":2157,"Ġhuman":2158,"Ġfeet":2159,"ility":2160,"Ġrecommended":2161,"Ġoften":2162,"Ġname":2163,"Ġtruly":2164,"ĠUS":2165,"Ġhandle":2166,"We":2167,"oor":2168,"ĠThen":2169,"What":2170,"Ġdy":2171,"Ġproduction":2172,"Ġbarely":2173,"Ġactual":2174,"orn":2175,"Ġtyp":2176,"Ġbatter":2177,"ĠSeason":2178,"Ġair":2179,"Ġmult":2180,"Ġparts":2181,"Ġtang":2182,"Don":2183,"iously":2184,"ety":2185,"One":2186,"EN":2187,"Ġreplacement":2188,"Ġkeeps":2189,"Ġmention":2190,"Ġgrand":2191,"side":2192,"ĠLe":2193,"ric":2194,"stick":2195,"Ġopin":2196,"Ġattempt":2197,"Ġcomplain":2198,"ĠPl":2199,"Ġtreat":2200,"ĠAr":2201,"Ġwoman":2202,"Ġhistory":2203,"Ġokay":2204,"Ġheart":2205,"Ġavail":2206,"Ġfri":2207,"Ġadvertised":2208,"Ġhairs":2209,"Ġsetting":2210,"orry":2211,"Ġfail":2212,"Ġmove":2213,"vent":2214,"aring":2215,"Ġapplied":2216,"Ġwomen":2217,"Ġliterally":2218,"Excellent":2219,"Ġmissing":2220,"Ġtal":2221,"Ġcaus":2222,"raph":2223,"ism":2224,"Ġmedi":2225,"verall":2226,"Ġdescription":2227,"Ġgone":2228,"Ġshaving":2229,"ĠDid":2230,"10":2231,"ibly":2232,"Ġobvious":2233,"Ġfake":2234,"ĠSome":2235,"Ġfoot":2236,"ĠWell":2237,"rect":2238,"Ġtalk":2239,"just":2240,"Ġcomm":2241,"Ġplayed":2242,"ering":2243,"Ġpink":2244,"Ġcustom":2245,"ape":2246,"ising":2247,"Ġcollection":2248,"Ġcoat":2249,"ged":2250,"Ġhate":2251,"Ġfour":2252,"aj":2253,"nded":2254,"Ġexpecting":2255,"Ġhouse":2256,"Ġperformance":2257,"hip":2258,"aby":2259,"Ġvol":2260,"ĠWith":2261,"iting":2262,"Ġvar":2263,"ĠAND":2264,"ĠJohn":2265,"Ġmist":2266,"Ġconst":2267,"Ġparticular":2268,"wise":2269,"ered":2270,"this":2271,"Ġsle":2272,"aced":2273,"Ġsus":2274,"mp":2275,"zy":2276,"Ġchanged":2277,"ler":2278,"Ġbrown":2279,"Ġhorror":2280,"over":2281,"ss":2282,"Ġpop":2283,"Ġinte":2284,"Ġannoy":2285,"Ġlay":2286,"ued":2287,"Ġlasts":2288,"Ġdou":2289,"Ġmem":2290,"Ġformula":2291,"Ġperfectly":2292,"ĠPer":2293,"ĠSc":2294,"Ġsave":2295,"Ġnormal":2296,"Ġfrizz":2297,"20":2298,"ĠCom":2299,"Ġavailable":2300,"Ġhelps":2301,"EO":2302,"pping":2303,"Ġ15":2304,"Ġgiving":2305,"ox":2306,"ĠQ":2307,"anks":2308,"Ġschool":2309,"iculous":2310,"son":2311,"Ġconsist":2312,"ĠEvery":2313,"aked":2314,"Ġtold":2315,"Ġopinion":2316,"bing":2317,"ames":2318,"Ġcleans":2319,"Ġself":2320,"Ġpleas":2321,"Ġda":2322,"Ġbrist":2323,"ĠNe":2324,"arbage":2325,"Ġrole":2326,"Ġfight":2327,"ening":2328,"Ġliqu":2329,"Ġpump":2330,"aster":2331,"ĠLOVE":2332,"Ġitch":2333,"Ġbeginning":2334,"ities":2335,"Ġtight":2336,"Ġant":2337,"Ġmorning":2338,"par":2339,"what":2340,"Ġdirector":2341,"Ġfresh":2342,"Ġmoisturizing":2343,"ĠRE":2344,"Ġimpressed":2345,"ork":2346,"Ġaren":2347,"Ġsequ":2348,"Ġpeel":2349,"Ġactor":2350,"sh":2351,"OO":2352,"Works":2353,"Ġton":2354,"Ġimport":2355,"ĠTo":2356,"Ġyourself":2357,"aim":2358,"ential":2359,"ĠUnfortunately":2360,"rime":2361,"Aw":2362,"VID":2363,"ges":2364,"ĠEng":2365,"Ġdoll":2366,"ced":2367,"Ġstuck":2368,"Ġcurls":2369,"Ġapplying":2370,"ien":2371,"Ġpred":2372,"Ġrating":2373,"Ġbase":2374,"Ġtube":2375,"ĠZ":2376,"Ġtrash":2377,"Ġcurly":2378,"Ġfantastic":2379,"ipped":2380,"Ġcontinue":2381,"Ġshipping":2382,"Ġfoundation":2383,"ero":2384,"Ġsimilar":2385,"Ġstud":2386,"LY":2387,"Ġwearing":2388,"Ġbra":2389,"ug":2390,"Ġattach":2391,"Ġputting":2392,"Ġproblems":2393,"ograph":2394,"Ġbecome":2395,"ĠPr":2396,"Ġstories":2397,"Ġinform":2398,"lt":2399,"ĠHigh":2400,"Ġsingle":2401,"Ġwin":2402,"Ġpurchasing":2403,"ME":2404,"ĠTHIS":2405,"Ġproduc":2406,"room":2407,"Ġlasted":2408,"ĠAmerican":2409,"Ġsurprised":2410,"Ġmine":2411,"Ġanymore":2412,"Ġincred":2413,"ision":2414,"Ġshaver":2415,"by":2416,"Ġcount":2417,"Ġweak":2418,"of":2419,"Ġve":2420,"Ġear":2421,"Ġbooks":2422,"Ġseal":2423,"Ġthroughout":2424,"ract":2425,"Ġ...":2426,"Ġkit":2427,"ony":2428,"Ġcopy":2429,"ec":2430,"Ġwax":2431,"Ġdrying":2432,"Ġsort":2433,"Ġquest":2434,"Ġkid":2435,"umps":2436,"Ġprog":2437,"Ġlevel":2438,"Ġsong":2439,"Ġtit":2440,"Ġreading":2441,"iple":2442,"Ġdrama":2443,"ency":2444,"ggest":2445,"Al":2446,"Ġmet":2447,"Ġage":2448,"Ġproper":2449,"vable":2450,"Ġwra":2451,"ample":2452,"Ġbuild":2453,"Ġcause":2454,"Ġdeep":2455,"ote":2456,"Ġapplication":2457,"Ġstri":2458,"Ġgener":2459,"Ġsmaller":2460,"haps":2461,".....":2462,"VIDEO":2463,"Ġrelease":2464,"?<":2465,"min":2466,"Ġblade":2467,"eez":2468,"VIDEOID":2469,"ices":2470,"Ġblue":2471,"ĠDefinitely":2472,"Ġliquid":2473,"ital":2474,"ures":2475,"ution":2476,"screen":2477,"Ġguys":2478,"Ġspend":2479,"Ġsuggest":2480,"Ġdescribed":2481,"Ġarea":2482,"ĠDO":2483,"Ġreturning":2484,"Ġeff":2485,"Ġhur":2486,"Ġviol":2487,"nter":2488,"light":2489,"Ġrent":2490,"ĠWor":2491,"Ġchemical":2492,"elves":2493,"Ġbright":2494,"Ġcorrect":2495,"Ġdamaged":2496,"Ġknew":2497,"Ġplan":2498,"thy":2499,"Ġlik":2500,"illy":2501,"ĠON":2502,".\"":2503,"Ġbottom":2504,"Ġdead":2505,"olly":2506,"Ġheard":2507,":<":2508,"Ġcharge":2509,"ST":2510,"Ġnum":2511,"ĠEx":2512,"Ġbristles":2513,"Ġunless":2514,"ross":2515,"Ġreact":2516,"Ġband":2517,"Ġridiculous":2518,"urch":2519,"Ġdaily":2520,"Ġfans":2521,"Ġinstructions":2522,"Ġprefer":2523,"Ġtaking":2524,"You":2525,"Ġservice":2526,")<":2527,"ened":2528,"Ġ100":2529,"Ġtool":2530,"Ġste":2531,"Ġlots":2532,"Ġdialogue":2533,"ĠKe":2534,"When":2535,"ains":2536,"Ġrequ":2537,"Product":2538,"Ġroom":2539,"lease":2540,"Ġru":2541,"Ġgarbage":2542,"Ġtiny":2543,"Ġtech":2544,"errible":2545,"used":2546,"Ġmagn":2547,"Ġsaying":2548,"Ġclips":2549,"Ġfive":2550,"Ġmultiple":2551,"iddle":2552,"omb":2553,"Ġagainst":2554,"Ġbother":2555,"head":2556,"ĠIts":2557,"ĠGod":2558,"sed":2559,"Ġtrimmer":2560,"ives":2561,"orrible":2562,"Ġvo":2563,"Ġsmelled":2564,"land":2565,"ictable":2566,"Ġpieces":2567,"Didn":2568,"Ġspent":2569,"ĠThank":2570,"con":2571,"Ġpleased":2572,"Ġadult":2573,"Ġpresent":2574,"Ġsatisf":2575,"Ġfut":2576,"Ġstoryline":2577,"Ġscrub":2578,"no":2579,"ĠBlu":2580,"aken":2581,"Ġque":2582,"CT":2583,"Be":2584,"ĠWas":2585,"ails":2586,"Ġtest":2587,"Ġdull":2588,"Ġmask":2589,"Ġincluded":2590,"Ġportray":2591,"Ġshot":2592,"AL":2593,"ĠMar":2594,"Was":2595,"ging":2596,"ustr":2597,"Ġlab":2598,"ĠOr":2599,"oles":2600,"oud":2601,"Ġsometimes":2602,"IT":2603,"Ġwasted":2604,"ying":2605,"ude":2606,"Ġcontrol":2607,"Ġappear":2608,"Ġblow":2609,"Ġinf":2610,"Ġannoying":2611,"Ġla":2612,"Ġtan":2613,"ique":2614,"ys":2615,"Loved":2616,"ram":2617,"Really":2618,"inem":2619,"ajor":2620,"Ġcontainer":2621,"ases":2622,"OW":2623,"ination":2624,"Ġeffective":2625,"After":2626,"Ġplus":2627,"\".":2628,"reci":2629,"Ġattention":2630,"ister":2631,"ison":2632,"Ġshape":2633,"Ġbaby":2634,"AY":2635,"urdy":2636,"Ġbehind":2637,"Ġscratch":2638,"oid":2639,"Ġchance":2640,"iod":2641,"Ġocc":2642,"ĠOther":2643,"ĠðŁĺ":2644,"dr":2645,"Ġdont":2646,"riend":2647,"ĠTO":2648,"Ġpoorly":2649,"Ġalthough":2650,"angu":2651,"ĠIs":2652,"Ġtwist":2653,"Ġemot":2654,"med":2655,"selves":2656,"nds":2657,"off":2658,"Ġpot":2659,"Ġcam":2660,"ones":2661,"Ġdeliver":2662,"Ġsqu":2663,"Ġbrands":2664,"Ġrom":2665,"Ġabsor":2666,"Ġadded":2667,"inc":2668,"ĠWhy":2669,"Too":2670,"Ġamazon":2671,"Ġmot":2672,"Ġearly":2673,"Ġshown":2674,"19":2675,"Ġfuture":2676,"Ġblond":2677,"IC":2678,"Ġprofess":2679,"Ġcrap":2680,"great":2681,"ĠEnglish":2682,"ĠRob":2683,"Ġbud":2684,"Ġswitch":2685,"Ġplays":2686,"Nice":2687,"ĠOnly":2688,"Ġpar":2689,"Ġclaim":2690,"ĠIS":2691,"ĠSO":2692,"For":2693,"Ġsets":2694,"Ġturns":2695,"play":2696,"Ġsign":2697,"Ġbring":2698,"Ġappreci":2699,"Ġmiddle":2700,"Ġgrow":2701,"On":2702,"na":2703,"Ġsimple":2704,"Ġcalled":2705,"Ġsold":2706,"Ġweight":2707,"ĠSte":2708,"Ġitems":2709,"Ġpract":2710,"Ġneg":2711,"Ġcapt":2712,"wards":2713,"Ġolder":2714,"Ġcomment":2715,"Ġplayer":2716,"Ġcrazy":2717,"Ġhit":2718,"Ġaddition":2719,"Ġcart":2720,"Bought":2721,"pper":2722,"mit":2723,"Ġbattery":2724,"Ġmajor":2725,"ollywood":2726,"Ġclos":2727,"Ġstays":2728,"Ġplease":2729,"Ġlangu":2730,"ief":2731,"Ġshed":2732,"Ġdisappointment":2733,"Smells":2734,"lo":2735,"Ġnicely":2736,"ĠST":2737,"Ġeasier":2738,"orge":2739,"Ġserum":2740,"uss":2741,"Ġlate":2742,"Ġmoments":2743,"pite":2744,"att":2745,"ially":2746,"Ġplaying":2747,"Ġopp":2748,"Ġminute":2749,"Ġtotal":2750,"Ġclippers":2751,"Ġslightly":2752,"Ġsturdy":2753,"Ġbed":2754,"ding":2755,"Ġcomfortable":2756,"ography":2757,"Ġpurp":2758,"Ġsupport":2759,"Ġang":2760,"Ġbecom":2761,"Ġsend":2762,"Ġsunscreen":2763,"Ġ12":2764,"Ġpossible":2765,"ik":2766,"Ġrese":2767,"Ġpress":2768,"Ġhonestly":2769,"how":2770,"Ġ/>-":2771,"Ġvolume":2772,"Ġloose":2773,"Ġprim":2774,"Ġnarr":2775,"Ġimportant":2776,"ĠSuper":2777,"ards":2778,"Ġcheaper":2779,"ĠToo":2780,"Ġcertainly":2781,"yond":2782,"Ġpost":2783,"set":2784,"ĠWhile":2785,"ĠHighly":2786,"ement":2787,"Ġthird":2788,"apt":2789,"Ġmother":2790,"Ġrough":2791,"ages":2792,"Ġcinem":2793,"ĠReally":2794,"Ġcoverage":2795,"Ġask":2796,"Ġcustomer":2797,"Ġorgan":2798,"Ġclearly":2799,"Ġprotect":2800,"retch":2801,"Ġperiod":2802,"tit":2803,"Ġest":2804,"rent":2805,"Ġcompared":2806,"Ġlipstick":2807,"__":2808,"Ġcontact":2809,"which":2810,"rib":2811,"Ġbasically":2812,"Ġeffort":2813,"Ġunfortunately":2814,"Ġshiny":2815,"ina":2816,"Ġnearly":2817,"oot":2818,"Ġteen":2819,"Ġinvol":2820,"pir":2821,"ear":2822,"body":2823,"reaking":2824,"Ġeyebr":2825,"Ġprocess":2826,"Ġimpr":2827,"Ġmostly":2828,"Ġordering":2829,"Ġnear":2830,"\",":2831,"AD":2832,"Ġbudget":2833,"Ġknown":2834,"Ġholds":2835,"ĠOF":2836,"Ġpredictable":2837,"ĠLook":2838,"Ġopening":2839,"Ġflick":2840,"Ġyes":2841,"lling":2842,"Ġacross":2843,"Ġcheck":2844,"oof":2845,"Ġevent":2846,"Ġsepar":2847,"Ġwashing":2848,"Ġalone":2849,"Ġbus":2850,"use":2851,"ener":2852,"Ġeng":2853,"Ġallow":2854,"ĠTr":2855,"Ġsum":2856,"Ġuseless":2857,"Ġeyeliner":2858,"Ġsuc":2859,"Ġcred":2860,"Ġresid":2861,"ĠLike":2862,"Ġaudience":2863,"hol":2864,"Ġlanguage":2865,"for":2866,"Ġthrow":2867,"Ġthrill":2868,"Awesome":2869,"First":2870,"Ġgotten":2871,"Ġstarts":2872,"Ġdries":2873,"Ġnone":2874,"Per":2875,"Ġtechn":2876,"Ġwaiting":2877,").<":2878,"Ġwrite":2879,"Ġthemselves":2880,"Ġcent":2881,"Ġorange":2882,"outh":2883,"Ġtaken":2884,"time":2885,"Ġbecame":2886,"Ġpolit":2887,"Ġfingers":2888,"Ġpositive":2889,"Ġsolid":2890,"good":2891,"Ġwashed":2892,"ĠJack":2893,"Ġdig":2894,"Ġmass":2895,"RO":2896,"irt":2897,"Ġrelations":2898,"ĠSer":2899,"Ġball":2900,"Ġtem":2901,"ĠOverall":2902,"ðŁĺ":2903,"Ġfront":2904,"Ġempt":2905,"Ġnor":2906,"ĠHollywood":2907,"Ġsusp":2908,"Ġfalling":2909,"go":2910,"Ġfacial":2911,"retty":2912,"ores":2913,"Ġess":2914,"Best":2915,"Ġacne":2916,"adow":2917,"CH":2918,"Ġpersonal":2919,"aper":2920,"ey":2921,"Ġprem":2922,"ĠNO":2923,"Ġwind":2924,"Ġdru":2925,"Ġhelped":2926,"Ġdi":2927,"oli":2928,"ring":2929,"ĠFirst":2930,"ivid":2931,"enty":2932,"bsolutely":2933,"ences":2934,"Ġfix":2935,"Ġmeans":2936,"Un":2937,"Ġhear":2938,"date":2939,"oil":2940,"encil":2941,"Ġcre":2942,"rif":2943,"Ġpictures":2944,"Ġwants":2945,"Ġdiss":2946,"Am":2947,"Ġlather":2948,"Ġrealize":2949,"Ġtitle":2950,"Ġhappens":2951,"Ġreceive":2952,"Ġspec":2953,"itter":2954,"Ġneck":2955,"ley":2956,"Ġfoc":2957,"Ġsalon":2958,"Ġallerg":2959,"Ġgreen":2960,"Doesn":2961,"Ġdefect":2962,"Ġmoving":2963,"Ġspace":2964,"Ġfather":2965,"Ġfigure":2966,"Ġenjoyable":2967,"Ġsomewhat":2968,"Ġoutside":2969,"Ġstretch":2970,"Ġimpossible":2971,"Ġremind":2972,"Ġupon":2973,"Ġnumber":2974,"Ġsweet":2975,"Ġwriters":2976,"Ġsearch":2977,"Ġbeauty":2978,"Ġforever":2979,"Ġdeath":2980,"Ġdraw":2981,"irc":2982,"Ġgirls":2983,"Ġusual":2984,"Ġnose":2985,"ĠBE":2986,"Ġspong":2987,"oup":2988,"Ġcloth":2989,"cl":2990,"Ġmat":2991,"ading":2992,"atever":2993,"olor":2994,"Ġthrew":2995,"ĠVER":2996,"val":2997,"entle":2998,"ational":2999,"Ġempty":3000,"Ġincluding":3001,"Ġauth":3002,"An":3003,"Ġwarm":3004,"ĠStar":3005,"Ġsleep":3006,"Ġrecently":3007,"using":3008,"Ġleaving":3009,"ĠYOU":3010,"Ġproperly":3011,"All":3012,"Ġod":3013,"Ġblonde":3014,"Ġbeyond":3015,"ghter":3016,"Ġcomplim":3017,"Ġconcept":3018,"bel":3019,"appointed":3020,"ĠIN":3021,"Ġwords":3022,"Ġworkout":3023,"Ġaff":3024,"iant":3025,"Ġtub":3026,"Ġeverywhere":3027,"Ġtone":3028,"Ġonline":3029,"Ġresidue":3030,"Ġseconds":3031,"ops":3032,"RI":3033,"ĠNew":3034,"Ġlad":3035,"ĠHad":3036,"Ġcleaning":3037,"Ġfeatures":3038,"ĠCon":3039,"Ġzero":3040,"Ġhimself":3041,"Ġmyster":3042,"Ġcareful":3043,"aces":3044,"Ġgri":3045,"Ġbigger":3046,"Ġresp":3047,"Ġsuff":3048,"Ġconsistency":3049,"ĠTom":3050,"Ġluck":3051,"Ġdest":3052,"edic":3053,"Ġimprove":3054,"Ġlives":3055,"Ġbunch":3056,"Ġ:(":3057,"cohol":3058,"oon":3059,"Ġvoice":3060,"Ġconv":3061,"Ġdisp":3062,"Ġlocal":3063,"enn":3064,"ĠPrime":3065,"ained":3066,"Ġdeser":3067,"Ġshine":3068,"ĠWaste":3069,"Ġreleased":3070,"Ġstre":3071,"Ġdiscs":3072,"Ġperformances":3073,"99":3074,"ĠVERY":3075,"Ġrunning":3076,"ining":3077,"Ġvideos":3078,"Ġposs":3079,"Wor":3080,"Ġoils":3081,"iction":3082,"ĠNothing":3083,"Ġnegative":3084,"Ġsubtit":3085,"ĠPlease":3086,"Ġpurple":3087,"Ġmessage":3088,"Ġinformation":3089,"Ġclip":3090,"imsy":3091,"foli":3092,"ron":3093,"Ġinterested":3094,"ilarious":3095,"appy":3096,".)":3097,"Ġtrou":3098,"allow":3099,"Ġdelivery":3100,"Ġcirc":3101,"Ġpleasant":3102,"wo":3103,"ises":3104,"Terrible":3105,"Ġblend":3106,"ĠWho":3107,"Ġlos":3108,"erm":3109,"rugg":3110,"Ġstiff":3111,"Ġcutting":3112,"ĠAny":3113,"Ġbal":3114,"Ġhang":3115,"Ġstep":3116,"Ġhook":3117,"Ġcontent":3118,"lev":3119,"umes":3120,"Ġdoub":3121,"llow":3122,"ott":3123,"Ġprofessional":3124,"Ġspl":3125,"ĠMich":3126,"Ġfinal":3127,"ĠQu":3128,"ĠALL":3129,"mb":3130,"ĠPh":3131,"Ġtalking":3132,"Ġenc":3133,"But":3134,"let":3135,"Ġcarry":3136,"ems":3137,"ĠYes":3138,"Ġmissed":3139,"esting":3140,"izing":3141,"50":3142,"ĠMr":3143,"ĠHA":3144,"Ġspots":3145,"Ġpurpose":3146,"Ġblood":3147,"Ġoption":3148,"Ġeyelashes":3149,"Ġtip":3150,"Ġeveryday":3151,"bb":3152,"Ġactress":3153,"Ġadv":3154,"Ġpainful":3155,"irty":3156,"Ġcult":3157,"ĠDoesn":3158,"Ġteach":3159,"And":3160,"Dis":3161,"Ġrout":3162,"Ġonto":3163,"rop":3164,"Ġodd":3165,"Ġcurrent":3166,"Ġmoment":3167,"Ġinch":3168,"Ġcamera":3169,"ground":3170,"ĠInst":3171,"ĠStill":3172,"Ġlabel":3173,"Perfect":3174,"Ġsorry":3175,"arently":3176,"Ġfairly":3177,"Ġodor":3178,"Ġentertainment":3179,"ads":3180,"Ġelect":3181,"Ġmedium":3182,"Ġfollowed":3183,"uf":3184,"Ġ50":3185,"Ġtape":3186,"ï¸":3187,"Ġ:)":3188,"Ġsitu":3189,"ether":3190,"Ġstrugg":3191,"Ġgentle":3192,"ï¸ı":3193,"Ġbalm":3194,"Ġequ":3195,"ĠGl":3196,"Ġalcohol":3197,"unny":3198,"Ġmach":3199,"Ġotherwise":3200,"row":3201,"Ġreaction":3202,"ALL":3203,"Ġdisg":3204,"Ġdevelopment":3205,"Ġsuccess":3206,"Ġtv":3207,"Ġserious":3208,"Ġrepe":3209,"Ġdate":3210,"Ġappears":3211,"Ġbon":3212,"de":3213,"ĠChar":3214,"cessary":3215,"Ġexfoli":3216,"Ġobviously":3217,"izes":3218,"Ġshade":3219,"Well":3220,"eturn":3221,"lect":3222,"Ġtow":3223,"Ġadjust":3224,"Ġbrought":3225,"Ġhydr":3226,"ĠBrit":3227,";.":3228,"ĠOf":3229,"Ġlarger":3230,"Ġglitter":3231,"Ġdirections":3232,"Ġmil":3233,"Ġdem":3234,"Ġlash":3235,"Ġgame":3236,"iving":3237,"Ġextens":3238,"ĠDVDs":3239,"ael":3240,"Ġflaw":3241,"Horrible":3242,"real":3243,"Ġgroup":3244,"Ġleg":3245,"Ġbrill":3246,"Ġfalls":3247,"Ġinstall":3248,"Ġpair":3249,"gged":3250,"Ġreach":3251,"Ġconne":3252,"Ġvari":3253,"Ġfrustr":3254,"ĠWar":3255,"Ġphoto":3256,"Ġ200":3257,"Ġhistor":3258,"Ġhopes":3259,"ĠWAS":3260,"Ġcolog":3261,"Ġchoice":3262,"Ġcrit":3263,"Ġglass":3264,"Ġviolence":3265,"oun":3266,"ĠMc":3267,"mm":3268,"Ġcord":3269,"Ġspot":3270,"Ġacted":3271,"Ġmistake":3272,"ĠMost":3273,"Ġlikes":3274,"Ġthank":3275,"Ġexpectations":3276,"verage":3277,"Ġsatisfied":3278,"Ġwood":3279,"Ġfrizzy":3280,"aught":3281,"ittle":3282,"Ġnormally":3283,"Ġfem":3284,"ado":3285,"Ġbutter":3286,"Do":3287,"bo":3288,"Ġwalk":3289,"Ġflimsy":3290,"Ġshock":3291,"cy":3292,"ung":3293,"Ġparent":3294,"Ġanyway":3295,"Ġscary":3296,"Ġareas":3297,"Ġcaused":3298,"ites":3299,"ĠBUY":3300,"order":3301,"Ġsuspense":3302,"Ġpencil":3303,"anger":3304,"IE":3305,"Ġlid":3306,"ctor":3307,"ians":3308,"Ġpig":3309,"ribly":3310,"ĠHis":3311,"ĠPe":3312,"uce":3313,"Ġsmelling":3314,"aining":3315,"Ġheads":3316,"Ġways":3317,"ĠMan":3318,"Ġdev":3319,"Ġtaste":3320,"illa":3321,"ĠBUT":3322,"Ġexample":3323,"Ġedge":3324,"Ġburning":3325,"amed":3326,"Ġdirection":3327,"arm":3328,"ries":3329,"Ġlegs":3330,"Ġdarker":3331,"back":3332,"Ġviewing":3333,"Ġaudio":3334,"Ġnovel":3335,"Ġindivid":3336,"Ġoper":3337,"Ġdamage":3338,"Ġseriously":3339,"Ġprogram":3340,"ĠEd":3341,"iet":3342,"urder":3343,"ology":3344,"Ġappreciate":3345,"Ġstrange":3346,"Ġinvest":3347,"ppy":3348,"lus":3349,"Ġer":3350,"cent":3351,"ware":3352,"Ġconstantly":3353,"Ġfile":3354,"ury":3355,"iam":3356,"Ġspeak":3357,"Ġpush":3358,"Ġgold":3359,"Ġbecomes":3360,"Ġmoisture":3361,"Ġliner":3362,"Ġmodern":3363,"Ġtips":3364,"Ġill":3365,"ĠWatch":3366,"irth":3367,"Ġupset":3368,"ĠEl":3369,"Ġfully":3370,"Ġdefective":3371,"Ã©":3372,"Ã³":3373,"Ġleaked":3374,"ĠNever":3375,"Ġreality":3376,"Ġshame":3377,"Ġwhatever":3378,"Ġstores":3379,"Ġtrail":3380,"Ġbathroom":3381,"Ġhero":3382,"Ġsister":3383,"ĠFe":3384,"even":3385,"Ġarri":3386,"Ġblu":3387,"Ok":3388,"OM":3389,"rench":3390,"Ġquestion":3391,"GH":3392,"weight":3393,"ĠThanks":3394,"ants":3395,"Ġpale":3396,"Ġsubtitles":3397,"Ġsilly":3398,"Ġcurling":3399,"ĠAd":3400,"Ġrate":3401,"Ġlasting":3402,"Ġ201":3403,"eren":3404,"Ġabove":3405,"30":3406,"Ġrash":3407,"Ġjunk":3408,"low":3409,"Ġ..":3410,"Ġaccur":3411,"ufact":3412,"Ġtrip":3413,"Ġavoid":3414,"ĠMe":3415,"ĠOK":3416,"Ġinterview":3417,"Ġfinger":3418,"Ġlol":3419,"Ġhurt":3420,"Ġunit":3421,"ĠEasy":3422,"Ġfamil":3423,"okes":3424,"Ġgloss":3425,"ouldn":3426,"Ġdelivered":3427,"Ġ80":3428,"Ġdrug":3429,"illed":3430,"Ġcompliments":3431,"lex":3432,"Ġincredibly":3433,"Ġloud":3434,"Ġviewer":3435,"Ġmaster":3436,"ĠDisney":3437,"Ġship":3438,"Ġfoam":3439,"Ġmetal":3440,"aded":3441,"Ġcatch":3442,"KE":3443,"love":3444,"Ġresearch":3445,"Ġsyst":3446,"ĠNE":3447,"Ġperhaps":3448,"ĠHer":3449,"ze":3450,"UT":3451,"rig":3452,"ĠWI":3453,"ĠWH":3454,"Ġtheat":3455,"ĠMovie":3456,"Ġaspect":3457,"Ġtweez":3458,"Ġshowing":3459,"autiful":3460,"ĠDidn":3461,"ifully":3462,"Ġpremise":3463,"usting":3464,"Ġclump":3465,"apan":3466,"Ġchanges":3467,"Ġlovely":3468,"Ġcracked":3469,"Se":3470,"Ġlikely":3471,"Ġdro":3472,"Ġaccept":3473,"Sh":3474,"Ġsongs":3475,"aves":3476,"Ġforget":3477,"Ġthicker":3478,"iest":3479,"Ġbusiness":3480,"Ġdespite":3481,"levision":3482,"Ġcry":3483,"Ġcologne":3484,"Ġstink":3485,"Ġcountry":3486,"Ġdidnt":3487,"Ġsubject":3488,"MA":3489,"Ġyellow":3490,"teresting":3491,"ena":3492,"ills":3493,"ras":3494,"ĠWish":3495,"Ġscents":3496,"Ġcold":3497,"Ġready":3498,"Ġburned":3499,"aving":3500,"Ġjar":3501,"ĠSm":3502,"Ġfilled":3503,"Ġmixed":3504,"iece":3505,"ners":3506,"Ġfootage":3507,"sw":3508,"ified":3509,"Ġrealized":3510,"Ġdumb":3511,"Ġimagine":3512,"Ġ90":3513,"Ġforg":3514,"Ġstream":3515,"Ġmanufact":3516,"bl":3517,"cause":3518,"Ġcuts":3519,"tra":3520,"?!":3521,"ĠBuy":3522,"ĠWorks":3523,"IL":3524,"Ġshowed":3525,"plete":3526,"unt":3527,"Ġfemale":3528,"Ġcleanser":3529,"alse":3530,"Ġheld":3531,"ĠCo":3532,"Ġpackaged":3533,"Ġknows":3534,"Ġbadly":3535,"Ġitchy":3536,"Ġweren":3537,"oul":3538,"Ġfire":3539,"Ġpowerful":3540,"arsh":3541,"Ġbene":3542,"vy":3543,"80":3544,"Ġdirected":3545,"roy":3546,"Ġanywhere":3547,"Ġbackground":3548,"Ġteam":3549,"Ġasked":3550,"Ġevil":3551,"ÃŃ":3552,"Ġbat":3553,"Ġfre":3554,"Ġspread":3555,"watch":3556,"arry":3557,"ĠSmells":3558,"ĠAct":3559,"Ġsafe":3560,"Ġopt":3561,"Ġkinda":3562,"Ġgross":3563,"Ġhardly":3564,"oe":3565,"Ġsyn":3566,"iar":3567,"Ġsucks":3568,"Ġvill":3569,"work":3570,"Ġrip":3571,"Ġbelievable":3572,"fi":3573,"Ġdram":3574,"Ġaverage":3575,"Ġrich":3576,"Ġregret":3577,"bers":3578,"Ġdiscover":3579,"Ġult":3580,"acy":3581,"esy":3582,"Ġdog":3583,"Ġtransfer":3584,"ĠFOR":3585,"Ġremover":3586,"Ġtired":3587,"ipe":3588,"ĠSave":3589,"Ġremoved":3590,"Ġdoubt":3591,"Ġvisual":3592,"Ġstarting":3593,"Ġmurder":3594,"cle":3595,"ĠDav":3596,"Ġfur":3597,"Ġmeant":3598,"Ġ24":3599,"Ġintell":3600,"...<":3601,"ĠCar":3602,"IR":3603,"aly":3604,"Ġpaper":3605,"Ġhilarious":3606,"Ġleak":3607,"lier":3608,"pow":3609,"Ġpure":3610,"por":3611,"Ġoccas":3612,"Ġpub":3613,"Ġsmud":3614,"How":3615,"Ġtrouble":3616,"Ġsweat":3617,"Ġdye":3618,"Ġtown":3619,"proof":3620,"Ġliving":3621,"Ġten":3622,"ceived":3623,"ĠDr":3624,"Ġevents":3625,"ĠMO":3626,"Ġhealthy":3627,"Ġround":3628,"Ġkeeping":3629,"Ġuncom":3630,"ield":3631,"Ġtelevision":3632,"ĠOh":3633,"Ġdetail":3634,"Ġpen":3635,"!!!!!":3636,"Ġfits":3637,"Ġcreate":3638,"60":3639,"Ġpatch":3640,"Ġcoats":3641,"ĠOnce":3642,"Ġflow":3643,"friend":3644,"njoy":3645,"iver":3646,"uring":3647,"sych":3648,"ĠHave":3649,"ĠPlus":3650,"ĠHope":3651,"Ġroutine":3652,"ressed":3653,"Ġdefin":3654,"Ch":3655,"Ġsurprise":3656,"----":3657,"ĠMichael":3658,"Ġknock":3659,"Ġnote":3660,"orough":3661,"Ġtangled":3662,"Ġanimation":3663,"ĠBra":3664,"Ġfinished":3665,"Ġagree":3666,"Ġobs":3667,"Ġsummer":3668,"Ġpotential":3669,"De":3670,"aven":3671,"ĠBad":3672,"LD":3673,"ette":3674,"ĠBy":3675,"Ġscrew":3676,"Ġsystem":3677,"een":3678,"Ġtypical":3679,"Ġtre":3680,"Ġmentioned":3681,"standing":3682,"ĠJapan":3683,"Ġinit":3684,"Ġdied":3685,"Ġfigured":3686,"Ġlearned":3687,"hes":3688,"ĠAlthough":3689,"Like":3690,"Ġsix":3691,"Ġplenty":3692,"Ġmelt":3693,"Ġsuppose":3694,"ned":3695,"SE":3696,"ĠChe":3697,"Ġmark":3698,"Ġwide":3699,"Ġinvolved":3700,"ires":3701,"ium":3702,"Ġrealistic":3703,"belie":3704,"Easy":3705,"ingly":3706,"Ġeyebrows":3707,"Ġtint":3708,",\"":3709,"Ġextensions":3710,"Ġrecord":3711,"Ġreviewers":3712,"gar":3713,"Ġsubtle":3714,"BLE":3715,"Ġconcern":3716,"Ġunique":3717,"antic":3718,"Ġparticularly":3719,"Ġstandard":3720,"Ġrefer":3721,"imp":3722,"come":3723,"Ġcounter":3724,"ðŁĳ":3725,"Ġtruth":3726,"Ġrazors":3727,"Ġexist":3728,"Ġsurv":3729,"Ġrelationship":3730,"uing":3731,"Ġwall":3732,"here":3733,"ĠSH":3734,"asc":3735,"Ġpulled":3736,"Ġhell":3737,"Ġsponge":3738,"Ġmild":3739,"Ġholding":3740,"Ġpat":3741,"Ġ0":3742,"eed":3743,"ada":3744,"pend":3745,"ĠSE":3746,"Ġpaint":3747,"Ġfocus":3748,"enced":3749,"Ġconsidering":3750,"acing":3751,"Ġran":3752,"ĠReturn":3753,"Ġrare":3754,"UR":3755,"ĠFl":3756,"Ġpigment":3757,"rant":3758,"Ġaltern":3759,"too":3760,"Ġminim":3761,"ĠBest":3762,"Ġpictured":3763,"ĠGo":3764,"Ġwip":3765,"rom":3766,"AC":3767,"Ġbeat":3768,"Ġtries":3769,"Ġwat":3770,"REAT":3771,"Ġcant":3772,"Ġprint":3773,"ionally":3774,"onderful":3775,"Ġwanting":3776,"Ġgun":3777,"Ġsubst":3778,"Ġmeet":3779,"Ġvs":3780,"Ġplain":3781,"Ġlighter":3782,"Ġunus":3783,"Ġplaces":3784,"Ġtelling":3785,"Ġhighlight":3786,"Ġstayed":3787,"Ġcomplex":3788,"Ġrespect":3789,"rific":3790,"Ġwhether":3791,"Ġbreaking":3792,"Ġmusical":3793,"Ã¡":3794,"Ġrock":3795,"Ġlift":3796,"Ġbirth":3797,"Super":3798,"Ġdollars":3799,"Ġtreatment":3800,"Ġsitting":3801,"Ġemb":3802,"Ġdirty":3803,"face":3804,"ĠProduct":3805,"Ġbleach":3806,"Ġafford":3807,"oooo":3808,"Ġstated":3809,"Ġappro":3810,"kin":3811,"Can":3812,"ĠAmerica":3813,"Ġut":3814,"ĠEVER":3815,"Ġdouble":3816,"ĠNice":3817,"Ġdigital":3818,"Absolutely":3819,"erman":3820,"Ġprimer":3821,"Ġprovide":3822,"Ġclosed":3823,"aul":3824,"Ġdream":3825,"Ġsides":3826,"ache":3827,"Ġbutton":3828,"Ġbored":3829,"Ġgeneral":3830,"Ġvariety":3831,"gest":3832,"iding":3833,"Ġwand":3834,"ĠBlack":3835,"To":3836,"yl":3837,"Ġid":3838,"estern":3839,"erc":3840,"ilt":3841,"ĠAN":3842,"oking":3843,"Ġbenef":3844,"Ġwindow":3845,"cious":3846,"cel":3847,"Ġparents":3848,"Ġcard":3849,"cond":3850,"conut":3851,"Ġjoke":3852,"Every":3853,"Ġdestroy":3854,"Ġmoves":3855,"Ġ40":3856,"Ġmachine":3857,"Ġvan":3858,"Ġallergic":3859,"Ġincredible":3860,"Ġscience":3861,"Ġsick":3862,"ĠHair":3863,"ressing":3864,"ĠGe":3865,"Ġkilled":3866,"Ġmodel":3867,"otton":3868,"ĠJames":3869,"ĠX":3870,"15":3871,"ify":3872,"ager":3873,"Ġtrust":3874,"Ġsequel":3875,"orable":3876,"Ġspoil":3877,"ONE":3878,"Ġvarious":3879,"ushing":3880,"Ġmatte":3881,"Ġconven":3882,"Ġsilky":3883,"Ġdie":3884,"Ġsealed":3885,"Ġbegan":3886,"Ġcamp":3887,"Amazing":3888,"Ġcinemat":3889,"Ġbeautifully":3890,"ĠTot":3891,"AP":3892,"Ġyounger":3893,"Ġhigher":3894,"Ġsomehow":3895,"Ġmarket":3896,"Ġfollowing":3897,"Ġruined":3898,"ĠSince":3899,"Ġcoconut":3900,"Ġinclude":3901,"ALLY":3902,"Ġregard":3903,"Ġmessy":3904,"ĠInstead":3905,"HS":3906,"imate":3907,"Ġindividual":3908,"Ġ60":3909,"icle":3910,"gain":3911,"Ġmouth":3912,"Ġbasic":3913,"met":3914,"Ġansw":3915,"Ġchemicals":3916,"Ġproduced":3917,"ode":3918,"ĠBritish":3919,"Ġcompar":3920,"ball":3921,"unity":3922,"Ġdef":3923,".&#":3924,"Ġtrick":3925,"Ġbrilliant":3926,"ĠPet":3927,"Ġfly":3928,"Ġtwists":3929,"Ġ#":3930,"Ġtypes":3931,"Ġuncomfortable":3932,"ĠSad":3933,"Ġpores":3934,"orgeous":3935,"ai":3936,"Ġpersonally":3937,"Ġpaying":3938,"Ġunable":3939,"Ġaf":3940,"Ġwit":3941,"uted":3942,"Ġforced":3943,"apped":3944,"Ġsci":3945,"Ġexperi":3946,"Only":3947,"Ġmid":3948,"Ġfinding":3949,"oph":3950,"Ġsmoothly":3951,"aturally":3952,"ĠCle":3953,"Ġrev":3954,"Ġrelax":3955,"Ġland":3956,"anch":3957,"Ġlayer":3958,"rel":3959,"Ġfir":3960,"Ġgenre":3961,"ENT":3962,"Ġpsych":3963,"Ġunlike":3964,"etter":3965,"Ġhealth":3966,"Ġuns":3967,"yn":3968,"Ġprime":3969,"Ġlose":3970,"Ġfault":3971,"istry":3972,"aa":3973,"Ġsuperb":3974,"Ġadmit":3975,"Ġeventually":3976,"Ġdetang":3977,"Ġstock":3978,"ĠTre":3979,"Ġlaw":3980,"thetic":3981,"Ġtheme":3982,"Ġspir":3983,"yp":3984,"Ġloss":3985,"Ġjump":3986,"ĠSP":3987,"rd":3988,"Ġirritation":3989,"Ġelectric":3990,"Ġmanage":3991,"ev":3992,"Ġfailed":3993,"ino":3994,"ĠInd":3995,"Ġdepth":3996,"ngth":3997,"ĠRobert":3998,"Ġwebs":3999,"While":4000,"host":4001,"Ġanti":4002,"Ġconce":4003,"anced":4004,"ION":4005,"Ġgrab":4006,"Ġadvent":4007,"Ġthorough":4008,"Ġpolitical":4009,"GE":4010,"ĠHard":4011,"rylic":4012,"Ġlower":4013,"Ġmeaning":4014,"ropri":4015,"ĠBat":4016,"Ġmuy":4017,"Ġcotton":4018,"Ġpoints":4019,"ability":4020,"Ġdevice":4021,"key":4022,"Ġapparently":4023,"Ġwinter":4024,"itions":4025,"Ġoffer":4026,"Ġarms":4027,"Ġclothes":4028,"aling":4029,"Ġadapt":4030,"Ġlisted":4031,"ĠWOR":4032,"uter":4033,"Ġtrad":4034,"Ġdrill":4035,"Ġfalse":4036,"you":4037,"ĠDisappointed":4038,"Ġmoisturized":4039,"ĠBig":4040,"hood":4041,"ĠDan":4042,"Ġcal":4043,"Overall":4044,"ĠVHS":4045,"Ġcup":4046,"Ġ*":4047,"Ġphys":4048,"Ġlightweight":4049,"Ġcontains":4050,"Ġintrig":4051,"Ġfol":4052,"erv":4053,"Ġcreated":4054,"Me":4055,"Ġformat":4056,"onna":4057,"Ġmill":4058,"Ġwatery":4059,"uction":4060,"ris":4061,"Ġsand":4062,"Ġsounds":4063,"inge":4064,"af":4065,"tte":4066,"Ġ18":4067,"Ġprior":4068,"Ġpers":4069,"Ġrose":4070,"Ġment":4071,"ðŁı":4072,"Ġmystery":4073,"Ġcompare":4074,"Ġessential":4075,"night":4076,"ĠRed":4077,"VIE":4078,"ĠIm":4079,"ek":4080,"Ġbrother":4081,"Ġcomplaint":4082,"Ġmonster":4083,"Ġtat":4084,"urt":4085,"Ġalot":4086,"Ġtalent":4087,"Ġcheesy":4088,"Ġreplaced":4089,"Ġbonus":4090,"inse":4091,"Ġintr":4092,"Ġcovered":4093,"Some":4094,"Ġcinematography":4095,"Ġfilmed":4096,"imately":4097,"Ġwrap":4098,"iel":4099,"uit":4100,"eming":4101,"ĠPerfect":4102,"rest":4103,"Ġaccident":4104,"Ar":4105,"kward":4106,"Ġprep":4107,"40":4108,"Ġfurther":4109,"Ġhasn":4110,"Ġexec":4111,"Ġhoped":4112,"ĠApp":4113,"Ġdaughters":4114,"Ġpreviously":4115,"sp":4116,"aur":4117,"Ġcaught":4118,"12":4119,"Ġunf":4120,"Ġarm":4121,"Ġsour":4122,"Ġlamp":4123,"Ġrelig":4124,"???":4125,"000":4126,"Ġtheater":4127,"Ġmail":4128,"entic":4129,"Its":4130,"Ġtable":4131,"Ġtweezers":4132,"Ġdurable":4133,"Ġedges":4134,"Ġshipped":4135,"eds":4136,"Ġaccurate":4137,"Ġchall":4138,"Ġroles":4139,"Ġpeeling":4140,"Ġwrink":4141,"Ġgreatest":4142,"Ġbul":4143,"cer":4144,"ica":4145,"Ġtrack":4146,"Ġbreat":4147,"Ġach":4148,"Ġcreep":4149,"Look":4150,"Ġsofter":4151,"uts":4152,"ontin":4153,"Ġearlier":4154,"ĠPro":4155,"Ġlame":4156,"reshing":4157,"Ġrand":4158,"Ġupdate":4159,"Ġproject":4160,"rays":4161,"ĠFrom":4162,"Ġabsolute":4163,"Ġdim":4164,"Ġclich":4165,"Ġroller":4166,"ished":4167,"Ġesc":4168,"Ġthanks":4169,"Ġirritated":4170,"Ġexciting":4171,"Ġdramatic":4172,"Ġclipper":4173,"Ġtraveling":4174,"orter":4175,"Ġhooked":4176,"whel":4177,"Ġhistorical":4178,"Ġpara":4179,"Ġparty":4180,"Ġwaterproof":4181,"Ġacrylic":4182,"Ġharsh":4183,"arning":4184,"Ġcrack":4185,"......":4186,"Ġstrength":4187,"Ġtowel":4188,"Ġversions":4189,"Ġhelpful":4190,"Ġmembers":4191,"Ġaware":4192,"ĠKing":4193,"isk":4194,"Ġaccess":4195,"Ġadults":4196,"Ġ!!":4197,"Ġrated":4198,"ointed":4199,"ĠCG":4200,"ĠBoth":4201,"well":4202,"Ġviewers":4203,"Ġextras":4204,"Ġrandom":4205,"Ġcos":4206,"Ġcat":4207,"ASIN":4208,"Ġign":4209,"ivers":4210,"Ġfood":4211,"Ġdetails":4212,"Ġgray":4213,"erry":4214,"Cl":4215,"Ġworn":4216,"Ġwebsite":4217,"ously":4218,"Ġcollect":4219,"Ġshoot":4220,"LO":4221,"Ġphotos":4222,"Ġtend":4223,"ieve":4224,"Ġdollar":4225,"Ġintellig":4226,"tense":4227,"Ġintended":4228,"ĠBecause":4229,"Ġpossibly":4230,"ĠMore":4231,"rid":4232,"Ġsuit":4233,"Ġwaited":4234,"ĠTwo":4235,"Ġgraph":4236,"avender":4237,"ĠPRO":4238,"Ġdeveloped":4239,"Ġtools":4240,"ĠWay":4241,"Ġskip":4242,"BS":4243,"Ġgorgeous":4244,"daughter":4245,"ension":4246,"itary":4247,"Ġteeth":4248,"Ġvibr":4249,"Ġdoesnt":4250,"Ġpil":4251,"ĠMY":4252,"Ġlady":4253,"Ġpractice":4254,"aker":4255,"ĠLI":4256,"ĠLast":4257,"Ġtrailer":4258,"Ġplayers":4259,"Ġcomic":4260,"rated":4261,"Ġdirectly":4262,"arily":4263,"Ġpublic":4264,"akers":4265,"Ġcombination":4266,"ĠChristian":4267,"anda":4268,"Ġtells":4269,"Ġwore":4270,"Ġtough":4271,"leading":4272,"Ġwriter":4273,"Ġnaturally":4274,"Ġsignific":4275,"Ġrot":4276,"dy":4277,"EST":4278,"assic":4279,"Pretty":4280,"Ġnoticeable":4281,"Ġver":4282,"Ġimage":4283,"ĠFin":4284,";,":4285,"ĠMakes":4286,"Ġclaims":4287,"Ġimprovement":4288,"Ġmale":4289,"Ġbrings":4290,"Ġjokes":4291,"Ġvac":4292,"ĠDavid":4293,"ral":4294,"Ġrinse":4295,"Ġholes":4296,"Ġund":4297,"Ġ[":4298,"ĠMor":4299,"ĠSomet":4300,"Ġreve":4301,"UP":4302,"Ġawkward":4303,"track":4304,"Ġcheaply":4305,"Ġintense":4306,"ĠTe":4307,"Ġhers":4308,"Ġchoose":4309,"Ġ13":4310,"Ġmi":4311,"Ġwavy":4312,"Ġscenery":4313,"Ġhated":4314,"Ġbatteries":4315,"Ġchemistry":4316,"Ġoriginally":4317,"Ġske":4318,"Ġfavorites":4319,"Ġunbelie":4320,"they":4321,"Ġgrip":4322,"Ġsample":4323,"ĠFrench":4324,"Che":4325,"Ġstate":4326,"Ġconceal":4327,"omp":4328,"Ġsciss":4329,"Ġsurprising":4330,"Ġreasons":4331,"Ġcharged":4332,"Ġgrowing":4333,"Ġrins":4334,"arrass":4335,"UL":4336,"Ġbiggest":4337,"Ġsudd":4338,"Ġwrote":4339,"Ġruns":4340,"Ġfaith":4341,"olution":4342,"Ġbreaks":4343,"CE":4344,"TER":4345,"Ġsqueez":4346,"do":4347,"Ġtemper":4348,"Ġmagic":4349,"Ġbreakout":4350,"Ġpath":4351,"Ġpor":4352,"Ġsudden":4353,"Got":4354,"arget":4355,"Ġremoving":4356,"Ġripped":4357,"arse":4358,"ĠHD":4359,"Used":4360,"Ġ70":4361,"Ġ16":4362,"ĠSam":4363,"Pr":4364,"Ġcartoon":4365,"obably":4366,"Ġrollers":4367,"Ġprod":4368,"amin":4369,"Ġwrapped":4370,"Ġbuff":4371,"with":4372,"____":4373,"asty":4374,"Ġauthentic":4375,"Ġgir":4376,"rs":4377,"Ġcommer":4378,"idence":4379,"ĠCol":4380,"UST":4381,"look":4382,"70":4383,"Ġquit":4384,"Ġpriced":4385,"ĠBond":4386,"ĠUs":4387,"Ġrefreshing":4388,"Ġbatch":4389,"onestly":4390,"Ġingredient":4391,"ĠSch":4392,"Ġhadn":4393,"Poor":4394,"Ġsoci":4395,"Ġindic":4396,"Ġconnect":4397,"Ġromantic":4398,"Ġbrows":4399,"!)":4400,"Ġuseful":4401,"Ġdisapp":4402,"Ġrob":4403,"atisf":4404,"Ġshare":4405,"Ġcomputer":4406,"Mo":4407,"lu":4408,"ĠTried":4409,"Ġdisgusting":4410,"Ġchap":4411,"Ġproducto":4412,"avor":4413,"Ġcompe":4414,"rage":4415,"Ġpulling":4416,"At":4417,"une":4418,"Ġdelight":4419,"Or":4420,"ios":4421,"Ġseparate":4422,"Ġpresented":4423,"Ġtangles":4424,"Ġquestions":4425,"ropriate":4426,"Ġsink":4427,"Ġattached":4428,"Ġshut":4429,"ĠSim":4430,"rap":4431,"net":4432,"13":4433,"Ġentirely":4434,"Ġera":4435,"Ġfaster":4436,"Ġzomb":4437,"Boring":4438,"olid":4439,"icy":4440,"Ġanime":4441,"He":4442,"Ġshots":4443,"Ġturning":4444,"ĠTHAT":4445,"Ġfamiliar":4446,"icks":4447,"Ġburns":4448,"Ġapplicator":4449,"Ġmad":4450,"Ġbucks":4451,"Ġpicked":4452,"Ġoptions":4453,"Ġoverpow":4454,"Ġforgot":4455,"Ġlu":4456,"Ġthoroughly":4457,"wor":4458,"ATE":4459,"others":4460,"Ġtowards":4461,"Ġreapp":4462,"Ġcolored":4463,"lfriend":4464,"Le":4465,"lly":4466,"ĠAb":4467,"ET":4468,"Ġdisk":4469,"Ġwhatso":4470,"Ġexperienced":4471,"Ġprovides":4472,"Ġdrop":4473,"ĠJapanese":4474,"Ġgonna":4475,"Ġeyesh":4476,"Ġcommon":4477,"urchased":4478,"Ġsoundtrack":4479,"Ġcasting":4480,"Ġembarrass":4481,"Ġbirthday":4482,"Ġsplit":4483,"ĠGu":4484,"Ġbattle":4485,"Ġpolice":4486,"Ġwhatsoever":4487,"gic":4488,"Ġnature":4489,"Ġexte":4490,"Ġsizes":4491,"leep":4492,"Ġshedding":4493,"Ġident":4494,"Ġpacked":4495,"Ġfloor":4496,"Ġsecret":4497,"Ġstun":4498,"Ġcrew":4499,"Ġportrayed":4500,"Ġappearance":4501,"dry":4502,"Ġcri":4503,"oses":4504,"Ġcommentary":4505,"ĠOtherwise":4506,"Ġbeware":4507,"MAZ":4508,"Ġrecent":4509,"Ġcreamy":4510,"Ġromance":4511,"hor":4512,"Ġray":4513,"Ġamong":4514,"Bad":4515,"ĠPar":4516,"Ġcommercial":4517,"Ġlights":4518,"izer":4519,"icted":4520,"Ġsolution":4521,"Ġstain":4522,"Ġrede":4523,"Ġtradition":4524,"Ġleaking":4525,"Ġbum":4526,"ĠLoved":4527,"Ġsmart":4528,"aries":4529,"Ġgrowth":4530,"Ġsituation":4531,"Unfortunately":4532,"Ġ11":4533,"Ġaut":4534,"Ġscissors":4535,"ĠWW":4536,"anted":4537,"Ġsocial":4538,"ashion":4539,"Ġrepres":4540,"Ġhom":4541,"Ġstraighten":4542,"That":4543,"Ġoz":4544,"Ġshadow":4545,"Ġsoak":4546,"Ġwashes":4547,"Up":4548,"Ġexerc":4549,"Ġprotection":4550,"mes":4551,"gl":4552,"ĠGet":4553,"Ġpin":4554,"cing":4555,"Ġaffect":4556,"Ġimpro":4557,"Ġfolks":4558,"gly":4559,"pected":4560,"Ġhappening":4561,"ĠJe":4562,"Ġmins":4563,"Ġlearning":4564,"Ġstyling":4565,"that":4566,"Have":4567,"char":4568,"Ġglo":4569,"ĠRay":4570,"Ġboyfriend":4571,"Ġexplain":4572,"Ġinex":4573,"Ġchair":4574,"pensive":4575,"Ġsurface":4576,"Ġemotional":4577,"Ġprovided":4578,"Ġahead":4579,"ivity":4580,"ĠBob":4581,"Ġsticks":4582,"Ġshouldn":4583,"ĠDes":4584,"arth":4585,"Ġdance":4586,"Ġbi":4587,"Ġabsorb":4588,"Ray":4589,"Ġboys":4590,"bric":4591,"Ġpopular":4592,"cur":4593,"Ġgrew":4594,"Ġrubber":4595,"eg":4596,"Ġsection":4597,"Ġtoss":4598,"Ġunsc":4599,"ĠLooks":4600,"alloween":4601,"Ġcharging":4602,"Ġsomewhere":4603,"Ġselling":4604,"ĠCH":4605,"ius":4606,"raid":4607,"Ġur":4608,"Ġfantasy":4609,"umin":4610,"Ġneither":4611,"ashed":4612,"Ġencou":4613,"Ġsoaps":4614,"oz":4615,"Ġhype":4616,"Ġwipe":4617,"Ġlif":4618,"nam":4619,"Ġdanc":4620,"Ġattract":4621,"Ġcure":4622,"Ġpony":4623,"Ġglow":4624,"Ġlim":4625,"Ġenv":4626,"Ġtale":4627,"Ġstage":4628,"ente":4629,"gy":4630,"Ġability":4631,"Ġtap":4632,"board":4633,"ald":4634,"ĠMay":4635,"Ġmisleading":4636,"Ġeduc":4637,"Ġdesigned":4638,"Ġsheer":4639,"Would":4640,"Ġsuck":4641,"ively":4642,"Ġcomplaints":4643,"andy":4644,"DU":4645,"Ġfiction":4646,"Ġthrown":4647,"Ġmoisturize":4648,"icles":4649,"natural":4650,"uine":4651,"upp":4652,"Ġowned":4653,"hh":4654,"ĠDay":4655,"Ġconfusing":4656,"Why":4657,"ĠMOVIE":4658,"Ġfrustrating":4659,"Ġclever":4660,"iven":4661,"Ġtack":4662,"ĠTrek":4663,"ĠSorry":4664,"Ġoverly":4665,"Ġattack":4666,"Ġgod":4667,"Ġbits":4668,"otic":4669,"Ġoutstanding":4670,"ĠAng":4671,"Ġsme":4672,"Ġwondering":4673,"Ġfoil":4674,"Ġcorrectly":4675,"ĠONE":4676,"Ġvict":4677,"Ġfool":4678,"Had":4679,"athers":4680,"commend":4681,"Ġadds":4682,"Ġ25":4683,"Ġthru":4684,"Ġpad":4685,"ĠGREAT":4686,"Ġprevent":4687,"Ġstraightener":4688,"Ġspark":4689,"ĠAf":4690,"ĠGerman":4691,"Ġstates":4692,"stal":4693,"ĠEm":4694,"ogn":4695,"omen":4696,"ĠTra":4697,"ĠEX":4698,"Ġproducers":4699,"ĠAT":4700,"ival":4701,"Ġmanic":4702,"ĠPaul":4703,"Ġdisplay":4704,"Ġelements":4705,"Ġcompet":4706,"ĠWilliam":4707,"esides":4708,"cut":4709,"Ġbang":4710,"hile":4711,"ĠEverything":4712,"Ġcab":4713,"arted":4714,"Ġspeed":4715,"Ġtemperature":4716,"tt":4717,"Ġdiscontin":4718,"Ġsynthetic":4719,"Ġremake":4720,"aint":4721,"Ġjour":4722,"Ġfighting":4723,"agon":4724,"25":4725,"Ġunne":4726,"ĠCGI":4727,"Ġjud":4728,"Ġawhile":4729,"ĠKeep":4730,"Ġgrit":4731,"Ġcru":4732,"ĠWorth":4733,"ĠPerhaps":4734,"ana":4735,"Ġaccount":4736,"writ":4737,"vin":4738,"Ġgirlfriend":4739,"ands":4740,"Ġmini":4741,"ĠGeorge":4742,"aky":4743,"Ġsadly":4744,"Ġroots":4745,"Ġtea":4746,"Ġelsewhere":4747,"ĠRich":4748,"ization":4749,"ibility":4750,"Ġaffordable":4751,"Beautiful":4752,"Ġknowing":4753,"Ġearth":4754,"lies":4755,"eper":4756,"Ġpressure":4757,"Ġdanger":4758,"list":4759,"Ġconvenient":4760,"oos":4761,"Ġchose":4762,"Ġoverpowering":4763,"11":4764,"Ġscented":4765,"Ġskept":4766,"Ġlavender":4767,"ocre":4768,"Ġsucked":4769,"oad":4770,"lor":4771,"Ġsecure":4772,"Ġoverwhel":4773,"Ġstronger":4774,"Ġafraid":4775,"ulf":4776,"ĠMade":4777,"Ġdecide":4778,"Ġedition":4779,"Ġallowed":4780,"Ġblock":4781,"Ġfasc":4782,"Ġcrime":4783,"Ġcurler":4784,"Ġmanufactur":4785,"Ġediting":4786,"Ġadding":4787,"Ġdrink":4788,"OOD":4789,"Ġbumps":4790,"did":4791,"Ġcomments":4792,"lix":4793,"Ġgenuine":4794,"Now":4795,"ĠAL":4796,"tain":4797,"Ġclumpy":4798,"Ġwhose":4799,"Ġwild":4800,"Ġdad":4801,"Ġfilmm":4802,"Ġbund":4803,"action":4804,"ĠAw":4805,"piece":4806,"Ġfab":4807,"Ġnecessary":4808,"........":4809,"****":4810,"dered":4811,"ĠCould":4812,"Ġsaf":4813,"burn":4814,"ĠEur":4815,"ĠWal":4816,"round":4817,"Also":4818,"ĠHalloween":4819,"Ġforce":4820,"now":4821,"Ġbags":4822,"22":4823,"Ġcovers":4824,"Ġflash":4825,"ĠDra":4826,"cast":4827,"ĠBen":4828,"TE":4829,"Ġ14":4830,"Ġscore":4831,"Ġinches":4832,"Ġsteam":4833,"onic":4834,"Ġorganic":4835,"Ġfrequ":4836,"Ġstere":4837,"Ġleads":4838,"ugged":4839,"reg":4840,"Ġrented":4841,"Ġanimated":4842,"Ġdu":4843,"Ġworry":4844,"Ġreminds":4845,"ĠCO":4846,"Ġmoved":4847,"ĠAMAZ":4848,"inating":4849,"Ġgenerally":4850,"ĠBB":4851,"ĠWhich":4852,"Ġblur":4853,"Ġfriendly":4854,"Ġincre":4855,"antastic":4856,"Ġbrow":4857,"Ġcompact":4858,"ceed":4859,",,":4860,"Ġcontinues":4861,"Ġstat":4862,"Ġslowly":4863,"ĠNet":4864,"Ġpulls":4865,"Ġground":4866,"ĠDE":4867,"ĠWorld":4868,"iences":4869,"Wow":4870,"Ġ!!!":4871,"Ġwipes":4872,"annel":4873,"Ġminor":4874,"Ġassum":4875,"Ġstreak":4876,"Nothing":4877,",<":4878,"Ġtooth":4879,"ĠWon":4880,"Ġcredit":4881,"Ġheadband":4882,"Ġthrowing":4883,"cket":4884,"Ġreturns":4885,"orel":4886,"Ġcostumes":4887,"Ġideas":4888,"AM":4889,"Ġherself":4890,"Ġincludes":4891,"Ġsilver":4892,"Ġsinging":4893,"Ġcareer":4894,"Ġdistur":4895,"Ġoffice":4896,"Ġlaughs":4897,"ico":4898,"Ġconcealer":4899,"ulation":4900,"hy":4901,"Ġcolle":4902,"Ġspirit":4903,"II":4904,"Ã±":4905,"Ġcreepy":4906,"Ġshorter":4907,"Ġgranddaughter":4908,"Ġbom":4909,"rog":4910,"Ġopport":4911,"iron":4912,"Ġbow":4913,"can":4914,"ushed":4915,"Ġspending":4916,"Ġtouching":4917,"Ġfu":4918,"Ġloving":4919,"Ġreasonable":4920,"Ġsooo":4921,"âĢĶ":4922,"Ġregion":4923,"Ġsettings":4924,"90":4925,"Ġwont":4926,"Ġwilling":4927,"Ġcloser":4928,"Ġseg":4929,"Ġconcert":4930,"ĠUsed":4931,"ideo":4932,"Ġbelow":4933,"icing":4934,"arant":4935,"ifically":4936,"ĠLet":4937,"Ġdip":4938,"ĠPoor":4939,"Ġsafety":4940,"ĠAc":4941,"Watch":4942,"Ġhint":4943,"Ġsexual":4944,"iment":4945,"asant":4946,"Ġunusable":4947,"Ġpill":4948,"ĠShow":4949,"essed":4950,"Ġdoor":4951,"rey":4952,"Ġadhes":4953,"ĠFrank":4954,"Ġspin":4955,"ĠHas":4956,"vern":4957,"Ġeyeshadow":4958,"Ġdiscovered":4959,".,":4960,"Ġcompelling":4961,"Ġexch":4962,"ipper":4963,"Ġexcess":4964,"Ġcausing":4965,"Ġfashion":4966,"ĠNEVER":4967,"Ġwrinkles":4968,"Ġpace":4969,"Ġplaced":4970,"ĠPeter":4971,"rical":4972,"Ġgrey":4973,"ĠNor":4974,"who":4975,"orelco":4976,"DUCT":4977,"With":4978,"Ġpricey":4979,"Ġoffic":4980,"ett":4981,"Ġbrain":4982,"ĠSecond":4983,"Wonderful":4984,"omin":4985,"usted":4986,"Ġkey":4987,"Ġmassage":4988,"lock":4989,"Ġdeg":4990,"ĠMart":4991,"Ġdepressing":4992,"ĠExcellent":4993,"Ġcreams":4994,"Ġquiet":4995,"ĠAS":4996,"ĠLuc":4997,"Ġunbelievable":4998,"entially":4999,"Ġbc":5000,"Ġsale":5001,"Ġbuilt":5002,"Ġenjoying":5003,"zzle":5004,"Ġdescribe":5005,"Ġwestern":5006,"Ġpurse":5007,"ĠTerrible":5008,"Ġinspir":5009,"Ġfirm":5010,"Ġappeared":5011,"Ġfinds":5012,"Ġproof":5013,"almart":5014,"UN":5015,"uffy":5016,"star":5017,"ĠSpe":5018,"Ġlisten":5019,"ye":5020,"xtremely":5021,"Ġeyebrow":5022,"Ġtill":5023,"ĠColor":5024,"Ġscratched":5025,"Thank":5026,"Com":5027,"Ġsite":5028,"Ġculture":5029,"Ġmeth":5030,"down":5031,"Ġengaging":5032,"Ġdub":5033,"happy":5034,"Ġkilling":5035,"Ġshap":5036,"emy":5037,"Ġcompan":5038,"GHT":5039,"Ġhes":5040,"Ġlayers":5041,"Ġfabulous":5042,"Ġutter":5043,"eral":5044,"Ġsaved":5045,"14":5046,"Ġafterwards":5047,"Ġdirecting":5048,"Ġlas":5049,"Ġterrific":5050,"ĠTime":5051,"Ġstrip":5052,"Ġrecogn":5053,"Ġterms":5054,"ctions":5055,"Ġgore":5056,"Ġelastic":5057,"Ġslip":5058,"Ġthriller":5059,"ĠEs":5060,"ĠANY":5061,"che":5062,"Ġminimal":5063,"Ġadvertising":5064,"Ġsupporting":5065,"Ġpacks":5066,"Ġclog":5067,"Ġcit":5068,"Ġexpired":5069,"Ġirritating":5070,"Ġpresentation":5071,"ĠWars":5072,"ieved":5073,"Ġviolent":5074,"Ġnons":5075,"roke":5076,"Ġfi":5077,"ĠStory":5078,"ĠEurope":5079,"ĠOil":5080,"Ġeyelash":5081,"acle":5082,"olds":5083,"Ġugly":5084,"itamin":5085,"Ġcreative":5086,"ĠUlt":5087,"Ġasleep":5088,"Ġskeptical":5089,"Ġinn":5090,"ĠPRODUCT":5091,"Ġevenly":5092,"Ġdetect":5093,"Ġpolishes":5094,"ĠEach":5095,"Ġdispens":5096,"ĠNorelco":5097,"Ġseat":5098,"Ġtoner":5099,"Ġsending":5100,"itt":5101,"Ġscient":5102,"Ġalien":5103,"Ġghost":5104,"Ġmilitary":5105,"Ġnasty":5106,"aled":5107,"Ġbars":5108,"ĠJul":5109,"made":5110,"ĠPretty":5111,"ĠComplete":5112,"Ġadventure":5113,"Qu":5114,"pective":5115,"Ġgovern":5116,"hips":5117,"ĠAnother":5118,"Ġmic":5119,"ĠUSA":5120,"Ġtree":5121,"Ġsized":5122,"Ġpointless":5123,"ague":5124,"Ġlacking":5125,"Received":5126,"Ġsociety":5127,"Ġterribly":5128,"Ġdeserves":5129,"Ġlace":5130,"Ġcosmet":5131,"Arrived":5132,"Ġbomb":5133,"Ġce":5134,"Ġcauses":5135,"Ġsubs":5136,"Ġdropped":5137,"usion":5138,"Cheap":5139,"bble":5140,"Ġlived":5141,"Ġpilot":5142,"Ġportrayal":5143,"Ġmasks":5144,"Ġlaughing":5145,"Ġchanging":5146,"RA":5147,"Ġ/>*":5148,"ĠSuch":5149,"Ġphone":5150,"Ġkiller":5151,"ĠWood":5152,"actly":5153,"Ġfunction":5154,"Ġmal":5155,"oga":5156,"Ġrad":5157,"ĠJes":5158,"Ġmediocre":5159,"Ġnowhere":5160,"ders":5161,"Ġweigh":5162,"flix":5163,"Ġcontinu":5164,"Ġalternative":5165,"Will":5166,"ĠChina":5167,"âĿ":5168,"Ġinterviews":5169,"Ġmotor":5170,"ĠLots":5171,"lin":5172,"Ġstrand":5173,"Ġkick":5174,"Ġsuction":5175,"Ġfear":5176,"Ġuser":5177,"oman":5178,"Ġthinner":5179,"Ġcity":5180,"Ġspilled":5181,"iqu":5182,"Even":5183,"Ġoffered":5184,"king":5185,"RIBLE":5186,"US":5187,"Ġrac":5188,"OULD":5189,"Ġanimals":5190,"Ġrepeated":5191,"ĠHarry":5192,"Ġdislike":5193,"ĠEarth":5194,"!!!!!!!!":5195,"Ġimages":5196,"Ġrisk":5197,"Ġblush":5198,"Ġbubb":5199,"Ġoppos":5200,"Ġbegins":5201,"Ġmanner":5202,"++":5203,"16":5204,"Came":5205,"ha":5206,"Ġfunn":5207,"Ġvictim":5208,"Ġnud":5209,"Ġmemories":5210,"Ġfranch":5211,"ĠLee":5212,"Ġtubes":5213,"appointing":5214,"Ġrubbing":5215,"Ġmed":5216,"Ġinstantly":5217,"Ġcombs":5218,"ĠRock":5219,"Ġauthor":5220,"ĠDead":5221,"Ġevening":5222,"oma":5223,"ĠYouT":5224,"ĠHAVE":5225,"lon":5226,"Ġshades":5227,"oral":5228,"Ġdelic":5229,"Ġirritate":5230,"Ġjo":5231,"ĠReg":5232,"Ġcases":5233,"Ġnet":5234,"ribut":5235,"lection":5236,"Ġcraft":5237,"Ġinsight":5238,"Ġsevere":5239,"?)":5240,"Ġadaptation":5241,"Ġshampoos":5242,"ĠRuss":5243,"ĠDON":5244,"Ġallows":5245,"Ġunreal":5246,"Ġtalented":5247,"Ġlighting":5248,"ĠBatman":5249,"Although":5250,"Ġconcerned":5251,"Ġspect":5252,"yle":5253,"ĠGill":5254,"Ġstamp":5255,"Ġprec":5256,"pack":5257,"Ġwarning":5258,"Ġoh":5259,"Ġears":5260,"ĠMag":5261,"ologist":5262,"atisfied":5263,"ancy":5264,"Ġmarks":5265,"Ġadditional":5266,"kets":5267,"bit":5268,"18":5269,"Ġbutt":5270,"Ġarg":5271,"Ġdoctor":5272,"ĠUp":5273,"erous":5274,"Ġfails":5275,"Ġcomparison":5276,"ĠLOT":5277,"Ġhole":5278,"Ġeat":5279,"Ġhesit":5280,"Ġnamed":5281,"ĠAdd":5282,"Definitely":5283,"pisod":5284,"ilet":5285,"lusion":5286,"orted":5287,"Ġmanufacturer":5288,"eno":5289,"mos":5290,"Ġvalues":5291,"Ġunnecessary":5292,"Ġnews":5293,"Ġcleaner":5294,"inary":5295,"Ġasking":5296,"ĠðŁĳ":5297,"Ġexpress":5298,"Ġreapply":5299,"pray":5300,"Ġharder":5301,"KS":5302,"Ġreviewer":5303,"Ġcustomers":5304,"Is":5305,"ĠRy":5306,"free":5307,"ĠMany":5308,"ĠOR":5309,"Ġstreaming":5310,"ĠMat":5311,"ĠWITH":5312,"Ġshocked":5313,"gn":5314,"Ġbeach":5315,"Ġoverwhelming":5316,"Ġfog":5317,"Bl":5318,"Ġabsorbs":5319,"Ġidi":5320,"Ġdrawn":5321,"Ġcollege":5322,"Ġdress":5323,"ORE":5324,"ĠPat":5325,"rus":5326,"rors":5327,"ĠLight":5328,"Made":5329,"kn":5330,"Ġattachments":5331,"ĠPan":5332,"Another":5333,"Ġpatter":5334,"ams":5335,"Ġstereot":5336,"ĠHorrible":5337,"PO":5338,"Ġchildhood":5339,"Ġbrief":5340,"Ġsource":5341,"Ġattempts":5342,"mers":5343,"care":5344,"ledge":5345,"ĠNeed":5346,"ĠGot":5347,"ĠFil":5348,"ĠAbsolutely":5349,"Ġplots":5350,"ĠKind":5351,"atin":5352,"Ġjustice":5353,"Ġages":5354,"ĠJim":5355,"Ġwigs":5356,"Ġflex":5357,"Ġcredits":5358,"Ġpet":5359,"Ġconfused":5360,"Ġmethod":5361,"uke":5362,"Ġap":5363,"Ġspecifically":5364,"Ġbreath":5365,"Ġcoarse":5366,"Ġsqueeze":5367,"Ġconsidered":5368,"ĠBraun":5369,"Enjoy":5370,"Ġmel":5371,"Ġec":5372,"Ġoccur":5373,"asure":5374,"ĠOsc":5375,"ĠAfric":5376,"Br":5377,"ĠAgain":5378,"Ġpads":5379,"berg":5380,"Ġtanning":5381,"Ġmagnetic":5382,"Oh":5383,"Ġcode":5384,"Ġposition":5385,"ERE":5386,"irector":5387,"was":5388,"Ġcross":5389,"Ġnames":5390,"Ġdepart":5391,"ĠSci":5392,"Ġclients":5393,"Yes":5394,"Ġcell":5395,"ĠYouTube":5396,"edding":5397,"Ġcake":5398,"Ġthus":5399,"terday":5400,"Ġnoise":5401,"Ġdefe":5402,"pired":5403,"aganda":5404,"Ġwond":5405,"ANT":5406,"Ġwears":5407,"ĠPeople":5408,"Ġlotions":5409,"Ġsho":5410,"ifying":5411,"Ġfranchise":5412,"ama":5413,"Ġchalleng":5414,"Ġwasting":5415,"ĠSw":5416,"lessly":5417,"arl":5418,"Ġplug":5419,"Ġring":5420,"ĠYOUR":5421,"Ġbur":5422,"priced":5423,"ĠCra":5424,"Ġcontinued":5425,"ĠREALLY":5426,"Ġtransl":5427,"Ġgrown":5428,"Awful":5429,"Ġsituations":5430,"Ġsuperior":5431,"ĠNight":5432,"Ġdesper":5433,"ower":5434,"Ġlimited":5435,"Ġuneven":5436,"Waste":5437,"ĠSeries":5438,"ĠIM":5439,"ĠGold":5440,"Ġworthy":5441,"Ġtie":5442,"ĠAv":5443,"Ġride":5444,"Ġrelative":5445,"cription":5446,"Ġrarely":5447,"bor":5448,"ĠYour":5449,"Ġdrops":5450,"plic":5451,"ĠMake":5452,"pleasant":5453,"Ġconsum":5454,"Ġroot":5455,"Ġtraditional":5456,"year":5457,"ĠHere":5458,"Ġsearching":5459,"ĠPart":5460,"aff":5461,"Ġ....":5462,"Ġgifts":5463,"ĠBought":5464,"ogy":5465,"Ġstraw":5466,"17":5467,"Ġpattern":5468,"Ġapproach":5469,"âĿ¤":5470,"Ġbands":5471,"Ġfabric":5472,"Ġnudity":5473,"Ġscream":5474,"Ġspecific":5475,"ĠWhere":5476,"Ġremote":5477,"Ġgloves":5478,"Ġclim":5479,"oduced":5480,"Ġwal":5481,"Ġgovernment":5482,"Ġamaz":5483,"Movie":5484,"Ġbombs":5485,"war":5486,"while":5487,"Ġpero":5488,"ĠColl":5489,"Ġsubstance":5490,"ares":5491,"Ġstruggle":5492,"Cute":5493,"Ġdemon":5494,"Ġarmp":5495,"ta":5496,"Ġproduce":5497,"lle":5498,"Ġderm":5499,"Ġtrain":5500,"Ġwatered":5501,"Ġ45":5502,"Ġbuilding":5503,"Ġpassed":5504,"Ġgay":5505,"ONG":5506,"Funny":5507,"Ġredness":5508,"Ġdesigns":5509,"lla":5510,"awn":5511,"onse":5512,"Ġvend":5513,"Ġmer":5514,"Ġshop":5515,"ĠEveryone":5516,"Ġbubble":5517,"ification":5518,"Ġunex":5519,"arre":5520,"eks":5521,"Ġcaps":5522,"Ġrange":5523,"ASE":5524,"Ġling":5525,"Ġdiscontinued":5526,"ema":5527,"Ġbend":5528,"Ġdrag":5529,"Update":5530,"Ġanswer":5531,"Ġinitially":5532,"Ġfamous":5533,"Ġopera":5534,"Ġstrips":5535,"ĠGlad":5536,"!!<":5537,"Ġwalking":5538,"Ġopportunity":5539,"ĠWhite":5540,"Ġworried":5541,"Ġswitched":5542,"men":5543,"oons":5544,"Ġshim":5545,"Ġcharm":5546,"Ġjourney":5547,"Ġexplan":5548,"Ġenviron":5549,"Maybe":5550,"ĠSeems":5551,"mon":5552,"Ġdownlo":5553,"Ġcontainers":5554,"Ġdrive":5555,"Ġemail":5556,"Ġhelping":5557,"ators":5558,"Ġwonders":5559,"Ġunderstanding":5560,"Ġflakes":5561,"Ġpalette":5562,"Ġlock":5563,"Ġchecked":5564,"don":5565,"Ġsilic":5566,"Ġmeets":5567,"new":5568,"Interesting":5569,"Ġpromised":5570,"ahl":5571,"Ġdistract":5572,"Ġsuddenly":5573,"Ġrespons":5574,"Ġaccom":5575,"ĠRev":5576,"Ġchoices":5577,"ĠRichard":5578,"Ġvamp":5579,"Worst":5580,"Ġunhappy":5581,"ĠMuch":5582,"ĠGr":5583,"Ġarrive":5584,"Ġheadache":5585,"ĠBill":5586,"HING":5587,"Ġtreated":5588,"Ġstub":5589,"Ġled":5590,"Ġcleansing":5591,"cra":5592,"Ġadhesive":5593,"Ġstops":5594,"Ġextended":5595,"Ġtherefore":5596,"azy":5597,"box":5598,"Ġdisturbing":5599,"inese":5600,"Ġartist":5601,"Ġ[[":5602,"iverse":5603,"Ġinexpensive":5604,"Ġease":5605,"Ġfacts":5606,"Ġbent":5607,"Ġtear":5608,"Ġconstant":5609,"Ġperspective":5610,"mble":5611,"Ġhearing":5612,"Ġimpact":5613,"ĠGra":5614,"bad":5615,"Ġextreme":5616,"Fun":5617,"ĠTheir":5618,"ESS":5619,"Ġhorribly":5620,"Ġshaves":5621,"asp":5622,"Ġformer":5623,"ĠWalmart":5624,"Ġtacky":5625,"ĠLa":5626,"ĠLo":5627,"Ġsequences":5628,"ĠSadly":5629,"Ġplugged":5630,"ba":5631,"Ġtoilet":5632,"Ġunpleasant":5633,"ĠShould":5634,"Ġstunning":5635,"ruce":5636,"ĠSmith":5637,"Ġpic":5638,"str":5639,"ĠCur":5640,"Ġconstruct":5641,"Ġdecision":5642,"ĠUV":5643,"brary":5644,"Ġplanet":5645,"Ġexchange":5646,"ĠOver":5647,"Ġexception":5648,"Ġsurround":5649,"AIN":5650,"Ġunscented":5651,"Ġpropaganda":5652,"ĠAW":5653,"Hair":5654,"sle":5655,"LOVE":5656,"Ġdiscuss":5657,"ĠMiss":5658,"Ġwonderfully":5659,"Ġinvestig":5660,"Ġdust":5661,"Ġsoul":5662,"ðŁĳį":5663,"Item":5664,"Ġdoz":5665,"adows":5666,"Ġleading":5667,"Ġindeed":5668,"reens":5669,"ĠYork":5670,"ĠTI":5671,"Ġlesson":5672,"Ġthrilled":5673,"Ġultimately":5674,"Ġstaying":5675,"Ġthinks":5676,"Ġ/>\"":5677,"Ġsaving":5678,"ological":5679,"umbs":5680,"Ġlaughed":5681,"Ġerror":5682,"ĠNetflix":5683,"Ġnozzle":5684,"Ġvibrant":5685,"Ġhalfway":5686,"ĠCD":5687,"Ġbull":5688,"Ġtypically":5689,"Ġnumerous":5690,"Ġappropriate":5691,"AST":5692,"***":5693,"Ġimpressive":5694,"ĠDark":5695,"ĠEnjoy":5696,"ĠONLY":5697,"abs":5698,"ĠHE":5699,"xic":5700,"sequ":5701,"lay":5702,"Ġreorder":5703,"Ġmedic":5704,"Ġdin":5705,"Ġyesterday":5706,"venge":5707,"iers":5708,"ĠTry":5709,"Ġvillain":5710,"Ġcleaned":5711,"Ġopposite":5712,"ĠPol":5713,"ĠHel":5714,"anish":5715,"ĠMary":5716,"Ġbeginner":5717,"umbers":5718,"ĠStre":5719,"ateur":5720,"Ġoffers":5721,"Ġcontacted":5722,"ĠCouldn":5723,"Ġcostume":5724,"Ġslide":5725,"Ġtort":5726,"Ġaccent":5727,"tail":5728,"Ġmillion":5729,"AKE":5730,"ĠBetter":5731,"==":5732,"ĠBoy":5733,"Ġvanilla":5734,"Ġrequest":5735,"Ġpan":5736,"Ġlosing":5737,"Ġwoke":5738,"ĠMon":5739,"Ġstudio":5740,"mi":5741,"Ġheck":5742,"Ġtension":5743,"OK":5744,"Ġmedia":5745,"ĠEVERY":5746,"Ġpage":5747,"ĠBlue":5748,"ĠSeriously":5749,"Ġbreakouts":5750,"asted":5751,"Ġsticking":5752,"Ġqual":5753,"urchase":5754,"Ġprogress":5755,"Ġast":5756,"Ġsmoother":5757,"Ġresponse":5758,"alled":5759,"zer":5760,"Ġstudents":5761,"ĠEv":5762,"lie":5763,"anna":5764,"ĠPhil":5765,"Ġresist":5766,"Ġcenter":5767,"orage":5768,"chan":5769,"Ġsprays":5770,"Please":5771,"uses":5772,"Ġmold":5773,"Ġbecoming":5774,"Ġachieve":5775,"ĠOut":5776,"Ġcurrently":5777,"ERS":5778,"Ġtears":5779,"Ġantic":5780,"Ġdepe":5781,"boy":5782,"see":5783,"Ġrelationships":5784,"Ġbrittle":5785,"Ġrequired":5786,"21":5787,"Ġsuspect":5788,"Ġfav":5789,"Ġenvironment":5790,"atives":5791,"Ġmanaged":5792,"illing":5793,"!\"":5794,"Ġdisaster":5795,"Ġattachment":5796,"ĠEspecially":5797,"Ġimpression":5798,"Ġscratches":5799,"Ġbeginners":5800,"Ġprin":5801,"Ġclumps":5802,"Ġwarrant":5803,"Ġvisible":5804,"undred":5805,"Ġbehav":5806,"ste":5807,"ches":5808,"ĠOb":5809,"Ġcomfort":5810,"Ġaside":5811,"Ġsupply":5812,"ĠJane":5813,"yy":5814,"alian":5815,"Ġindust":5816,"Ġcosts":5817,"Ġsmudge":5818,"ĠTim":5819,"Ġangry":5820,"ym":5821,"Ġreceiving":5822,"Ġtarget":5823,"Purchased":5824,"ĠGOOD":5825,"Ġboot":5826,"NT":5827,"ording":5828,"ĠTotal":5829,"gend":5830,"ighter":5831,"Ġcircles":5832,"Ġcuticle":5833,"Ġfat":5834,"amper":5835,"ady":5836,"Ġfiles":5837,"EE":5838,"Ġthats":5839,"ae":5840,"Ġgang":5841,"iles":5842,"Ġdisappe":5843,"ĠSure":5844,"ĠDown":5845,"Ġenerg":5846,"alf":5847,"Ġballs":5848,"ĠIr":5849,"Ġhassle":5850,"ummy":5851,"Ġlie":5852,"ĠEn":5853,"Ġbun":5854,"Ġmelted":5855,"Ġsprayed":5856,"dis":5857,"Ġladies":5858,"Ġmainly":5859,"Ġpreview":5860,"Ġhairspray":5861,"Ġredeeming":5862,"Ġputs":5863,"75":5864,"Ġhost":5865,"ĠRecommend":5866,"ĠTri":5867,"Ġfilming":5868,"Ġlevels":5869,"Ġimproved":5870,"Ġgenius":5871,"Ġhanging":5872,"Ġthickness":5873,"ĠRyan":5874,"Ġprone":5875,"Ġworthless":5876,"ka":5877,"mond":5878,"Ġconvers":5879,"ov":5880,"Ġrace":5881,"ĠProbably":5882,"Ġexfoliating":5883,"Ġcu":5884,"Ġhighlights":5885,"Ġbrushing":5886,"Ġpleasantly":5887,"ĠOscar":5888,"ĠWouldn":5889,"Ġselect":5890,"Ġwaves":5891,"Ġmarke":5892,"does":5893,"ĠAp":5894,"Worked":5895,"ini":5896,"Ġinformative":5897,"Ġfish":5898,"orrow":5899,"Ġpigmented":5900,"Ġboard":5901,"Ġstickers":5902,"works":5903,"Ġangle":5904,"Ġcow":5905,"Ġwhom":5906,"iens":5907,"Any":5908,"Ġtrimming":5909,"????":5910,"Ġcommit":5911,"bert":5912,"ĠVan":5913,"Ġtransp":5914,"Never":5915,"Ġintriguing":5916,"avy":5917,"Ġintelligent":5918,"Ġtons":5919,"Ġhurts":5920,"ĠUse":5921,"Ġhumans":5922,"FUL":5923,"ilities":5924,"Ġconnection":5925,"ĠII":5926,"Ġharm":5927,"ĠWAY":5928,"ONEY":5929,"logy":5930,"ĠRose":5931,"anned":5932,"Ġneat":5933,"Ġassume":5934,"Ġbenefit":5935,"Ġhide":5936,"ĠScott":5937,"Ġzombie":5938,"Ġunrealistic":5939,"ĠSometimes":5940,"Ġrental":5941,"Ġpatches":5942,"Ġprompt":5943,"Ġnarrative":5944,"Ġacid":5945,"oom":5946,"Ġfascinating":5947,"Ġphysical":5948,"udd":5949,"gging":5950,"IVE":5951,"orts":5952,"Looks":5953,"otion":5954,"Ġlibrary":5955,"rink":5956,"'.":5957,"ĠJason":5958,"Ġstorage":5959,"---":5960,"ĠMus":5961,"Ġguard":5962,"Ġconfl":5963,"Ġdying":5964,"inal":5965,"Ġhundred":5966,"Ġcable":5967,"zema":5968,"Ġvia":5969,"ĠSPF":5970,"mar":5971,"ĠYe":5972,"Ġsequence":5973,"ca":5974,"Ġabr":5975,"Ġconclusion":5976,"ĠOld":5977,"Ġfold":5978,"Ġdermat":5979,"Ġscared":5980,"Ã³n":5981,"ivil":5982,"ĠBur":5983,"idad":5984,"Ġevidence":5985,"Ġroad":5986,"miss":5987,"Ġrepresent":5988,"ulty":5989,"Ġtho":5990,"rupt":5991,"Season":5992,"Ġstereotyp":5993,"Way":5994,"UCH":5995,"Ġtoler":5996,"Ġweeke":5997,"ĠJesus":5998,"Ġtim":5999,"ĠWahl":6000,"Ġdancing":6001,"osp":6002,"Ġupper":6003,"ĠME":6004,"Ġvacation":6005,"Ġhopefully":6006,"24":6007,"Ġtechnology":6008,"However":6009,"ĠTw":6010,"ĠWILL":6011,"Ġjoy":6012,"Ġdangerous":6013,"ules":6014,"ped":6015,"ĠSee":6016,"iterally":6017,"Ġholid":6018,"ĠChris":6019,"Ġalive":6020,"Ġvirt":6021,"Ġadvice":6022,"ĠNOTHING":6023,"ĠHopefully":6024,"Ġmember":6025,"ĠMONEY":6026,"Ġspring":6027,"Ġmarried":6028,"BO":6029,"Ġepic":6030,"mpath":6031,"Ġwedding":6032,"Ġshelf":6033,"Ġshoulder":6034,"acular":6035,"ander":6036,"olved":6037,"taining":6038,"35":6039,"Ġdamp":6040,"Ġpins":6041,"ĠPark":6042,"Ġwhenever":6043,"istent":6044,"ĠPre":6045,"watchable":6046,"Ġenh":6047,"ĠDOES":6048,"known":6049,"Ġincor":6050,"pisode":6051,"roc":6052,"Ordered":6053,"Ġratings":6054,"Ġgrade":6055,"ifer":6056,"ĠMad":6057,"Ġ198":6058,"viously":6059,"ĠDIS":6060,"elly":6061,"Ġreflect":6062,"Ġbubbles":6063,"Ġchun":6064,"lines":6065,"Ġmatches":6066,"amples":6067,"Ġattractive":6068,"ls":6069,"Ġyoga":6070,"Ġstands":6071,"Ġitching":6072,"Ġknowledge":6073,"ĠðŁ¤":6074,"emon":6075,"Ġfollows":6076,"Ġmood":6077,"Ġbron":6078,"Ġsignificant":6079,"vis":6080,"ĠTurn":6081,"Ġhandy":6082,"ĠLittle":6083,"incing":6084,"ĠReturned":6085,"ĠAnn":6086,"ĠMen":6087,"Ġcarefully":6088,"Ġstinks":6089,"Ġholder":6090,"ĠMac":6091,"Ġinitial":6092,"istur":6093,"ural":6094,"ĠSand":6095,"ĠHar":6096,"ĠFinally":6097,"ĠBruce":6098,"ĠKevin":6099,"Ġtattoo":6100,"ĠChinese":6101,"Ġgust":6102,"Ġremoval":6103,"Ġforehead":6104,"Ġdecades":6105,"fl":6106,"there":6107,"ĠARE":6108,"Ġge":6109,"Ġeyelids":6110,"Ġasse":6111,"ession":6112,"Ġrunny":6113,"Ġpoly":6114,"95":6115,"Ġactiv":6116,"ACK":6117,"Ġdread":6118,"Ġaccidentally":6119,"Ġforth":6120,"ĠBeaut":6121,"ruff":6122,"apointed":6123,"ĠVideo":6124,"some":6125,"Ġnonsense":6126,"Ġstylist":6127,"Ġbroad":6128,"ĠLong":6129,"Ġrepeat":6130,"Ġamateur":6131,"ummer":6132,"Ġgiant":6133,"Ġemotion":6134,"Ġgraphic":6135,"creen":6136,"Ġanticip":6137,"Ġfaces":6138,"ĠDoctor":6139,"Ġliking":6140,"Ġboun":6141,"Ġinfo":6142,"ello":6143,"ĠGirl":6144,"ĠHouse":6145,"Ġsurprisingly":6146,"ĠAngel":6147,"ĠHall":6148,"Ġboxes":6149,"Ġportion":6150,"ican":6151,"icient":6152,"Ġol":6153,"Ġkinds":6154,"Ġinnoc":6155,"ĠBro":6156,"NOT":6157,"Ġescape":6158,"Ġaliens":6159,"lebr":6160,"Ġcy":6161,"store":6162,"Ġneut":6163,"Ġflavor":6164,"Ġmechan":6165,"ILL":6166,"Ġdeserve":6167,"Color":6168,"ched":6169,"Ġx":6170,"ĠAmazing":6171,"Ġtangle":6172,"Ġblends":6173,"Ġhydrated":6174,"Ġash":6175,"Ġsponges":6176,"Ġwise":6177,"Ġcommun":6178,"Ġreminded":6179,"umber":6180,"Ġmotiv":6181,"Fantastic":6182,"Ġdestroyed":6183,"isp":6184,"ĠTotally":6185,"ait":6186,"Ġremains":6187,"ĠBar":6188,"ĠâĢĺ":6189,"Ġfrequently":6190,"Ġelement":6191,"brush":6192,"Ġpumps":6193,"fun":6194,"Ġ+":6195,"Ġhumid":6196,"nting":6197,"Ġpopped":6198,"DO":6199,"Ġregularly":6200,"Ġaspects":6201,"Ġenergy":6202,"IG":6203,"Ġcreating":6204,"ĠGillette":6205,"ĠOk":6206,"Ġcrappy":6207,"Hard":6208,"Ġprison":6209,"Ġaroma":6210,"Ġinflu":6211,"Ġgrad":6212,"Ġcompanies":6213,"PP":6214,"ford":6215,"ĠCal":6216,"Ġmemorable":6217,"Ġmoral":6218,"idden":6219,"Ġweather":6220,"Ġcruel":6221,"Ġguessing":6222,"amily":6223,"neath":6224,"Ġabsurd":6225,"unting":6226,"ĠBas":6227,"Ġphen":6228,"Ġappeal":6229,"ĠBody":6230,"Ġcritic":6231,"Ġtour":6232,"Ġmasterpiece":6233,"andruff":6234,"Ġdeodorants":6235,"nda":6236,"Ġneigh":6237,"ruly":6238,"Ġframe":6239,"Ġmount":6240,"Ġamazed":6241,"Ġinsert":6242,"Ġrequire":6243,"Ġmint":6244,"ĠLeaves":6245,"Ġlegit":6246,"ĠUP":6247,"Ġvul":6248,"Tot":6249,"olf":6250,"Ġedited":6251,"ĠThough":6252,";<":6253,"Ġthemes":6254,"Ġponytail":6255,"âĿ¤ï¸ı":6256,"?\"":6257,"Ġpillow":6258,"Ġvisuals":6259,"dated":6260,"Ġshallow":6261,"Ġstrongly":6262,"High":6263,"Ġstains":6264,"ĠNone":6265,"ĠRem":6266,"Ġteenage":6267,"ĠAli":6268,"Ġju":6269,"Ġrelief":6270,"ĠFox":6271,"Ġlacks":6272,"reed":6273,"ĠLIKE":6274,"!!!<":6275,"Ġdirt":6276,"icky":6277,"icked":6278,"Ġcartoons":6279,"Ġpathetic":6280,"Ġsticker":6281,"Ġties":6282,"ĠSil":6283,"Ġuna":6284,"Ġlids":6285,"Ġwow":6286,"oper":6287,"ĠMartin":6288,"acter":6289,"yal":6290,"pro":6291,"Cons":6292,"Ġboo":6293,"telling":6294,"Ġremain":6295,"Ġsuccessful":6296,"Such":6297,"Ġmajority":6298,"100":6299,"ww":6300,"sing":6301,"Ġunderneath":6302,"Ġglued":6303,"ĠJones":6304,"ja":6305,"Ġoun":6306,"Ġmanicure":6307,"Ġprotagon":6308,"ĠMel":6309,"âĢ¦.":6310,"Ġreduc":6311,"anta":6312,"Ġvendor":6313,"Ġanimal":6314,"Ġstring":6315,"Ġtoward":6316,"Ġcombo":6317,"Ġwave":6318,"ki":6319,"Ġinner":6320,"Ġwitch":6321,"ĠNY":6322,"ĠComp":6323,"Ġbalance":6324,"ĠTer":6325,"Ġdies":6326,"Ġsalt":6327,"Ġwaist":6328,"ĠGreen":6329,"uminum":6330,"izz":6331,"Ġweekend":6332,"Ġpuff":6333,"eels":6334,"Ġquir":6335,"Ġunderst":6336,"ĠAmericans":6337,"Ġmotion":6338,"Ġchin":6339,"Let":6340,"anity":6341,"ĠBEST":6342,"osen":6343,"iners":6344,"Ġchannel":6345,"Makes":6346,"ĠLord":6347,"ĠMur":6348,"eries":6349,"ĠJan":6350,"top":6351,"Ġspa":6352,"house":6353,"Ġdvds":6354,"Ġintroduced":6355,"isters":6356,"Sp":6357,"Ġdeb":6358,"olve":6359,"Everything":6360,"ĠDen":6361,"Ġeczema":6362,"ĠTR":6363,"ECT":6364,"Ġsuggested":6365,"Ġpromise":6366,"Ġsexy":6367,"Ġlazy":6368,"Ġcuticles":6369,"Ġrelatively":6370,"Ġflo":6371,"Disappointed":6372,"ga":6373,"Ġsheds":6374,"Ġburnt":6375,"THE":6376,"eel":6377,"Ġaccompl":6378,"ĠFeels":6379,"ille":6380,"Could":6381,"Ġrat":6382,"Ġrequires":6383,"ĠAnyway":6384,"Ġovernight":6385,"Ġsilicone":6386,"Ġtested":6387,"Ġentertained":6388,"uces":6389,"ctional":6390,"mark":6391,"ĠCr":6392,"Ġremembered":6393,"Okay":6394,"Ke":6395,"ĠActing":6396,"Ġguest":6397,"Ġwooden":6398,"ARS":6399,"Ġatmos":6400,"Ġscam":6401,"Ġliber":6402,"Ġmere":6403,"Ġhat":6404,"aine":6405,"Ġhydrating":6406,"erk":6407,"ĠThom":6408,"ĠBilly":6409,"Ġdesired":6410,"Ġstandards":6411,"Ġpeeled":6412,"Ġlisting":6413,"Ġcentury":6414,"Ġimagination":6415,"ĠHen":6416,"ales":6417,"Ġens":6418,"Ġpregn":6419,"Ġchalk":6420,"movie":6421,"yes":6422,"ARE":6423,"ĠThose":6424,"ĠBAD":6425,"ĠRep":6426,"Ġexplanation":6427,"Ġsemi":6428,"Ġdamn":6429,"ĠDID":6430,"izarre":6431,"Ġbrut":6432,"uary":6433,"--------":6434,"verse":6435,"Ġ:-":6436,"Ġdandruff":6437,"DVD":6438,"Ġbehavior":6439,"Most":6440,"Ġconflict":6441,"Ġspraying":6442,"Ġsore":6443,".)<":6444,"Ġcharger":6445,"Ġtends":6446,"Ġcinema":6447,"Ġbleed":6448,"hand":6449,"Ġrechar":6450,"Ġcro":6451,"She":6452,"Ġsympath":6453,"UM":6454,"ĠCOM":6455,"Ġcars":6456,"Ġunexpected":6457,"Ġsoothing":6458,"Ġgrandson":6459,"unchy":6460,"oly":6461,"Ġlocation":6462,"Ġoffensive":6463,"Con":6464,"Ġsin":6465,"Ġoverpriced":6466,"ĠGrand":6467,"Ġdirectors":6468,"ĠSk":6469,"oh":6470,"itude":6471,"Ġterm":6472,"Ġvisit":6473,"ĠHonestly":6474,"Ġstyles":6475,"ensity":6476,"Ġemotions":6477,"Ġstudent":6478,"ĠRog":6479,"Ġpersonality":6480,"Ġactions":6481,"ido":6482,"200":6483,"Ġcas":6484,"Ġobject":6485,"Ġdiv":6486,"celente":6487,"omer":6488,"Ġpun":6489,"Ġtouched":6490,"Ġmessed":6491,"ĠKore":6492,"idescreen":6493,"Ġmanageable":6494,"Ġdepartment":6495,"perfect":6496,"Ġbond":6497,"Ġbelief":6498,"Slow":6499,"Ġspeaking":6500,"ATCH":6501,"Ġpassion":6502,"Ġstrands":6503,"ĠHol":6504,"ĠJoe":6505,"Ġruin":6506,"ĠFast":6507,"Ġfaint":6508,"Ġther":6509,"ĠAlmost":6510,"45":6511,"62":6512,"ulting":6513,"Ġdelivers":6514,"Ġsensation":6515,"Ġfloral":6516,"ĠHaving":6517,"OL":6518,"cred":6519,"Ġfeelings":6520,"Ġpenny":6521,"tr":6522,"riage":6523,"Sm":6524,"ousy":6525,"Ġestab":6526,"Ġtops":6527,"uster":6528,"chy":6529,"ĠSkin":6530,"Ġsprayer":6531,"Ġexplained":6532,"',":6533,"ĠBeautiful":6534,"Ġ197":6535,"Ġscreenplay":6536,"Ġmemory":6537,".\"<":6538,"Ġremark":6539,"Ġcheeks":6540,"Ġzipper":6541,"aver":6542,"Ġinsult":6543,"Ġyouth":6544,"Ġpriv":6545,"ĠCast":6546,"Ġreligious":6547,"Ġtheaters":6548,"Ġcelebr":6549,"Ġthreat":6550,"Ġdispos":6551,"ĠSteve":6552,"Ġyeah":6553,"Ġcharming":6554,"Ġteacher":6555,"Ġalright":6556,"Ġexercise":6557,"vey":6558,"Ġarmpits":6559,"after":6560,"âĻ":6561,"Ġplates":6562,"Ġrespond":6563,"Ġclar":6564,"Ġporn":6565,"Ġsting":6566,"Ġadm":6567,"itioner":6568,"Ġinsane":6569,"Ġbasis":6570,"inter":6571,"Ġfade":6572,"Ġskills":6573,"agger":6574,"iked":6575,"ĠTop":6576,"Ġletting":6577,"Ġden":6578,"Ġdisks":6579,"PLE":6580,"ĠAM":6581,"ĠPL":6582,"ĠJeff":6583,"Ġgeneration":6584,"Ġting":6585,"Ġhits":6586,"ĠSpanish":6587,"TS":6588,"ĠQuality":6589,"Ġwake":6590,"ploy":6591,"under":6592,"Ġya":6593,"Ġacts":6594,"Exactly":6595,"Ġspectacular":6596,"Ġearn":6597,"Ġheavily":6598,"ueen":6599,"ĠPack":6600,"Ġrelaxing":6601,"Ġkidd":6602,"ampoo":6603,"ĠHAIR":6604,"olic":6605,"Ġconsistent":6606,"Ġtheatrical":6607,"toos":6608,"ĠDel":6609,"Ġintern":6610,"ĠBack":6611,"Ġsea":6612,"ĠNext":6613,"Ġgently":6614,"Ġfamilies":6615,"Ġbummed":6616,"Ġder":6617,"ĠGO":6618,"Ġtoes":6619,"Ġsections":6620,"fortunate":6621,"Couldn":6622,"Ġuniverse":6623,"ormal":6624,"Tr":6625,"osh":6626,"la":6627,"Ġterror":6628,"porary":6629,"Ġlightly":6630,"amb":6631,"Ġbundles":6632,"Ġconte":6633,"Ġcomplic":6634,"Ġbarrel":6635,"Ġsupposedly":6636,"Ġbinge":6637,"ags":6638,"Ġmovement":6639,"ĠAMAZING":6640,"Ġgritty":6641,"idge":6642,"ĠJackson":6643,"Act":6644,"ĠMark":6645,"Ġprete":6646,"inct":6647,"Ġquant":6648,"Ġbangs":6649,"ĠHaw":6650,"Ġdece":6651,"Ġwarranty":6652,"cient":6653,"ux":6654,"oration":6655,"Ġblame":6656,"Ġstanding":6657,"Ġcardboard":6658,"Ġagg":6659,"23":6660,"Ġdish":6661,"Ġcontents":6662,"ĠWest":6663,"Ġtrilogy":6664,"ĠDam":6665,"ounds":6666,"cia":6667,"she":6668,"ĠCAN":6669,"Ġlathers":6670,"Ġconditioning":6671,"nes":6672,"Ġraw":6673,"ĠPres":6674,"zilla":6675,"ĠBrown":6676,"Ġbleached":6677,"ĠCapt":6678,"Ġcompart":6679,"ishes":6680,"book":6681,"Ġ199":6682,"Ġpolicy":6683,"Ġadvertis":6684,"ĠMUCH":6685,"ĠCame":6686,"Ġdetective":6687,"product":6688,"ĠSC":6689,"Ġreturnable":6690,"Ġblind":6691,"umpy":6692,"Ġselection":6693,"ĠCheap":6694,"Ġpaced":6695,"Ġhorse":6696,"Ġfeed":6697,"Ġpolitics":6698,"ĠBL":6699,"Ġbear":6700,"ðŁ¤":6701,"bal":6702,"Ġattempted":6703,"Ġweap":6704,"Thanks":6705,"lled":6706,"Ġkiss":6707,"ds":6708,"Ġreference":6709,"ulated":6710,"ĠMir":6711,"Ġarrival":6712,"Ġ?":6713,"liked":6714,"Ġdealing":6715,"Ġfaded":6716,"Ġbill":6717,"Ġpour":6718,"Ġcopies":6719,"Ġflaws":6720,"Ġcreates":6721,"El":6722,"Ġtraining":6723,"Ġdated":6724,"Ġmes":6725,"Ġtones":6726,"Ġ)":6727,"Ġban":6728,"Ġgroom":6729,"Ġnecess":6730,"Ġhon":6731,"ora":6732,"ĠThought":6733,"Ġtodd":6734,"Ġunw":6735,"ulate":6736,"ĠSA":6737,"Ġfragrances":6738,"ĠSuperman":6739,"Ġtransform":6740,"Ġregarding":6741,"ĠMax":6742,"Ġcliche":6743,"Ġviewed":6744,"Sorry":6745,"Ġaired":6746,"Ġwarned":6747,"Ġcurious":6748,"Ġcrimin":6749,"ĠSher":6750,"Ġhosp":6751,"Ġcitrus":6752,"Ġmoisturizes":6753,"Ġcrow":6754,"Ġsteps":6755,"Ġbesides":6756,"iversal":6757,"Ġsuffer":6758,"ĠAfrican":6759,",&#":6760,"Two":6761,"ÃŃa":6762,"Ġbizarre":6763,"ef":6764,"Ġtur":6765,"ĠMust":6766,"Ġheats":6767,"emed":6768,"Ġnarration":6769,"ida":6770,"Ġtattoos":6771,"ĠLuck":6772,"Ġenth":6773,"Ġprepared":6774,"ech":6775,"Ġreleases":6776,"ĠCity":6777,"rough":6778,"Ġscar":6779,"Ġcarrying":6780,"ĠSally":6781,"ĠWE":6782,"Ġskincare":6783,"olves":6784,"Amazon":6785,"Ġequally":6786,"itation":6787,"ĠHam":6788,"Ġobsessed":6789,"Ġindustry":6790,"Ġcorner":6791,"ĠLooking":6792,"arter":6793,"iffer":6794,"Ġchick":6795,"Ġrelate":6796,"Ġdele":6797,"Ġessentially":6798,"oked":6799,"Ġgrat":6800,"Ġscrunch":6801,"!!!!!!":6802,"THING":6803,"Ġdeeper":6804,"ĠGrant":6805,"umbled":6806,"Ġmax":6807,"65":6808,"ĠBBC":6809,"Ġfrag":6810,"Ġlets":6811,"fess":6812,"osing":6813,"Ġlucky":6814,"Who":6815,"85":6816,"aning":6817,"reck":6818,"Ġrepair":6819,"ule":6820,"Ġvoices":6821,"Ġgoodness":6822,"Ġdocumentaries":6823,"Ġeating":6824,"Ġflying":6825,"Ġaluminum":6826,"ĠYet":6827,"Ġchurch":6828,"Ġthread":6829,"Ġconcent":6830,"Ġlat":6831,"Ġbrass":6832,"Ġunwatchable":6833,"ĠHor":6834,"Ġ17":6835,"Ġgames":6836,"DATE":6837,"Ġbulky":6838,"Ġstreet":6839,"evity":6840,"asonic":6841,"ICE":6842,"Ġ;":6843,"Ġdogs":6844,"Ġideal":6845,"Ġinterp":6846,"Ġrefresh":6847,"Ġshimmer":6848,"Ġdil":6849,"Ġmaintain":6850,"Ġsan":6851,"Ġtoxic":6852,"Ġdownload":6853,"ĠâĢĵ":6854,"Ġperman":6855,"Ġmanip":6856,"Ġrap":6857,"Ġclothing":6858,"ĠDou":6859,"Ġarts":6860,"EVER":6861,"Ġcancell":6862,"Ġsnap":6863,"ĠAre":6864,"Ġvision":6865,"ottle":6866,"gon":6867,"Ġexcuse":6868,"arms":6869,"ĠOur":6870,".âĢĿ":6871,"FF":6872,"ĠBeauty":6873,"Ġresc":6874,"Ġutterly":6875,"Ġnic":6876,"Ġfallen":6877,"arks":6878,"ĠEnter":6879,"eline":6880,"Ġfactor":6881,"Ġtast":6882,"Ġthous":6883,"ĠFun":6884,"Ġine":6885,"ask":6886,"ĠBible":6887,"Ġneutral":6888,"ishing":6889,"ĠLaw":6890,"user":6891,"Ġhotel":6892,"Ġnumbers":6893,"Ġheels":6894,"Ġbenefits":6895,"âĢĿ.":6896,"UE":6897,"Ġcaut":6898,"Ġleaks":6899,"case":6900,"Ġ=":6901,"lying":6902,"Ġinternet":6903,"berry":6904,"Ġcommunity":6905,"Ġstarring":6906,"Ġgreatly":6907,"Des":6908,"Ġartific":6909,"ament":6910,"ĠHOR":6911,"________":6912,"Ġdeeply":6913,"ban":6914,"Broke":6915,"ĠCru":6916,"Ġsooner":6917,"phere":6918,"Ġpocket":6919,"Ġreduce":6920,"Ġabsorbed":6921,"Ġdispenser":6922,"Jo":6923,"Ġbri":6924,"sell":6925,"zel":6926,"ĠBaby":6927,"ĠHappy":6928,"Ġbien":6929,"ĠCream":6930,"Ġcorny":6931,"especially":6932,"Ġdiscount":6933,"Ġelim":6934,"ĠTIME":6935,"ĠAust":6936,"Ġmulti":6937,"Ġphenomen":6938,"Classic":6939,"Ġfoul":6940,"ĠEngland":6941,"ðŁĳİ":6942,"ĠTHEY":6943,"Ġfort":6944,"ĠCost":6945,"Ġrepet":6946,"ĠSouth":6947,"Ġbowl":6948,"rav":6949,"iques":6950,"Ġadorable":6951,"Ġinstant":6952,"Ġreb":6953,"CK":6954,"yr":6955,"Still":6956,"ĠBrush":6957,"dryer":6958,"Ġpleasure":6959,"ĠAlex":6960,"Ġhumanity":6961,"Ġcommercials":6962,"Ġpacing":6963,"Ġretail":6964,"ĠMin":6965,"Ġswim":6966,"ĠEither":6967,"really":6968,"ums":6969,"sm":6970,"Ġpunch":6971,"Ġsuspenseful":6972,"Ġconsistently":6973,"Ġshake":6974,"ĠSame":6975,"AA":6976,"Ġchapstick":6977,"Ġforeign":6978,"kins":6979,"Ġnostal":6980,"ĠAllen":6981,"ĠDisappointing":6982,"Ġcoloring":6983,"Ġnightm":6984,"ĠMill":6985,"Ġarch":6986,"Ġactresses":6987,"Ġclosure":6988,"Smell":6989,"Ġlux":6990,"interesting":6991,"hero":6992,"Ġknots":6993,"Ġimpl":6994,"Ġdrugstore":6995,"Ġchip":6996,"epend":6997,"iveness":6998,"Ġlies":6999,"Ġhandles":7000,"ĠJew":7001,"away":7002,"Fin":7003,"lim":7004,"Ġ$$":7005,"Ġborn":7006,"Ġtemp":7007,"Ġnotch":7008,"Thought":7009,"Ġrubbed":7010,"when":7011,"iana":7012,"Ġ22":7013,"Ġrepurchase":7014,"Ġaddict":7015,"Ġstation":7016,"udio":7017,"Ġchest":7018,"Ġups":7019,"Ġtwisted":7020,"Ġsheets":7021,"ildren":7022,"ĠLife":7023,"ĠEast":7024,"Ġstress":7025,"Ġflaky":7026,"ĠWASTE":7027,"Ġapplies":7028,"Ġoccasionally":7029,"Ġconvin":7030,"Ġfinale":7031,"cil":7032,"Ġnotes":7033,"soci":7034,"Ġvitamin":7035,"ĠMex":7036,"atically":7037,"Ġfuzz":7038,"rian":7039,"abeth":7040,"Ġgeneric":7041,"Ġlessons":7042,"Ġmarriage":7043,"ifting":7044,"Ġpeels":7045,"Ġgem":7046,"Ġconvincing":7047,"Ġshooting":7048,"attered":7049,"ĠJud":7050,"Ġdegree":7051,"Ġflake":7052,"ĠSur":7053,"Ġregardless":7054,"enge":7055,"cion":7056,"Ġchipped":7057,"eron":7058,"Ġheaven":7059,"Ġshaved":7060,"Ġlink":7061,"Ġfocused":7062,"Ġusable":7063,"Ġrecom":7064,"opy":7065,"Ġinj":7066,"ĠDI":7067,"Ġcomedic":7068,"Ġperfumes":7069,"Ġdissatisfied":7070,"Honestly":7071,"ĠOUT":7072,"Ġlabeled":7073,"rr":7074,"ĠCor":7075,"Ġdelightful":7076,"Ġremaining":7077,"ĠIF":7078,"Ġwinner":7079,"azz":7080,"Ġcancer":7081,"ded":7082,"Ġmakers":7083,"Ġmiracle":7084,"Ġstone":7085,"ateg":7086,"Ġfrustrated":7087,"Ġquirky":7088,"Ġ/>(":7089,"ĠSpace":7090,"Ġted":7091,"Ġanybody":7092,"Ġgraphics":7093,"topped":7094,"ĠWilliams":7095,"Always":7096,"Ġlegend":7097,"Ġsmile":7098,"Ġpimp":7099,"ashing":7100,"Ġdepict":7101,"edies":7102,"Ġtrial":7103,"Ġnobody":7104,"Ġfades":7105,"Ġsits":7106,"etime":7107,"cret":7108,"aron":7109,"Ġwitty":7110,"ugh":7111,"Ġeducational":7112,"itor":7113,"Ġpasses":7114,"Ġprecise":7115,"Ġappreciated":7116,"Ġeverybody":7117,"ĠGET":7118,"Ġeight":7119,"grade":7120,"Ġflexible":7121,"isions":7122,"Ġinstalled":7123,"Ġmental":7124,"Ġagenda":7125,"Ġfilmmakers":7126,"Ġtext":7127,"Ġglove":7128,"oted":7129,"jointed":7130,"Ġteenager":7131,"Ġsurvive":7132,"ĠPicture":7133,"Ġrecommendation":7134,"Ġclassics":7135,"rogena":7136,"Ġtimely":7137,"Ġhospital":7138,"Ġloof":7139,"Ġteens":7140,"Ġfingern":7141,"Ġtin":7142,"Ġtrimmers":7143,"Ġrelated":7144,"rate":7145,"ĠReturning":7146,"ĠMoore":7147,"ĠRobin":7148,"Ġunfortunate":7149,"riginal":7150,"ĠJohnny":7151,"Ġbothered":7152,"IGHT":7153,"Ġgrainy":7154,"Ġpractically":7155,"Ġdyed":7156,"Ġtoe":7157,"ĠBO":7158,"ffe":7159,"Ġposted":7160,"Ġamazingly":7161,"asm":7162,"33":7163,"ĠUK":7164,"ĠBefore":7165,"uty":7166,"Ġcandy":7167,"Enjoyed":7168,"ayed":7169,"Ġintention":7170,"ĠVal":7171,"Ġfif":7172,"only":7173,"gu":7174,"rep":7175,"ĠLou":7176,"Ġinteract":7177,"Ġsounded":7178,"Ġsoldiers":7179,"Been":7180,"ĠBarb":7181,"igible":7182,"equ":7183,"Ġcand":7184,"ĠTook":7185,"Ġbringing":7186,"Ġlover":7187,"Ġslick":7188,"Ġfrank":7189,"oster":7190,"inger":7191,"ĠSteph":7192,"Ġbab":7193,"ham":7194,"ĠCont":7195,"ucks":7196,"Ġdrunk":7197,"itchen":7198,"Ġkills":7199,"Ġyr":7200,"rend":7201,"uns":7202,"ĠPO":7203,"Ġrolling":7204,"Ġaloe":7205,"Ġmanages":7206,"ees":7207,"ĠHy":7208,"Ġinspired":7209,"Ġsulf":7210,"Ġwatchable":7211,"Ġphotography":7212,"Ġthumbs":7213,"tw":7214,"Ġstudy":7215,"Ġfixed":7216,"ĠMatt":7217,"Ġtanner":7218,"ĠNope":7219,"ups":7220,"ĠUN":7221,"Ġvampire":7222,"Ġpainting":7223,"Ġbelong":7224,"Sc":7225,"Ġartificial":7226,"leg":7227,"ensional":7228,"Ġadjustable":7229,"Ġtoen":7230,"Ġlongevity":7231,"agers":7232,"ĠTit":7233,"Man":7234,"Ġniece":7235,"ĠWalk":7236,"Ġdecides":7237,"alt":7238,"uous":7239,"Ġthumb":7240,"Ġmature":7241,"Ġexperiences":7242,"..<":7243,"bell":7244,"ennifer":7245,"IES":7246,"ĠPrice":7247,"Ġstained":7248,"inds":7249,"rees":7250,"Ġped":7251,"ĠRussian":7252,"ĠAnt":7253,"ables":7254,"Ġtowels":7255,"Ġrevenge":7256,"Ġcontrived":7257,"Ġcovering":7258,"irts":7259,"ITE":7260,"Ġworkouts":7261,"Ġtorn":7262,"IST":7263,"Wish":7264,"ĠFace":7265,"ðŁĴ":7266,"Ġsake":7267,"Ġblah":7268,"Ġchipping":7269,"Ġagent":7270,"Ġassumed":7271,"Ġnoted":7272,"Ġtoothp":7273,"Ġsilk":7274,"ĠGel":7275,"Ġatmosphere":7276,"Ġtinted":7277,"vant":7278,"Ġreli":7279,"Ġapplications":7280,"ĠAG":7281,"Ġslipp":7282,"THIS":7283,"IM":7284,"accur":7285,"Ġamusing":7286,"Pl":7287,"OUS":7288,"Ġsees":7289,"Ġcares":7290,"Ġprices":7291,"emic":7292,"ibl":7293,"Ġlistening":7294,"ĠRevlon":7295,"Ġfemin":7296,"Ġskipped":7297,"redictable":7298,"ĠAwesome":7299,"ĠSomething":7300,"Ġmission":7301,"Ġlaughable":7302,"wash":7303,"Sad":7304,"Ġdrugs":7305,"Ġintroduct":7306,"Tried":7307,"Ġrinsed":7308,"ĠLA":7309,"ses":7310,"Ġner":7311,"win":7312,"Ġflawless":7313,"Ġcomo":7314,"ĠWorst":7315,"Ġfield":7316,"Ġdud":7317,"ĠBel":7318,"hold":7319,"Ġloyal":7320,"ĠMarvel":7321,"Ġreasonably":7322,"ĠDisc":7323,"68":7324,"Ġphil":7325,"unes":7326,"Ġcolour":7327,"Ġrecieved":7328,"Ġsatisfying":7329,"Ġsight":7330,"teen":7331,"ĠRead":7332,"ĠNaz":7333,"Ġproducer":7334,"Ġdeterm":7335,"ĠDaniel":7336,"Out":7337,"Ġestablish":7338,"Ġautom":7339,"Ġdryness":7340,"ĠVol":7341,"Ġexecuted":7342,"Ġeyelid":7343,"ĠUnless":7344,"Ġcomplexion":7345,"Ġwidescreen":7346,"law":7347,"story":7348,"Ġguarant":7349,"ĠStates":7350,"Ġ21":7351,"Ġcontext":7352,"ĠThree":7353,"Ġclub":7354,"itar":7355,"anged":7356,"arely":7357,"acters":7358,"ĠBo":7359,"eps":7360,"Ġfailure":7361,"mary":7362,"done":7363,"Ġpool":7364,"Ġdriving":7365,"ĠWil":7366,"Ġtwenty":7367,"Ġthinning":7368,"ĠAbout":7369,"Pros":7370,"DER":7371,"ĠSU":7372,"Ġpluck":7373,"Ġhighest":7374,"oned":7375,"Ġsacri":7376,"ĠHell":7377,"Ġinspiring":7378,"Ġsleeping":7379,"ĠWHAT":7380,"Ġencounter":7381,"Ġstraightening":7382,"asts":7383,"Ġscra":7384,"ĠJUST":7385,"erspir":7386,"Ġlemon":7387,"Muy":7388,"opher":7389,"Ġappealing":7390,"Ġhealing":7391,"Ġtrag":7392,"table":7393,"uman":7394,"izabeth":7395,"Ġheroes":7396,"28":7397,"Ġexperiment":7398,"osoph":7399,"Ġamb":7400,"arc":7401,"Ġnarrator":7402,"arts":7403,"Ġleather":7404,"Finally":7405,"Ġseparated":7406,"uel":7407,"Wasn":7408,"Ġwasnt":7409,"Ġdermatologist":7410,"Ġaging":7411,"Ġslap":7412,"âĺ":7413,"EM":7414,"ĠShame":7415,"ĠRus":7416,"inda":7417,"Ġice":7418,"ĠPanasonic":7419,"Ġcurlers":7420,"Ġclosely":7421,"ĠTod":7422,"ĠWater":7423,"coming":7424,"Ġdepending":7425,"27":7426,"ĠShea":7427,"INT":7428,"OME":7429,"Ġperformed":7430,"ĠAB":7431,"Ġintelligence":7432,"Ġpra":7433,"Gl":7434,"Ġwitness":7435,"rick":7436,"Ġmart":7437,"Ġdrain":7438,"iendo":7439,"maybe":7440,"ĠId":7441,"Ġpouch":7442,"ĠSy":7443,"ollow":7444,"Ġdozen":7445,"ĠLOVED":7446,"Ġcritics":7447,"Ġexecution":7448,"etone":7449,"gent":7450,"Ġsoftness":7451,"otes":7452,"Ġjars":7453,"Ġshea":7454,"life":7455,"Ġnada":7456,"Ġpresence":7457,"Ġmenu":7458,"Ġsooooo":7459,"Ġseemingly":7460,"Ġcartrid":7461,"Ġsoooo":7462,"Ġload":7463,"fall":7464,"ĠSmell":7465,"ĠWayne":7466,"ressive":7467,"ĠGar":7468,"Ġslim":7469,"Ġpimples":7470,"field":7471,"ĠExtremely":7472,"Ġfancy":7473,"Ġshirt":7474,"ĠCons":7475,"Ġbrothers":7476,"airs":7477,"Ġtag":7478,"ĠPo":7479,"From":7480,"ĠDove":7481,"ĠGive":7482,"Ġmonsters":7483,"Ġcaptiv":7484,"Ġgym":7485,"ĠHU":7486,"ĠFred":7487,"Ġrecharge":7488,"Ġholiday":7489,"ĠFire":7490,"Ġlic":7491,"Ġfle":7492,"Ġflu":7493,"Ġclue":7494,"Ġfreak":7495,"Ġaddress":7496,"Ġlatest":7497,"Ġannoyed":7498,"Ġsteel":7499,"Ġreferences":7500,"rier":7501,"Ġaccording":7502,"Ġprotagonist":7503,"umble":7504,"Ġunusual":7505,"hora":7506,"Ġallergies":7507,"Ġjew":7508,"Ġbraids":7509,"Ġtossed":7510,"Ġhoney":7511,"ðĿ":7512,"ĠWild":7513,"ĠLeft":7514,"nox":7515,"ĠTW":7516,"ĠWATCH":7517,"ĠGodzilla":7518,"Ġisland":7519,"ĠUnited":7520,"Ġforgotten":7521,"Ġstom":7522,"end":7523,"Ġblown":7524,"Ġexfoliate":7525,"Ġbland":7526,"ckets":7527,"Ġconvinced":7528,"67":7529,"ceeded":7530,"odies":7531,"Ġsuitable":7532,"Ġremotely":7533,"Ġcancel":7534,"Ġexplos":7535,"Ġflashback":7536,"Has":7537,"Ġheating":7538,"icial":7539,"Ġincons":7540,"Ġ.<":7541,"cip":7542,"Ġdesire":7543,"nie":7544,"Ġslee":7545,"Ġremoves":7546,"Ġqualities":7547,"Ġpeace":7548,"Ġexcit":7549,"Ġshadows":7550,"Then":7551,"Ġcash":7552,"hard":7553,"Ġdrawer":7554,"ĠCam":7555,"Ġfund":7556,"ĠPBS":7557,"nice":7558,"Ġsacrif":7559,"Ġhealthier":7560,"Ġmyth":7561,"Ġcivil":7562,"Ġreactions":7563,"Ġsoaked":7564,"uh":7565,"Ġtall":7566,"ĠActually":7567,"Ġdisco":7568,"UPDATE":7569,"ĠEpisode":7570,"Ġsheet":7571,"64":7572,"thern":7573,"Ġdiffuser":7574,"Ġdesp":7575,"Pack":7576,"heads":7577,"Other":7578,"Ġcurve":7579,"Ġunbe":7580,"Ġacceptable":7581,"Ġshipment":7582,"Ġmineral":7583,"Ġrefill":7584,"Ġvisually":7585,"Ġwire":7586,"69":7587,"ĠDirector":7588,"Ġcircum":7589,"ĠBurn":7590,"Ġchore":7591,"Ġfourth":7592,"ura":7593,"Ġmatters":7594,"Ġshoulders":7595,"Ġcombined":7596,"Ġbreakage":7597,"Ġinnocent":7598,"Ġswear":7599,"Ġchips":7600,"ĠMight":7601,"Ġeffectively":7602,"Ġbeads":7603,"Ġcapture":7604,"kes":7605,"Ġprev":7606,"omething":7607,"Fast":7608,"Ġgoof":7609,"Ġrushed":7610,"weet":7611,"ĠCharlie":7612,"Buy":7613,"ĠPri":7614,"Ġdetangle":7615,"ita":7616,"ĠSpecial":7617,"Ġsunburn":7618,"Ġadvertisement":7619,"Ġassoci":7620,"Ġheight":7621,"Ġmassive":7622,"point":7623,"ĠAlways":7624,"Ġreport":7625,"Ġreduced":7626,"ĠWWII":7627,"Ġshavers":7628,"Ġrecall":7629,"Ġserial":7630,"ĠJon":7631,"ciÃ³n":7632,"Ġrinsing":7633,"ĠDespite":7634,"Ġmarketing":7635,"Ġclick":7636,"Ġdynam":7637,"ellar":7638,"apping":7639,"Ġresolution":7640,"Ġseven":7641,"cean":7642,"Ġpall":7643,"phas":7644,"RY":7645,"Ġplane":7646,"ata":7647,"ĠItalian":7648,"osure":7649,"Ġdistracting":7650,"Ġpurchases":7651,"ĠHarr":7652,"Ġstomach":7653,"Ġdecade":7654,"Ġfuller":7655,"Ġclay":7656,"icide":7657,"emington":7658,"Ġpu":7659,"ĠPot":7660,"Ġimportantly":7661,"Ad":7662,"Ã¡s":7663,"Ġapparent":7664,"Ġunc":7665,"Ġsnapped":7666,"Ġhyp":7667,"wing":7668,"Ġcurled":7669,"ĠRight":7670,"Ġq":7671,"ĠPut":7672,"ĠHOW":7673,"PE":7674,"Ġclient":7675,"Ġrepeatedly":7676,"Ġhopeful":7677,"Ġcracks":7678,"Ġdisjointed":7679,"Ġsoften":7680,"Ġtedious":7681,"ĠThink":7682,"Ġbald":7683,"Ġorganized":7684,"Ġsons":7685,"water":7686,"uitous":7687,"ĠHenry":7688,"Ġstreaks":7689,"Ġletter":7690,"Ġdisposable":7691,"ðŁı»":7692,"ĠExt":7693,"ĠWestern":7694,"Ġcomplicated":7695,"Ġsi":7696,"ĠBos":7697,"excellent":7698,"ĠWithin":7699,"Ġhairst":7700,"ĠGoing":7701,"ression":7702,"Ġescap":7703,"29":7704,"ĠMAN":7705,"Ġheadbands":7706,"AK":7707,"Ġpiss":7708,"Ġemploy":7709,"ĠApparently":7710,"gers":7711,"atory":7712,"Ġbatt":7713,"ĠNeut":7714,"Ġembarrassing":7715,"Ġsuffering":7716,"ril":7717,"ROM":7718,"Ġwaxy":7719,"Ġgas":7720,"Ġmaterials":7721,"Ġenjoys":7722,"ola":7723,"Ġsomebody":7724,"ĠGoes":7725,"Ġemp":7726,"Ġbank":7727,"Ġnude":7728,"Ġouter":7729,"Ġembarrassed":7730,"Ġblot":7731,"Ġcore":7732,"ando":7733,"Ġwrist":7734,"vo":7735,"Ġexpert":7736,"Ġcrying":7737,"Ġchallenge":7738,"Ġshaped":7739,"ersonally":7740,"ademy":7741,"Ġkitchen":7742,"aturday":7743,"Ġmiser":7744,"Ġcomedies":7745,"ibers":7746,"born":7747,"Ġrenting":7748,"Ġmysterious":7749,"Ġcancelled":7750,"Save":7751,"Ġmeasure":7752,"ĠREAL":7753,"sey":7754,"Ġexcitement":7755,"Ġhey":7756,"Ġcontained":7757,"Ġscrubbing":7758,"Ġpowers":7759,"Ġsnow":7760,"ĠSecret":7761,"Ġarc":7762,"gel":7763,"Ġtracks":7764,"ousse":7765,"ĠBrad":7766,"Ġreached":7767,"ĠAD":7768,"Ġinfl":7769,"Ġtail":7770,"ĠSun":7771,"Light":7772,"Ġglob":7773,"Ġpark":7774,"Ġ`":7775,"Ġeste":7776,"eness":7777,"âĢį":7778,"Ġvulgar":7779,"Ġdrinking":7780,"Ġusage":7781,"Ġpit":7782,"ĠREC":7783,"Ġdetangling":7784,"wart":7785,"ĠNorm":7786,"Ġplanning":7787,"Ġbusy":7788,"conom":7789,"ĠLi":7790,"tered":7791,"apy":7792,"ĠWow":7793,"ĠStreet":7794,"ĠCON":7795,"Ġord":7796,"ĠNatural":7797,"Ġabuse":7798,"OTH":7799,"stein":7800,"Ġwanna":7801,"IA":7802,"39":7803,"Ġconditioners":7804,"Ġviews":7805,"ewis":7806,"Sim":7807,"ĠHist":7808,"Ġguide":7809,"Ġquantity":7810,"ubby":7811,"ICK":7812,"ĠParis":7813,"Ġjudge":7814,"Ġmedical":7815,"Ġdesperate":7816,"ĠThomas":7817,"Over":7818,"ĠMine":7819,"ĠFunny":7820,"Ġfunniest":7821,"Ġreplacing":7822,"Ġtorture":7823,"gia":7824,"mooth":7825,"Ġmoisturizers":7826,"Ġfights":7827,"vi":7828,"Ġadap":7829,"ller":7830,"ĠHBO":7831,"ĠFilm":7832,"Ġgoo":7833,"iently":7834,"Ġadequ":7835,"ĠRemington":7836,"Ġcontour":7837,"Ġinstruction":7838,"Ġaudiences":7839,"Ġolive":7840,"Ġhidden":7841,"ottom":7842,"TV":7843,"rams":7844,"Ġthoughts":7845,"Ġtragic":7846,"ĠOct":7847,"rix":7848,"aming":7849,"Ġacetone":7850,"Ġoutcome":7851,"angle":7852,"ĠQueen":7853,"ĠSep":7854,"Ġcinematic":7855,"Ġcateg":7856,"ĠAustr":7857,"ĠLOL":7858,"ĠRes":7859,"Ġinaccur":7860,"arden":7861,"Ġdeserved":7862,"Ġpartner":7863,"Ġlipsticks":7864,"Ġsignificantly":7865,"Ġsupple":7866,"Ġengine":7867,"Ġfinishing":7868,"ĠHop":7869,"Ġdefinition":7870,"ancid":7871,"aph":7872,"ĠMom":7873,"ĠCent":7874,"ĠMcC":7875,"ĠGuess":7876,"ĠMORE":7877,"ĠReal":7878,"ictor":7879,"ondon":7880,"Ġpaste":7881,"ĠNorth":7882,"Ġvirtually":7883,"Ġnewer":7884,"Ġmagnification":7885,"Ġpier":7886,".......":7887,"Ġshift":7888,"Ġveh":7889,"eal":7890,"Ġattempting":7891,"ĠElizabeth":7892,"Ġstruct":7893,"Im":7894,"Ġpacking":7895,"Ġsteal":7896,"ĠAnyone":7897,"ffee":7898,"ĠOP":7899,"AND":7900,"ĠUnder":7901,"lers":7902,"ĠMil":7903,"Ġorders":7904,"osaur":7905,"Ġunknown":7906,"ĠFamily":7907,"Ġprotective":7908,"ĠWonderful":7909,"Ġassist":7910,"shave":7911,"ito":7912,"Ġdragged":7913,"ĠWORK":7914,"Ġsole":7915,"Ġtechnical":7916,"ige":7917,"Ġinfer":7918,"Watched":7919,"Ġbrighter":7920,"Ġmagical":7921,"Ġmicro":7922,"atable":7923,"Ġscenar":7924,"ĠArt":7925,"Ġtalks":7926,"ĠBeing":7927,"dom":7928,"Ġshopping":7929,"ĠTy":7930,"Ġdesert":7931,"Ġrights":7932,"Ġrain":7933,"gie":7934,"Ġsoph":7935,"Ġcabello":7936,"Ġwished":7937,"Ġdeleted":7938,"zing":7939,"ĠKeeps":7940,"ĠStars":7941,"Ġcalidad":7942,"Ġgar":7943,"Ãº":7944,"ĠTarget":7945,"Ġsett":7946,"Ġpicking":7947,"iday":7948,"usi":7949,"Ġtopic":7950,"Ġsmudges":7951,"Ġtheory":7952,"Ġtom":7953,"Ġglide":7954,"Ġtoothpaste":7955,"Ġemer":7956,"Ġsugar":7957,"Ġzombies":7958,"ĠSUP":7959,"Ġdissapointed":7960,"Ġsocks":7961,"Ġstorytelling":7962,"Ġtechnique":7963,"Ġneeding":7964,"Ġneighbor":7965,"Ġboss":7966,"ifferent":7967,"Ġinterpret":7968,"Ġsolo":7969,"Ġpand":7970,"ĠFord":7971,"Ġstruggling":7972,"ĠTex":7973,"Ġchase":7974,"ĠUsing":7975,"Ġaim":7976,"Ġactive":7977,"Ġ35":7978,"Ġvir":7979,"More":7980,"Ġking":7981,"ĠPR":7982,"Ġdownside":7983,"Ġexposed":7984,"Ġlocations":7985,"Ed":7986,"uality":7987,"ĠPER":7988,"Ġsweating":7989,"Ġpushed":7990,"Ġallowing":7991,"pet":7992,"Ġcompr":7993,"Ġresemb":7994,"Ġtitles":7995,"Ġcritical":7996,"ĠBuyer":7997,"Ġpom":7998,"ĠCaptain":7999,"Ġcalls":8000,"ĠSu":8001,"Return":8002,"ole":8003,"Ġknot":8004,"fit":8005,"Ġsegment":8006,"iforn":8007,"Ġnut":8008,"these":8009,"Ġstubble":8010,"rome":8011,"Ġoccasional":8012,"Ġdetailed":8013,"Fi":8014,"lder":8015,"Amer":8016,"dress":8017,"Ġcalling":8018,"\".<":8019,"Ġprove":8020,"will":8021,"ĠDry":8022,"angers":8023,"Ġaward":8024,"lesh":8025,"Ġdistribut":8026,"Ġelimin":8027,"PS":8028,"Ġreligion":8029,"ugs":8030,"ĠGuy":8031,"Ġinfect":8032,"ĠBoring":8033,"Ġnause":8034,"ĠEll":8035,"ĠStr":8036,"Ġeconom":8037,"Ġmucho":8038,"ĠSoft":8039,"Ġguns":8040,"Ġconfir":8041,"Sec":8042,"ĠJennifer":8043,"Ġmirrors":8044,"Ġfrankly":8045,"Ġlikable":8046,"Ġbob":8047,"Ġserve":8048,"Ġcontem":8049,"AYS":8050,"itute":8051,"craft":8052,"Ġ(\"":8053,"Ġraised":8054,"Ġ1980":8055,"Ġfibers":8056,"Ġhumorous":8057,"Ġtremend":8058,"Ġwarn":8059,"ARD":8060,"ĠEN":8061,"Ġhappier":8062,"although":8063,"Ġexceptional":8064,"38":8065,"aturing":8066,"Ġupside":8067,"bey":8068,"Ġpopping":8069,"ĠPLE":8070,"Ġridiculously":8071,"ĠMike":8072,"Ġartistic":8073,"Since":8074,"ĠSara":8075,"ACT":8076,"ĠMaster":8077,"Ġglowing":8078,"gger":8079,"eriously":8080,"stop":8081,"Ġhandful":8082,"Ġopposed":8083,"Ġpepper":8084,"ĠâĢ¦":8085,"Ġmarvel":8086,"ĠStone":8087,"Ġdelicate":8088,"Ġcaptured":8089,"Ġtragedy":8090,"Ġconditions":8091,"Ġintent":8092,"ĠGave":8093,"ĠFROM":8094,"tes":8095,"Ġadvant":8096,"ĠDick":8097,"cover":8098,"Ġcruelty":8099,"iration":8100,"Ġpel":8101,"48":8102,"Ġcolorful":8103,"ĠHUGE":8104,"ano":8105,"ĠLondon":8106,"Ġpowders":8107,"ĠTrue":8108,"Ġcups":8109,"Ġchecking":8110,"Cle":8111,"Ġblending":8112,"ĠBR":8113,"Ġlacked":8114,"Ġhairdryer":8115,"asting":8116,"Ġrancid":8117,"Ġpressed":8118,"Es":8119,"ante":8120,"Ġboat":8121,"Ġdemonstr":8122,"inol":8123,"Ġadvise":8124,"âĢįâĻ":8125,"ĠPac":8126,"ĠHORRIBLE":8127,"oda":8128,"Ġloses":8129,"ĠRod":8130,"Ġtroub":8131,"ĠLED":8132,"ĠEver":8133,"Ġhesitant":8134,"Enter":8135,"enes":8136,"Ġincorrect":8137,"ĠLucas":8138,"noon":8139,"Ġink":8140,"37":8141,"Ġopens":8142,"Ġcalm":8143,"Ġdreams":8144,"Ġtoy":8145,"Ġintact":8146,"Ġphenomenal":8147,"Ġvel":8148,"Ġpushing":8149,"Ġrow":8150,"ipment":8151,"ĠLuckily":8152,"aga":8153,"ausible":8154,"Ġcoffee":8155,"By":8156,"Ġemphas":8157,"Ġashamed":8158,"irk":8159,"Liked":8160,"Ġesp":8161,"Ġstruggles":8162,"ĠTOO":8163,"Ġinvolving":8164,"!).":8165,"Ġindepend":8166,"ĠTake":8167,"Highly":8168,"Ġintroduction":8169,"ragr":8170,"Ġfairy":8171,"ĠCruise":8172,"Ġbik":8173,"Ġcommunic":8174,"ppers":8175,"Ġstretched":8176,"iring":8177,"Ġnecessarily":8178,"mother":8179,"ĠDC":8180,"unately":8181,"ĠBrothers":8182,"Ġmixing":8183,"Ġwatches":8184,"Ġhun":8185,"ĠPlay":8186,"Ġdecisions":8187,"ocol":8188,"Ġvictims":8189,"ĠBasically":8190,"aches":8191,"ucky":8192,"Ġcook":8193,"Ġclogged":8194,"Ġamounts":8195,"Ġrecorded":8196,"Leaves":8197,"velope":8198,"Ġsurely":8199,"ĠACT":8200,"ĠMitch":8201,"Ġreput":8202,"Ġow":8203,"Ġforms":8204,"Ġwel":8205,"Ġpics":8206,"dra":8207,"fy":8208,"ĠConair":8209,"ĠOli":8210,"olk":8211,"Ġpainted":8212,"ĠRun":8213,"spe":8214,"ĠEss":8215,"Ġdepicted":8216,"erspirant":8217,"ĠFull":8218,"Ġsurg":8219,"Once":8220,"Ġcrowd":8221,"ĠLost":8222,"Ġpromptly":8223,"ĠSus":8224,"put":8225,"Ġremaster":8226,"ault":8227,"Ġbuck":8228,"49":8229,"Ġbuttons":8230,"Both":8231,"ĠRon":8232,"BE":8233,"ĠShampoo":8234,"Ġgrace":8235,"ĠYeah":8236,"Ġsoaking":8237,"igital":8238,"Ġblender":8239,"Ġtechniques":8240,"Ġspeech":8241,"Ġcrisp":8242,"ĠUSE":8243,"Ġdemand":8244,"ĠWoody":8245,"URN":8246,"ĠAir":8247,"outs":8248,"Ġstatic":8249,"Seems":8250,"alwood":8251,"oyal":8252,"Ġdump":8253,"Ġtouches":8254,"Ġdifferently":8255,"Ġconnected":8256,"Ġeth":8257,"ĠTakes":8258,"got":8259,"Ġdab":8260,"Ġgenerous":8261,"Extremely":8262,"cher":8263,"Ġclaimed":8264,"Ġbloody":8265,"ader":8266,"Ġteaching":8267,"WH":8268,"Ġloofah":8269,"ĠKen":8270,"vest":8271,"ĠWOULD":8272,"ĠOff":8273,"Ġrecording":8274,"ĠUsually":8275,"Ġgratuitous":8276,"Ġglides":8277,"ĠWithout":8278,"Ġ48":8279,"Ġowner":8280,"ils":8281,"ĠOp":8282,"ĠObviously":8283,"ĠHot":8284,"ĠLess":8285,"Ġmerely":8286,"ĠâĢĶ":8287,"Ġvanity":8288,"Ġisnt":8289,"ĠNeutrogena":8290,"mint":8291,"Ġlog":8292,"Ġskipping":8293,"luding":8294,"Ġspoiled":8295,"Ġsellers":8296,"ĠIron":8297,"Ġ1970":8298,"Ġtheatre":8299,"Ġaband":8300,"alypt":8301,"66":8302,"althy":8303,"Ġshrink":8304,"Ġtoddler":8305,"uity":8306,"Ġpurposes":8307,"Ġpainfully":8308,"ĠAdam":8309,"Ġnightmare":8310,"ifornia":8311,"Ġswitching":8312,"Ġseam":8313,"Ġhundreds":8314,"Ġphilosoph":8315,"Ġrecognize":8316,"Ġserved":8317,"have":8318,"Ġlovers":8319,"ĠKorean":8320,"OUT":8321,"Ġobnox":8322,"Ġnarrow":8323,"ĠTony":8324,"Ġnovels":8325,"Ġtad":8326,"Ġcircumst":8327,"Use":8328,"mod":8329,"Ġwid":8330,"urned":8331,"Ġpal":8332,"igned":8333,"Ġseparately":8334,"gle":8335,"Ġslippery":8336,"Ġwrest":8337,"herent":8338,"Ġcapable":8339,"ĠCarol":8340,"Ġnetwork":8341,"Ġfeatured":8342,"John":8343,"Ġfright":8344,"ĠAMAZON":8345,"Ġbuyer":8346,"Ġflicks":8347,"Ġrecomiendo":8348,"rown":8349,"Ġefforts":8350,"Ġwalked":8351,"Ne":8352,"Ġresponsible":8353,"ords":8354,"ĠPG":8355,"Ġbarber":8356,"tube":8357,"Ġblem":8358,"bur":8359,"Ġglasses":8360,"Ġoffe":8361,"Ġpointed":8362,"iro":8363,"ĠRom":8364,"Ġgotta":8365,"Ġequal":8366,"uk":8367,"mal":8368,"ĠSal":8369,"Ġcoating":8370,"Ġpresents":8371,"imm":8372,"Ġham":8373,"ĠPower":8374,"Ġnu":8375,"father":8376,"inky":8377,"Ġlousy":8378,"ĠSHOW":8379,"Ġmodels":8380,"ĠNick":8381,"ĠIve":8382,"fly":8383,"Ġsaves":8384,"ĠMrs":8385,"Ġmousse":8386,"ĠGal":8387,"jo":8388,"Ġirons":8389,"Ġadhere":8390,"Ġintegr":8391,"didn":8392,"ĠNail":8393,"ĠSaturday":8394,"Small":8395,"Lo":8396,"Ġcorpor":8397,"ration":8398,"Here":8399,"Meh":8400,"ĠRussell":8401,"Ġsimpl":8402,"Ġmilk":8403,"looking":8404,"ĠðŁĴ":8405,"Ġchosen":8406,"ĠEuropean":8407,"NO":8408,"ĠLewis":8409,"Ġsurprises":8410,"long":8411,"Ġunderarms":8412,"ĠBosch":8413,"Ġprograms":8414,"Ġcomparable":8415,"Ġcomedi":8416,"col":8417,"ĠHolmes":8418,"urious":8419,"ĠSephora":8420,"ddie":8421,"ĠCharles":8422,"Ġscrap":8423,"ĠJohnson":8424,"ĠInteresting":8425,"Ġshowering":8426,"Ġindividually":8427,"reh":8428,"based":8429,"Ġguards":8430,"Worth":8431,"rifying":8432,"icious":8433,"Ġcreatures":8434,"actory":8435,"Ġtastes":8436,"Ġplump":8437,"Ġtightly":8438,"Ġafternoon":8439,"athy":8440,"iling":8441,"Ġstorylines":8442,"ĠCut":8443,"Ġmustache":8444,"achel":8445,"Ġcorners":8446,"ĠEdition":8447,"Ġconstruction":8448,"47":8449,"Ġheavier":8450,"ĠStephen":8451,"Ġpregnant":8452,"Ġassemb":8453,"den":8454,"ĠThor":8455,"Ġhairdress":8456,"Need":8457,"aylor":8458,"Ġrevealed":8459,"Ġleader":8460,"Ġscrewed":8461,"aque":8462,"Ġequipment":8463,"Ġrust":8464,"Ġnur":8465,"Ġenthusi":8466,"Ġmartial":8467,"ĠWent":8468,"ĠUgh":8469,"Ġcreature":8470,"Ġbrutal":8471,"Ġasks":8472,"Ġfellow":8473,"Ġquarter":8474,"ĠBeware":8475,"Ġfreed":8476,"Ġsensit":8477,"ĠMer":8478,"accept":8479,"Ġdude":8480,"Ġaccents":8481,"Ġbundle":8482,"Ġmut":8483,"ĠTrans":8484,"Ġnope":8485,"Christ":8486,"GREAT":8487,"ĠCond":8488,"acting":8489,"Ġoffering":8490,"Ġpreferred":8491,"Ġunre":8492,"Ġremarkable":8493,"ĠAGAIN":8494,"Ġll":8495,"Ġbrushed":8496,"Ġsubscription":8497,"Ġultimate":8498,"ĠDor":8499,"Ġheated":8500,"ĠSet":8501,"Ġcampy":8502,"Ġglor":8503,"mg":8504,"from":8505,"ĠVictor":8506,"uls":8507,"Of":8508,"Ġpromising":8509,"za":8510,"acted":8511,"Ġgolden":8512,"Ġcosmetics":8513,"Ġcracking":8514,"vid":8515,"ĠWashing":8516,"Ġprovoking":8517,"Ġadvantage":8518,"ĠWonder":8519,"Ġflip":8520,"Where":8521,"Ġflaking":8522,"Ġnights":8523,"!&#":8524,"ĠBon":8525,"da":8526,"Ġsuffered":8527,"26":8528,"elle":8529,"Ġchallenging":8530,"ĠLE":8531,"ĠWarner":8532,"Ġinvestment":8533,"ĠPlan":8534,"Ġdeter":8535,"Ġcrude":8536,"Ġbrilli":8537,"loved":8538,"Ġgrease":8539,"Ġcontroll":8540,"Ġgels":8541,"Ġsales":8542,"osition":8543,"Ġfict":8544,"ĠHI":8545,"REE":8546,"ĠWin":8547,"ĠFre":8548,"akespe":8549,"Ġflowers":8550,"Ġpits":8551,"Ġbulk":8552,"Ġcourt":8553,"Ġfinest":8554,"ĠScent":8555,"Ġinferior":8556,"kids":8557,"VEN":8558,"Ġdepiction":8559,"ĠLes":8560,"Ġanswers":8561,"ĠBurt":8562,"SO":8563,"Ġmagnet":8564,"ĠAF":8565,"Ġfriendship":8566,"Ġslightest":8567,"Ġproud":8568,"arring":8569,"ĠImp":8570,"ĠDont":8571,"Ġspoilers":8572,"ĠAsian":8573,"Ġchunks":8574,"Excelente":8575,"ĠCalifornia":8576,"ĠFar":8577,"Ġrave":8578,"Ġpockets":8579,"Ġnaked":8580,"Ġextension":8581,"ĠJess":8582,"ĠWatching":8583,"ĠClassic":8584,"ĠSteven":8585,"Lots":8586,"asion":8587,"Ġic":8588,"Ġeligible":8589,"Ġ195":8590,"ĠRo":8591,"ravel":8592,"Ġnerv":8593,"Ġtalked":8594,"Ġhaircut":8595,"ilty":8596,"arable":8597,"ĠRid":8598,"ERO":8599,"Ġfond":8600,"Ġaccessories":8601,"Ġwound":8602,"assion":8603,"Ġcombat":8604,"ĠTHAN":8605,"Ġcomplaining":8606,"Ġscreaming":8607,"\")":8608,"Ġox":8609,"ston":8610,"Ģï¸ı":8611,"Having":8612,"RONG":8613,"fers":8614,"ĠMarch":8615,"Ġdifferences":8616,"ĠCompletely":8617,"Ġpencils":8618,"Ġcabin":8619,"Ġartists":8620,"Ġvoc":8621,"Ġinstance":8622,"Ġserums":8623,"Ġexplains":8624,"ĠBay":8625,"ĠSund":8626,"ĠCheck":8627,"hin":8628,"ilight":8629,"Ġcringe":8630,"Ġconversation":8631,"ĠSmall":8632,"Ġduty":8633,"Ġsleek":8634,"Ġ!!!!":8635,"Ġliners":8636,"Ġfluffy":8637,"Ġfragile":8638,"appropriate":8639,"Ġrefunded":8640,"ĠHill":8641,"Ġdisliked":8642,"Ġcutter":8643,"ĠHead":8644,"Ġemotionally":8645,"chool":8646,"Ġforces":8647,"ĠChristopher":8648,"ĠBS":8649,"Ġlistened":8650,"Ġpile":8651,"ached":8652,"reek":8653,"ollen":8654,"oop":8655,"âĢįâĻĢï¸ı":8656,"ĠCome":8657,"ĠSOME":8658,"Ġpractical":8659,"ĠAwful":8660,"Ġvast":8661,"Ġpray":8662,"Complete":8663,"Ġ1960":8664,"ĠWatched":8665,"ĠIns":8666,"Quality":8667,"Ġcoup":8668,"Ġsamples":8669,"inis":8670,"ĠBeen":8671,"Ġzip":8672,"ĠBrand":8673,"Ġsilent":8674,"OOOO":8675,"fessional":8676,"Ġhung":8677,"Ġpinch":8678,"Ġancient":8679,"Ġbelieved":8680,"eram":8681,"ragrance":8682,"Ġanx":8683,"Ġgrows":8684,"Ġexercises":8685,"Ġworthwhile":8686,"belief":8687,"ĠHitch":8688,"cript":8689,"Ġbueno":8690,"ĠTexas":8691,"Ġmane":8692,"place":8693,"ĠWall":8694,"Ġenvelope":8695,"ĠDec":8696,"78":8697,"Ġintellect":8698,"Ġreveal":8699,"Better":8700,"Ġhandled":8701,"Ġangles":8702,"Ġchapped":8703,"Ġpermanent":8704,"ĠSub":8705,"Ġclimax":8706,"Ġgreater":8707,"ĠOFF":8708,"ville":8709,"Ġobnoxious":8710,"lline":8711,"Ġstellar":8712,"ĠYE":8713,"Ġfooled":8714,"ront":8715,"Ġfiller":8716,"Second":8717,"Ġmatted":8718,"Ġdisappear":8719,"Ġbump":8720,"ĠBIG":8721,"Ġgal":8722,"ĠDi":8723,"Ġhairdresser":8724,"Ġnervous":8725,"Ġbristle":8726,"Ġhairline":8727,"aseline":8728,"Ġplate":8729,"Ġfaulty":8730,"Ġapprox":8731,"Ġdubbed":8732,"aired":8733,"phe":8734,"ĠGri":8735,"Ġconsequ":8736,"Ġcontrast":8737,"ĠBle":8738,"Ġpeach":8739,"Ġbalms":8740,"Ġalternate":8741,"Ġmechanism":8742,"Ġmatched":8743,"Ġlately":8744,"ĠDet":8745,"ĠHaven":8746,"aire":8747,"ĠUpon":8748,"agn":8749,"ĠArrived":8750,"Ġblended":8751,"acceptable":8752,"raight":8753,"Ġexagger":8754,"Ġyrs":8755,"Stupid":8756,"nect":8757,"Feels":8758,"Ġfest":8759,"Ġrender":8760,"ĠMach":8761,"ĠSl":8762,"ĠHun":8763,"Ġbronzer":8764,"ĠFriday":8765,"Ġcured":8766,"Ġalb":8767,"Ġfeaturing":8768,"Ġkidding":8769,"Ġracist":8770,"ĠStick":8771,"Ġcloud":8772,"ateful":8773,"Ġscare":8774,"Ġendless":8775,"Ġfunctional":8776,"ĠIrish":8777,"phy":8778,"ĠKate":8779,"Ġtiss":8780,"ĠMUST":8781,"ĠBet":8782,"Ġounce":8783,"Ġgenuinely":8784,"ĠFer":8785,"Ġsells":8786,"Ġsne":8787,"ttes":8788,"oker":8789,"ĠChan":8790,"Ġnicer":8791,"Ġcakey":8792,"Ġplant":8793,"Ġadvanced":8794,"Ġunderstood":8795,"isy":8796,"Ġshocking":8797,"Ġvillains":8798,"Ġtame":8799,"Ġrecome":8800,"rence":8801,"ĠFound":8802,"ĠIndian":8803,"Ġlimp":8804,"Ġ2020":8805,"ĠDa":8806,"Ġhen":8807,"App":8808,"Get":8809,"Ġgoal":8810,"thur":8811,"Big":8812,"âŃ":8813,"aser":8814,"ĠPLEASE":8815,"Ġatte":8816,"Ġcarried":8817,"Ġegg":8818,"Ġstatement":8819,"Ġros":8820,"Much":8821,"rat":8822,"rageous":8823,"Ġpackages":8824,"cock":8825,"âŃĲ":8826,"Ġdevices":8827,"Ġcosmetic":8828,"fil":8829,"akespeare":8830,"every":8831,"Ġspy":8832,"Ġbonnet":8833,"Ġtreatments":8834,"ĠMs":8835,"Ġblew":8836,"umentary":8837,"Ġtied":8838,"Ġattitude":8839,"corn":8840,"Ġsnag":8841,"Ġteenagers":8842,"Ġexplo":8843,"Ġtaught":8844,"Ġsmoke":8845,"ĠðŁĳį":8846,"together":8847,"Ġessence":8848,"Ġrepetitive":8849,"Ġpedic":8850,"Ġignore":8851,"Ġchrist":8852,"ĠPUR":8853,"Ġmistakes":8854,"Ġbroadcast":8855,"why":8856,"Ġhorrific":8857,"Ġsisters":8858,"Ġblows":8859,"ĠJune":8860,"Ġslides":8861,"Ġ1950":8862,"ĠLucy":8863,"Ġdinner":8864,"Ġdecor":8865,"ruction":8866,"played":8867,"Ġrefreshed":8868,"Ġserves":8869,"Ġfactory":8870,"Ġyoutube":8871,"98":8872,"Ġuninteresting":8873,"Ġordinary":8874,"ippers":8875,"Ġweb":8876,"ĠHistory":8877,"aras":8878,"Âł":8879,"prise":8880,"Ġexpiration":8881,"ĠAnne":8882,"ĠAnth":8883,"Ġbummer":8884,"ĠPow":8885,"girl":8886,"ĠUnlike":8887,"Ġmagnets":8888,"Ġidentical":8889,"ĠOlay":8890,"Ġfiling":8891,"Ġcried":8892,"Ġantip":8893,"Ġhall":8894,"cons":8895,"ori":8896,"Ġproviding":8897,"Ġpurs":8898,"hib":8899,"Ġdense":8900,"Ġflight":8901,"Ġstereotypes":8902,"Ġspeaks":8903,"Ġwing":8904,"Ġalmond":8905,"ĠClean":8906,"?&#":8907,"usable":8908,"ancing":8909,"aren":8910,"Ġles":8911,"Ġradio":8912,"ĠPC":8913,"Ġportraying":8914,"Ġutil":8915,"cles":8916,"Ġdisbelief":8917,"Ġexcessive":8918,"Ġrelevant":8919,"....<":8920,"amm":8921,"Ġlabels":8922,"ĠTaylor":8923,"ĠStewart":8924,"Ġquicker":8925,"Ġdropper":8926,"Ġportrays":8927,"ĠPure":8928,"ĠLol":8929,"Ġvague":8930,"Ġsen":8931,"best":8932,"pass":8933,"Ġflawed":8934,"Totally":8935,"ĠPal":8936,"Ġliberal":8937,"ĠFort":8938,"Ġidiot":8939,"afe":8940,"Ġpod":8941,"Ġeleg":8942,"Ġmagnific":8943,"Ġsymb":8944,"Ġmildly":8945,"Ġmeeting":8946,"Ġpros":8947,"ĠJuly":8948,"vol":8949,"ĠGhost":8950,"Ġcliff":8951,"Ġmanual":8952,"Ġintrod":8953,"ĠComes":8954,"Ġtact":8955,"Ġbold":8956,"plot":8957,"Ġpicks":8958,"oiler":8959,"Ġcheese":8960,"erate":8961,"because":8962,"itionally":8963,"Ġdedic":8964,"ogue":8965,"Ġpreviews":8966,"Ġaddicted":8967,"SS":8968,"Ġtrailers":8969,"aws":8970,"ĠPresident":8971,"bud":8972,"Disc":8973,"nothing":8974,"ĠCare":8975,"Ġblowing":8976,"ĠApril":8977,"44":8978,"Ġseverely":8979,"ĠGener":8980,"Col":8981,"Ġstencil":8982,"ago":8983,"warming":8984,"Ġindividuals":8985,"Ġrive":8986,"Ġrescue":8987,"Ġlifetime":8988,"aiting":8989,"Ġmixture":8990,"ĠAvoid":8991,"Ġpalm":8992,"everal":8993,"ĠWashington":8994,"orig":8995,"Ġserv":8996,"Ġclamp":8997,"Ġ:/":8998,"kind":8999,"Ġain":9000,"INE":9001,"Ġdamaging":9002,"ĠMoistur":9003,"ĠSomeone":9004,"Ġskill":9005,"Ġ99":9006,"Ġwoods":9007,"Ġscale":9008,"hill":9009,"ĠEnd":9010,"Ġbeloved":9011,"mission":9012,"Ġgoofy":9013,"Ġconspir":9014,"upt":9015,"Ġlil":9016,"Ġtransition":9017,"ĠMet":9018,"Ġbargain":9019,"Ġuncle":9020,"encing":9021,"Ġultra":9022,"Ġdecept":9023,"attering":9024,"Ġsegments":9025,"Ġbird":9026,"Ġtapes":9027,"Ġpac":9028,"MEND":9029,"ĠBull":9030,"ĠTER":9031,"oured":9032,"think":9033,"iolet":9034,"ublic":9035,"ĠNeedless":9036,"Ġhumidity":9037,"ĠEddie":9038,"ĠCap":9039,"Ġdesk":9040,"Ġswollen":9041,"yer":9042,"Ġlowest":9043,"oms":9044,"ĠHome":9045,"rem":9046,"Ġingrown":9047,"Ġwinning":9048,"Ġslo":9049,"Ġmelod":9050,"Ġni":9051,"Ġcuz":9052,"Ġassuming":9053,"IP":9054,"ĠVitamin":9055,"ĠMovies":9056,"ements":9057,"prising":9058,"Ġencoura":9059,"Ġdise":9060,"Ġcrunchy":9061,"Ġsequels":9062,"Ġextraord":9063,"Ġparticip":9064,"Ġclosing":9065,"Ġscars":9066,"Ġshoes":9067,"ĠLaur":9068,"Ġsanit":9069,"Ġratio":9070,"eman":9071,"urity":9072,"Dec":9073,":)":9074,"Ġweekly":9075,"Ġtesting":9076,"Ġsurgery":9077,"Ġsolve":9078,"via":9079,"ichol":9080,"Ġcaution":9081,"ĠSn":9082,"ffective":9083,"ested":9084,"ITY":9085,"nal":9086,"ĠLiterally":9087,"rocious":9088,"ĠAug":9089,"Ġsurf":9090,"ez":9091,"Ġprofanity":9092,"Ġdarn":9093,"ĠRECOM":9094,"oded":9095,"Ġbudd":9096,"ĠStay":9097,"ĠFlor":9098,"breaking":9099,"Ġfaithful":9100,"Ġkidn":9101,"ĠPotter":9102,"ĠWitch":9103,"ĠGermany":9104,"Ġincrease":9105,"screens":9106,"Ġminds":9107,"Ġhrs":9108,"etheless":9109,"Ġlikeable":9110,"Ġcleared":9111,"Ġruins":9112,"inks":9113,"Ġhorrend":9114,"Ġouts":9115,"Ġlau":9116,"Ġtrib":9117,"attery":9118,"ribute":9119,"Ġrequested":9120,"Ġrecover":9121,"anic":9122,"Ġskips":9123,"Ġbuen":9124,"Ġimagin":9125,"Ġrules":9126,"Ġrandomly":9127,"ĠCollection":9128,"====":9129,"Gave":9130,"Ġcentral":9131,"Ġvary":9132,"umbling":9133,"roll":9134,"Ġsmashed":9135,"ĠMal":9136,"Ġsuds":9137,"Ġfuncion":9138,"ĠFA":9139,"Ġende":9140,"Ġpercent":9141,"Ġstopping":9142,"Ġgly":9143,"Ġoccasions":9144,"ypical":9145,"fa":9146,"Ġmud":9147,"inding":9148,"raction":9149,"ifi":9150,"ĠKid":9151,"ðŁı¼":9152,"alling":9153,"ĠSol":9154,"Ġcomics":9155,"ĠShakespeare":9156,"Ġ~":9157,"Ġfilling":9158,"ĠSM":9159,"ĠNOW":9160,"ĠOriginal":9161,"Ġlatter":9162,"eb":9163,"Ġhunt":9164,"ĠFrance":9165,"ipes":9166,"Ġdelicious":9167,"break":9168,"Ġpsychological":9169,"AU":9170,"rum":9171,"Ġversus":9172,"Ġexpand":9173,"ĠBesides":9174,"Ġanyways":9175,"Entertaining":9176,"Ġlogic":9177,"Ġjumped":9178,"Ġcircumstances":9179,"Our":9180,"asive":9181,"Ġpomade":9182,"ðŁĺ¡":9183,"Ġprivate":9184,"ouses":9185,"Ġopinions":9186,"Ġloop":9187,"Ġcriminal":9188,"Ġven":9189,"ĠDar":9190,"ART":9191,"Ġcheek":9192,"Ġincon":9193,"Ġ/>âĢ":9194,"ĠSan":9195,"Ġlifting":9196,"Ġwreck":9197,"Ġsmoking":9198,"foot":9199,"Ġguitar":9200,"Ġlying":9201,"ĠCath":9202,"Ġeager":9203,"ĠDad":9204,"Ġproductions":9205,"tedly":9206,"63":9207,"Ġengaged":9208,"ĠHanks":9209,"Ġdressed":9210,"Ġtrop":9211,"ooo":9212,"Ġdisappeared":9213,"ĠJr":9214,"Ġtruck":9215,"Ġflesh":9216,"Ġstruggled":9217,"Ġarrives":9218,"Ġdisag":9219,"Ġanticipated":9220,"American":9221,"ns":9222,"inging":9223,"ĠThankfully":9224,"Ġpatience":9225,"ĠJean":9226,"iblical":9227,"Ġlimit":9228,"Ġdinosaur":9229,"Ġprimarily":9230,"Ġstreaky":9231,"Ġstocking":9232,"ĠSUPER":9233,"outhern":9234,"Ġhack":9235,"ĠBox":9236,"Ġdent":9237,"omed":9238,"Ġincomp":9239,"ĠBlood":9240,"bi":9241,"Ġwarming":9242,"Ġbleeding":9243,"Ġclown":9244,"ĠTHEM":9245,"Ġpicky":9246,"Ġpops":9247,"Ġsigns":9248,"Ġtil":9249,"ortion":9250,"boring":9251,"Ġdrier":9252,"ĠCharacters":9253,"ĠDev":9254,"ĠCrow":9255,"Ġdistinct":9256,"writer":9257,"Ġbluray":9258,"ĠAlien":9259,"Seriously":9260,"Ġaged":9261,"PT":9262,"ĠDepp":9263,"ĠDragon":9264,"gun":9265,"ĠHAD":9266,"Ġenemy":9267,"Ġadore":9268,"ĠAmy":9269,"Ġcreators":9270,"Scent":9271,"ĠYoung":9272,"Ġsunscreens":9273,"Ġsir":9274,"ĠKnight":9275,"Ġoverlook":9276,"Ġpreach":9277,"ĠRegion":9278,"ĠDeath":9279,"Ġcompliment":9280,"then":9281,"ĠDece":9282,"ocolate":9283,"Ġoccasion":9284,"Ġmessages":9285,"ĠComm":9286,"Ġinappropriate":9287,"Ġtrips":9288,"Ġbuena":9289,"Ġscientific":9290,"ober":9291,"Ph":9292,"children":9293,"bie":9294,"feit":9295,"ĠMa":9296,"Ġpitch":9297,"quality":9298,"tones":9299,"Ġfictional":9300,"cha":9301,"ĠRECOMMEND":9302,"Ġpir":9303,"Ġreviewed":9304,"Ġrolled":9305,"Ġcops":9306,"Ġexistence":9307,"Ġupgrade":9308,"except":9309,"Ġsquare":9310,"Ġthousands":9311,"isa":9312,"Ġunravel":9313,"atinum":9314,"ntil":9315,"BI":9316,"Ġdriven":9317,"ĠLady":9318,"Ġwhoever":9319,"Ġads":9320,"Ġofficial":9321,"AW":9322,"IF":9323,"ĠTolk":9324,"Ġanytime":9325,"bow":9326,"Ġwaxing":9327,"Ġshowers":9328,"Ġfoaming":9329,"Ġwhim":9330,"ros":9331,"Ġbre":9332,"ESOME":9333,"ĠSarah":9334,"Ġpandemic":9335,"cula":9336,"Ġjumps":9337,"Ġglossy":9338,"Ġrend":9339,"Ġive":9340,"ĠSoap":9341,"Ġrush":9342,"Ġconfident":9343,"Ġveter":9344,"77":9345,"Ġshark":9346,"ĠðŁĻ":9347,"also":9348,"Ġdryers":9349,"des":9350,"ominated":9351,"WARE":9352,"55":9353,"unky":9354,"ĠWilson":9355,"Long":9356,"Ġplanned":9357,"ĠLONG":9358,"Ġsecurity":9359,"Ġhood":9360,"Ġfingernails":9361,"edium":9362,"Ġlocked":9363,"ABLE":9364,"Ġstored":9365,"Ġmysteries":9366,"Ġpatient":9367,"Ġadvance":9368,"Ġjustify":9369,"Ġblurry":9370,"HD":9371,"ician":9372,"Ġdeals":9373,"Ġgig":9374,"Ġcous":9375,"ĠUlta":9376,"AG":9377,"Ġcategory":9378,"Ġborder":9379,"Ġpissed":9380,"Ġapartment":9381,"iser":9382,"Ġ2000":9383,"ĠHugh":9384,"ĠBall":9385,"Ġdefined":9386,"Ġshell":9387,"Ġenhance":9388,"Ġsubstant":9389,"Ġwheel":9390,"aba":9391,"job":9392,"thew":9393,"ĠAcademy":9394,"ĠMurphy":9395,"Ġsuperhero":9396,"POINT":9397,"oting":9398,"Ġpret":9399,"Ġrecy":9400,"Ġsorts":9401,"aks":9402,"Ġjewel":9403,"Ġbusted":9404,"Ġaer":9405,"Ġenglish":9406,"Hilarious":9407,"Ġyo":9408,"written":9409,"ĠAbbey":9410,"Ġupdated":9411,"Ġgap":9412,"Ġreliable":9413,"rol":9414,"Ġenjoyment":9415,"Ġlaid":9416,"ĠQU":9417,"Ġofficer":9418,"Ġtransparent":9419,"Ġearned":9420,"TURN":9421,"Ġbodies":9422,"Ġshorts":9423,"Ġwhit":9424,"ĠIsland":9425,"Ġaccomp":9426,"Ġpopcorn":9427,"Ġrubb":9428,"DE":9429,"ĠGame":9430,"Ġreminis":9431,"Ġchapter":9432,"Ġatrocious":9433,"Ġweapons":9434,"Ġcomplained":9435,"Ġunp":9436,"Ġdegrees":9437,"ĠZomb":9438,"cro":9439,"Ġpassing":9440,"rocery":9441,"Ġtoenails":9442,"ĠButter":9443,"Ġsuicide":9444,"Ġencant":9445,"ĠFlorida":9446,"Ġmascaras":9447,"Ġsharpen":9448,"Ġpersonalities":9449,"ĠWOW":9450,"Ġthro":9451,"Ġadequate":9452,"Ġguarantee":9453,"Ġintrigue":9454,"Ġfreedom":9455,"\"<":9456,"beat":9457,"Ġocean":9458,"Ġrecomend":9459,"ĠDISAP":9460,"Ġexam":9461,"Ġfitting":9462,"ĠDoll":9463,"Ġperfection":9464,"ĠStan":9465,"ĠLeon":9466,"Ġcooling":9467,"aple":9468,"Ġbabies":9469,"Ġcaptivating":9470,"Ġhighl":9471,"ĠHIGH":9472,"ĠSanta":9473,"ifies":9474,"Ġvent":9475,"Ġaccomplish":9476,"Ġunse":9477,"quin":9478,"Ġcaption":9479,"Ġgory":9480,"Ġcaptures":9481,"Ġupl":9482,"Ġsque":9483,"ĠHalf":9484,"FECT":9485,"lyn":9486,"Ġshortly":9487,"ĠHand":9488,"ĠCarr":9489,"Ġripping":9490,"URE":9491,"Ġfreaking":9492,"Ġtamper":9493,"Ġknife":9494,"ĠPatrick":9495,"enic":9496,"ĠJord":9497,"Ġcaring":9498,"athan":9499,"Ġwrapping":9500,"cr":9501,"Ġreviewing":9502,"ĠConn":9503,"Ġfee":9504,"ĠViet":9505,"Ġgrain":9506,"ĠTolkien":9507,"Ġopaque":9508,"Ġliter":9509,"Ġchalky":9510,"comend":9511,"ĠHitchcock":9512,"Ġnuts":9513,"semble":9514,"Ġbattles":9515,"AGE":9516,"ĠSherlock":9517,"cd":9518,"Ġresistant":9519,"ĠThrew":9520,"Ġmascul":9521,"ĠCage":9522,"ari":9523,"Ġpraise":9524,"ĠToday":9525,"abe":9526,"pse":9527,"Ġcurved":9528,"ĠOz":9529,"ĠChap":9530,"Ġeverytime":9531,"Ġarmy":9532,"ĠClint":9533,"ĠElvis":9534,"Spe":9535,"Ġtor":9536,"ĠDol":9537,"ĠTHESE":9538,"ĠArthur":9539,"agine":9540,"Ġsupernatural":9541,"urders":9542,"icking":9543,"Ġdramas":9544,"Ġgag":9545,"ĠJoan":9546,"Ġjumping":9547,"ĠCannot":9548,"Ġsearched":9549,"Ġwiped":9550,"Ġminus":9551,"Ġinstallment":9552,"nan":9553,"Ġcarries":9554,"ĠFour":9555,"Ġfunnier":9556,"Ġvegan":9557,"Stopped":9558,"non":9559,"sim":9560,"ikes":9561,"ĠMic":9562,"ĠJam":9563,"Ġprotected":9564,"ĠSTILL":9565,"Ġsports":9566,"coat":9567,"ĠFAKE":9568,"acles":9569,"Ġdefinite":9570,"Ġgrasp":9571,"udos":9572,"ðŁĺį":9573,"Ġminimum":9574,"Rob":9575,"Ġpeppermint":9576,"Ġgusto":9577,"ULL":9578,"stream":9579,"ĠSky":9580,"ĠFree":9581,"ĠJanuary":9582,"Ġgrocery":9583,"Ġaffair":9584,"Ġinstructor":9585,"disc":9586,"ĠDecember":9587,"ĠDem":9588,"ASH":9589,"ĠTruly":9590,"Ġsuperf":9591,"Ġorganizer":9592,"ĠFair":9593,"ĠSEE":9594,"ĠWoman":9595,"Ġadventures":9596,"Ġhorrendous":9597,"ona":9598,"Ġwondered":9599,"ĠChi":9600,"ADE":9601,"ĠHoward":9602,"ĠWork":9603,"Ġgripping":9604,"Ġclimate":9605,"Ġbuzz":9606,"Ġjobs":9607,"Ġproves":9608,"Ġfac":9609,"iform":9610,"Ġbraid":9611,"Ġtiene":9612,"Ġdrags":9613,"Ġfocuses":9614,"ato":9615,"Ġshattered":9616,"Ġrashes":9617,"hair":9618,"vably":9619,"ĠBath":9620,"amount":9621,"Ġprimary":9622,"Ġignored":9623,"ĠNichol":9624,"ĠKids":9625,"would":9626,"ĠWORST":9627,"Ġspite":9628,"Ġtalents":9629,"ennis":9630,"Ġusar":9631,"azor":9632,"Ġmovements":9633,"ĠSunday":9634,"oto":9635,"Ġdimin":9636,"Ġstructure":9637,"unted":9638,"Ġunbearable":9639,"iber":9640,"Ġversat":9641,"ĠDownton":9642,"Ġpatchy":9643,"Ġtoned":9644,"nic":9645,"ĠRings":9646,"ucked":9647,"Ġdeveloping":9648,"ĠWorked":9649,"ĠEXT":9650,"iculty":9651,"Ġslash":9652,"ĠMother":9653,"ĠSpr":9654,"ĠMorgan":9655,"ĠmÃ¡s":9656,"Ġtiming":9657,"white":9658,"iled":9659,"iac":9660,"Ġlle":9661,"ĠPhill":9662,"ASON":9663,"block":9664,"chest":9665,"Ġscientist":9666,"ĠDigital":9667,"budget":9668,"Ġsparkle":9669,"Ġblat":9670,"Ġmindless":9671,"Started":9672,"Ġparan":9673,"Ġwelcome":9674,"cloth":9675,"smells":9676,"ira":9677,"ĠFur":9678,"Ġcontribut":9679,"uum":9680,"Ġhonor":9681,"ĠAnthony":9682,"iation":9683,"Ġpix":9684,"Ġcharges":9685,"Ġguilty":9686,"dro":9687,"Ġmoon":9688,"Ġrealism":9689,"Ġrise":9690,"ĠSean":9691,"Ġpine":9692,"taking":9693,"Ġimmediate":9694,"Ġstripped":9695,"Ġspare":9696,"ĠCL":9697,"Ġflower":9698,"Ġindependent":9699,":(":9700,"Ġplans":9701,"bsolute":9702,"Ġrocks":9703,"Ġcountries":9704,"ĠFa":9705,"Ġscripts":9706,"avorite":9707,"Ġgain":9708,"core":9709,"Ġshared":9710,"Ġlengths":9711,"ndry":9712,"Ġnour":9713,"Ste":9714,"laim":9715,"Ġpallet":9716,"Ġinteraction":9717,"Star":9718,"ĠPersonally":9719,"Ġunacceptable":9720,"abor":9721,"uable":9722,"Ġtask":9723,"ISH":9724,"ĠPerry":9725,"Ġremained":9726,"Ġtimeless":9727,"ĠUniversal":9728,"Ġharmful":9729,"rous":9730,"Add":9731,"ĠSaw":9732,"aton":9733,"incere":9734,"ĠSeller":9735,"MELL":9736,"Ġstaff":9737,"ĠRos":9738,"Ġdifficulty":9739,"ĠDONT":9740,"ĠZERO":9741,"ĠMusic":9742,"88":9743,"ĠPlot":9744,"world":9745,"Ġmedicine":9746,"Ġbitter":9747,"La":9748,"Ġtemporary":9749,"Ġunfold":9750,"ĠEye":9751,"Ġdisappears":9752,"Ġhappily":9753,".'":9754,"32":9755,"Ġchallenges":9756,"Ġfulf":9757,"ieces":9758,"ĠArn":9759,"orses":9760,"ĠAnderson":9761,"Ġpartially":9762,"HA":9763,"Ġhorrid":9764,"riter":9765,"Ġinvent":9766,"ĠCind":9767,"icit":9768,"Ġwider":9769,"Ġalert":9770,"ruit":9771,"Ġstrap":9772,"ĠMexico":9773,"Ġprincip":9774,"Ġsulfate":9775,"ĠRO":9776,"Ġhyster":9777,"Ġproducing":9778,"Ġsurvival":9779,"Ġintensity":9780,"ĠAff":9781,"97":9782,"amor":9783,"Ġensure":9784,"Ġchron":9785,"ĠDavis":9786,"Ġhates":9787,"36":9788,"ĠEr":9789,"anging":9790,"reasy":9791,"ĠClin":9792,"iversary":9793,"uv":9794,"Ġlaughter":9795,"itz":9796,"ĠWANT":9797,"Ġdisplayed":9798,"Ġgrooming":9799,"Ġdom":9800,"Ġfluff":9801,"coon":9802,"ĠOrdered":9803,"Ġmeas":9804,"ensitive":9805,"umbo":9806,"Ġclosest":9807,"lets":9808,"uronic":9809,"alia":9810,"Ġexplaining":9811,"Pro":9812,"bian":9813,"Ġhyper":9814,"original":9815,"ĠDISAPPOINT":9816,"ĠHans":9817,"ĠNEW":9818,"Ġmillions":9819,"ĠPURCH":9820,"ĠAugust":9821,"ĠDun":9822,"ignant":9823,"Ġteaches":9824,"Ġbug":9825,"Ġscares":9826,"acea":9827,"atures":9828,"See":9829,"Ġstood":9830,"Ġstead":9831,"Ġsubscri":9832,"ĠBeat":9833,"Ġsandalwood":9834,"Ġincreasing":9835,"Ġretinol":9836,"Ġtolerate":9837,"Ġstones":9838,"ĠBook":9839,"Ġcans":9840,"ĠHawai":9841,"Ġcuring":9842,"Ġincom":9843,"ĠCos":9844,"ugging":9845,"erve":9846,"Ġcrushed":9847,"Ġalike":9848,"Ġparody":9849,"Ġmiles":9850,"ĠZero":9851,"ĠRen":9852,"entional":9853,"Ġinvested":9854,"Ġhar":9855,"Ġfilmmaker":9856,"Ġrape":9857,"full":9858,"Ġcouldnt":9859,"ĠJerry":9860,"doesn":9861,"gi":9862,"Ġgall":9863,"aze":9864,"Ġnostalgia":9865,"Ġcompartments":9866,"Ġscrews":9867,"Ġsuffers":9868,"Ġcared":9869,"Ġblackheads":9870,"ĠOl":9871,"Saw":9872,"Ġmarked":9873,"Ġinconven":9874,"Ġjaw":9875,"ester":9876,"entious":9877,"ĠRETURN":9878,"Ġpredict":9879,"ĠCBS":9880,"jud":9881,"Ġunnatural":9882,"atherine":9883,"Ġrefused":9884,"ĠBroad":9885,"allic":9886,"ĠCamp":9887,"osex":9888,"ĠDanny":9889,"ĠAg":9890,"Ġthoughtful":9891,"ĠSkip":9892,"alth":9893,"ĠDoc":9894,"Ġchamp":9895,"Ġblemishes":9896,"eling":9897,"apoint":9898,"ĠOVER":9899,"Ġinsulting":9900,"Ġcultural":9901,"ĠEdward":9902,"Ġantiperspirant":9903,"ĠHallmark":9904,"ĠPur":9905,"Ġscrubber":9906,"Ġsket":9907,"Ġsettle":9908,"Ġdiluted":9909,"Ġchunky":9910,"itable":9911,"Ġsurrounding":9912,"ĠOctober":9913,"Ġmob":9914,"ĠKN":9915,"rior":9916,"Ġraise":9917,"ĠGen":9918,"ĠInc":9919,"Ġprinted":9920,"ĠKat":9921,"ĠRecommended":9922,"ench":9923,"Del":9924,"Ġvehicle":9925,"usive":9926,"ĠWasn":9927,"Ġrod":9928,"oser":9929,"Go":9930,"Ġgrateful":9931,"ĠBees":9932,"TW":9933,"Ġuniform":9934,"Ġmagnificent":9935,"port":9936,"ifficult":9937,"Ġgimm":9938,"Ġinh":9939,"Ġrenew":9940,"osity":9941,"bd":9942,"Ġlegal":9943,"ĠOrgan":9944,"ĠNove":9945,"Ġwarmer":9946,"bc":9947,"ĠSER":9948,"Ġflashbacks":9949,"Ġsophistic":9950,"ĠTERRIBLE":9951,"Ġenter":9952,"ĠWHO":9953,"ĠSea":9954,"ĠBell":9955,"Ġtaped":9956,"Ġinterpretation":9957,"Bec":9958,"Ġscratchy":9959,"Ġwalks":9960,"ĠRoman":9961,"Ġcreme":9962,"atched":9963,"Ġsky":9964,"utions":9965,"ĠParker":9966,"ĠJackie":9967,"gen":9968,"ĠTree":9969,"Ġsam":9970,"Ġtun":9971,"Ġbalanced":9972,"Miss":9973,"ĠVik":9974,"ĠFranc":9975,"ĠJordan":9976,"ĠMoon":9977,"including":9978,"Ġcircle":9979,"othy":9980,"going":9981,"Ġrobot":9982,"ĠMaybelline":9983,"Ġhitting":9984,"Ġfluid":9985,"Ġillustr":9986,"ĠChannel":9987,"Ġcliches":9988,"gate":9989,"ceeds":9990,"ĠAWFUL":9991,"Ye":9992,"called":9993,"Ġcontinuing":9994,"Ġ26":9995,"Ġcorrupt":9996,"Ġdime":9997,"Ġaltogether":9998,"ĠPort":9999,"rell":10000,"Ġresour":10001,"Ġprofound":10002,"Ġbrassy":10003,".&":10004,"ĠReceived":10005,"Ġanaly":10006,"Ġreh":10007,"Ġblank":10008,"Ġnoticeably":10009,"Ġallergy":10010,"wy":10011,"Ġnation":10012,"ĠLow":10013,"ĠKill":10014,"Ġparab":10015,"ĠðŁĳİ":10016,"Ġfuzzy":10017,",âĢĿ":10018,"Ġpairs":10019,"Ġcreation":10020,"inated":10021,"ĠSept":10022,"Ġphysically":10023,"Total":10024,"oups":10025,"Ġtoys":10026,"Ġshaking":10027,"Ġhill":10028,"ĠUSB":10029,"Ġjerk":10030,"Ġacqu":10031,"Sadly":10032,"color":10033,"alls":10034,"Ġfading":10035,"Ġconvey":10036,"Ġsecurely":10037,"Ġconfidence":10038,"Ġbeats":10039,"atible":10040,"Ġtax":10041,"Ġkits":10042,"Ġstinky":10043,"Last":10044,"eratin":10045,"Story":10046,"Ġmurdered":10047,"ĠWHY":10048,"Ġstale":10049,"ĠAdditionally":10050,"Ġgather":10051,"ĠEric":10052,"ĠJulia":10053,"Ġjelly":10054,"emption":10055,"Ġdual":10056,"eled":10057,"Ġlocally":10058,"Ġhanded":10059,"Ġfet":10060,"ĠDuring":10061,"ĠSound":10062,"Ġpiel":10063,"ĠMons":10064,"Ġlargely":10065,"Despite":10066,"Ġimagined":10067,"Ġcasual":10068,"Ġdisgusted":10069,"ĠWillis":10070,"Ġawards":10071,"Ġelder":10072,"Ġsched":10073,"Ġsinger":10074,"TF":10075,"Ġesta":10076,"Ġinfluence":10077,"theless":10078,"New":10079,"Ġcontinuity":10080,"super":10081,"Ġdownright":10082,"Ġcrystal":10083,"ĠCR":10084,"ĠLip":10085,"ĠWasted":10086,"Ġextent":10087,"Ġlocs":10088,"ĠFelt":10089,"Ġmitt":10090,"Ġhistorically":10091,"Ġconstructed":10092,"poor":10093,"orial":10094,"ĠRick":10095,");":10096,"Ġconspiracy":10097,"ĠScr":10098,"Ġexists":10099,"ĠTherefore":10100,"enny":10101,"ĠNon":10102,"VERY":10103,"Ġtrimmed":10104,"Ġseek":10105,"ĠBrian":10106,"Ġcitiz":10107,"ĠNazi":10108,"Ġsuited":10109,"ĠEvil":10110,"//":10111,"Ġhi":10112,"Ġcooking":10113,"ĠChristians":10114,"Ġsensitivity":10115,"Ġstitch":10116,"Ġassemble":10117,"erella":10118,"Ġnoticing":10119,"OUR":10120,"Ġolds":10121,"Ġassass":10122,"Ġinaccurate":10123,"Ġportable":10124,"yo":10125,"Ġirre":10126,"Ġfraction":10127,"Ġluxurious":10128,"stic":10129,"Ġconvenience":10130,"ĠKelly":10131,"Ġrefuse":10132,"ĠMoney":10133,"han":10134,"Ġsew":10135,"ĠBACK":10136,"Ġcountless":10137,"acked":10138,"cio":10139,"tub":10140,"Ġloaded":10141,"ĠSpider":10142,"Ġpuffy":10143,"umph":10144,"Ġ23":10145,"Ġamateurish":10146,"Ġprofessionally":10147,"Ġtender":10148,"Ġimmense":10149,"Ġhue":10150,"Ġsleeve":10151,"alo":10152,"Ġameric":10153,"Ġspends":10154,"Ġdos":10155,"Ġdiscussion":10156,"imal":10157,"Ġrings":10158,"Ġ28":10159,"THER":10160,"odes":10161,"Ġshin":10162,"ĠDream":10163,"Ġlaundry":10164,"Ġexamples":10165,"ertainly":10166,"Ġweighed":10167,"Us":10168,"Ġ2021":10169,"Ġboost":10170,"bf":10171,"ĠTed":10172,"ĠRec":10173,"hinest":10174,"âŃĲï¸ı":10175,"Ġefficient":10176,"Ġrotten":10177,"Ġsession":10178,"usty":10179,"ĠPink":10180,"Ġmeaningful":10181,"Ġchuck":10182,"Brush":10183,"Ġrestored":10184,"Fl":10185,"ember":10186,"about":10187,"ĠClub":10188,"ĠColors":10189,"something":10190,"Ġpresident":10191,"phew":10192,"Ġreccomend":10193,"42":10194,"Ġselfish":10195,"OMG":10196,"Ġdownhill":10197,"Ġbound":10198,"Ġsymbol":10199,"ĠJer":10200,"Ġsweaty":10201,"ulp":10202,"worth":10203,"Ġinev":10204,"Ġrule":10205,"Ġpreference":10206,"Ġrew":10207,"Ġseeking":10208,"Ġsed":10209,"Ġpleasing":10210,"Ġpowdery":10211,"ĠPolish":10212,"Ġhip":10213,"Ġcounterfeit":10214,"ibilities":10215,"Ġdispense":10216,"anny":10217,"Ġhomemade":10218,"Ġagreed":10219,"Ġsoaks":10220,"ĠVietnam":10221,"arge":10222,"Ġintro":10223,"Haven":10224,"ĠHay":10225,"ĠEastwood":10226,"Ġhandsome":10227,"nov":10228,"making":10229,"Ġrein":10230,"Ġjam":10231,"Ġhesitate":10232,"Ġ:-)":10233,"Ġfrustration":10234,"stead":10235,"Pe":10236,"ĠHul":10237,"Ġmaker":10238,"Ġsooth":10239,"Ġreleasing":10240,"Ġvine":10241,"Ġbelieves":10242,"hour":10243,"ĠFather":10244,"Kids":10245,"Ġdurability":10246,"Ġborrow":10247,"ĠPrin":10248,"ĠEas":10249,"Ġexclus":10250,"high":10251,"Ġforest":10252,"Ġscrunchies":10253,"Ġsoo":10254,"Ġnephew":10255,"Read":10256,"ĠCover":10257,"ĠFive":10258,"ĠKept":10259,"Ġbone":10260,"ĠAC":10261,"Ġbaseball":10262,"itis":10263,"Ġstylish":10264,"Ġagr":10265,"Ġshapes":10266,"Ġuplifting":10267,"ĠOrder":10268,"ĠSpend":10269,"Ġgroups":10270,"Ġscripted":10271,"Ġstorm":10272,"luster":10273,"ĠSony":10274,"acity":10275,"ĠRee":10276,"Ġpupp":10277,"ĠEst":10278,"ĠJac":10279,"Ġholy":10280,"idering":10281,"ĠRoll":10282,"ĠFBI":10283,"ĠConditioner":10284,"lear":10285,"Ġphotograph":10286,"Ġmasculine":10287,"Ġshines":10288,"joba":10289,"ðŁı½":10290,"Ġdisagree":10291,"coal":10292,"Ġspiritual":10293,"Ġvillage":10294,"Ġrewatch":10295,"ĠSqu":10296,"Ġourselves":10297,"Ġchoppy":10298,"Disappointing":10299,"Ġspoken":10300,"ĠChurch":10301,"och":10302,"Ġthrilling":10303,"Ġdarkness":10304,"ĠSchool":10305,"Ġnoir":10306,"awesome":10307,"oks":10308,"Ġtonight":10309,"EL":10310,"ĠFore":10311,"Ġrounded":10312,"Ġextraordinary":10313,"Oreal":10314,"ĠLive":10315,"Ġconcerns":10316,"isted":10317,"ASS":10318,"ĠMatthew":10319,"Ġcance":10320,"ĠTor":10321,"Ġrapid":10322,"ĠCool":10323,"Ġsitcom":10324,"Ġextract":10325,"hydr":10326,"Ġedit":10327,"Ġshirts":10328,"ila":10329,"Ġswimming":10330,"ĠDie":10331,"terrible":10332,"scape":10333,"ptions":10334,"89":10335,"ĠSMELL":10336,"ellow":10337,"Ġintrigued":10338,"Because":10339,"Ġsliding":10340,"Ġmatching":10341,"ĠSupp":10342,"ĠKenn":10343,"series":10344,"Ġawe":10345,"Ġfeedback":10346,"Ġsoda":10347,"Ġwine":10348,"Ġdrawers":10349,"Ġtraum":10350,"force":10351,"Ġounces":10352,"Ġcompetition":10353,"Ġmelts":10354,"Ġhenna":10355,"Ġexfoliation":10356,"Ġindicated":10357,"Ġlifest":10358,"Ġconvince":10359,"orting":10360,"?!?!":10361,"ĠCleans":10362,"Ġprojects":10363,"ĠAFTER":10364,"ĠAction":10365,"Ġdemo":10366,"actic":10367,"Ġcush":10368,"Ġfare":10369,"beit":10370,"Ġhence":10371,"Ġmarry":10372,"ðĿĴ":10373,"Ġstating":10374,"add":10375,"Ġadop":10376,"may":10377,"Ġmeh":10378,"Took":10379,"Ġgems":10380,"mented":10381,"Ġbasket":10382,"ĠEVEN":10383,"ĠâĿ¤ï¸ı":10384,"Ġchocolate":10385,"MO":10386,"Ġcompartment":10387,"ĠCount":10388,"Ġdrawing":10389,"ĠJessica":10390,"Ġobsc":10391,"tage":10392,"ĠSpray":10393,"Ġcomparing":10394,"Ġjudg":10395,"Ġtingle":10396,"ĠAndrew":10397,"Ġgrandmother":10398,"print":10399,"ĠFrancis":10400,"Ġformulation":10401,"Old":10402,"ĠHa":10403,"erved":10404,"Ġhighlighter":10405,"79":10406,"Bottle":10407,"INK":10408,"Ġoccurred":10409,"Ġsmallest":10410,"Ġarr":10411,"ensed":10412,"Ġrechargeable":10413,"ubr":10414,"God":10415,"encies":10416,"easy":10417,"ĠBu":10418,"fast":10419,"Ġmall":10420,"Ġanger":10421,"ĠNoah":10422,"ĠMatrix":10423,"ĠBET":10424,"Ġcrash":10425,"Bu":10426,"ivalent":10427,"ĠLaure":10428,"odium":10429,"Ġna":10430,"Ġcrown":10431,"ĠMars":10432,"Ġwouldnt":10433,"Ġknockoff":10434,"ĠUntil":10435,"Ġassociated":10436,"ensions":10437,"Ġinconsistent":10438,"Ġremastered":10439,"Ġdepend":10440,"Ġsloppy":10441,"ĠPhilips":10442,"aved":10443,"oner":10444,"Ġsupplies":10445,"sized":10446,"Ġdreadful":10447,"Ġilleg":10448,"Should":10449,"ĠEmma":10450,"Ġelegant":10451,"Ġactivity":10452,"Ġprecious":10453,"Ġsubsequ":10454,"Ġtrend":10455,"had":10456,"Ġinvolve":10457,"Ġdynamic":10458,"ĠHO":10459,"ĠGi":10460,"ĠTWO":10461,"Ġhandling":10462,"CON":10463,"Ġsatur":10464,"rael":10465,"ĠKiss":10466,"Ġmisses":10467,"forward":10468,"Ġrely":10469,"Ġelev":10470,"Ġsatire":10471,"inch":10472,"Ġsword":10473,"Ġauto":10474,"Ġbuyers":10475,"ILER":10476,"Ġfruity":10477,"Ġvivid":10478,"Ġaftershave":10479,"ĠDog":10480,"coa":10481,"Ġps":10482,"Ġshred":10483,"Ġquestionable":10484,"cho":10485,"Ġinvis":10486,"Ġsided":10487,"uther":10488,"ĠRather":10489,"Ã±o":10490,"Ġwins":10491,"ĠDirect":10492,"acher":10493,"ustomer":10494,"Ġhousehold":10495,"Ġstrict":10496,"Ġtomorrow":10497,"ĠKirk":10498,"Ġconscious":10499,"ĠClark":10500,"Ġmeat":10501,"Ġhorses":10502,"eremy":10503,"ĠBron":10504,"arded":10505,"Ġbiased":10506,"Ġrevel":10507,"Ġforgettable":10508,"ĠFantastic":10509,"Ġsmoothing":10510,"ĠDeep":10511,"Ġadvertise":10512,"Ġstupidity":10513,"Ġcrafted":10514,"ĠOkay":10515,"ĠJewish":10516,"Ġdensity":10517,"iot":10518,"ĠNeither":10519,"ref":10520,"Ġexpense":10521,"ĠDean":10522,"Ġolor":10523,"Ġdeceiving":10524,"CI":10525,"Ġcamer":10526,"Ġfro":10527,"Ġpron":10528,"Ġperforms":10529,"ĠBurton":10530,"Ġtempt":10531,"inded":10532,"Ġoriginals":10533,"Everyone":10534,"ensical":10535,"Ġcommitted":10536,"Ġmode":10537,"Ġcheer":10538,"Ġriveting":10539,"Ġidentity":10540,"Ġannoun":10541,"Ġcollector":10542,"aud":10543,"Ġhubby":10544,"eter":10545,"UTE":10546,"Ġmile":10547,"ĠAsh":10548,"ACE":10549,"ĠPitt":10550,"Ġovercome":10551,"Ġsoldier":10552,"icable":10553,"Ġmock":10554,"Ġrolls":10555,"ĠBros":10556,"Ġlifted":10557,"Ġgut":10558,"plays":10559,"Returned":10560,"Ġrubs":10561,"Ġsmear":10562,"Ġgrandchildren":10563,"31":10564,"Ġdiscon":10565,"ĠWomen":10566,"Ġlogo":10567,"Ġstatus":10568,"stone":10569,"Ġconduct":10570,"Ġsetup":10571,"Ġspell":10572,"Probably":10573,"eramic":10574,"ĠSK":10575,"ĠWhatever":10576,"edia":10577,"Ġmaneu":10578,"Ġknees":10579,"Ġmesh":10580,"Ġthirty":10581,"reeze":10582,"ĠKong":10583,"than":10584,"Ġfunky":10585,"Ġcreativity":10586,"Tom":10587,"verted":10588,"ĠCant":10589,"Ġprotects":10590,"fd":10591,"ĠCry":10592,"ounding":10593,"ĠTommy":10594,"ĠHit":10595,"cul":10596,"Ġresolved":10597,"ORY":10598,"Ġunlikely":10599,"Ġscenario":10600,"Ġâĺ":10601,"Decent":10602,"ĠTwilight":10603,"Ġcordless":10604,"ĠJose":10605,"ervative":10606,"Ġpolygel":10607,"Ġuv":10608,"Ġfrequent":10609,"********":10610,"ĠFIL":10611,"Ġboar":10612,"Ġvacuum":10613,"Ġfavour":10614,"Ter":10615,"ĠDep":10616,"Ġcomical":10617,"opath":10618,"Ġsmelly":10619,"ete":10620,"ĠCharl":10621,"thank":10622,"ĠSent":10623,"Ġincorpor":10624,"isture":10625,"IRST":10626,"ĠFortunately":10627,"ĠArnold":10628,"Ġtong":10629,"Ġeducation":10630,"Ġlingers":10631,"ĠFIN":10632,"uclear":10633,"Ġscratching":10634,"uming":10635,"intage":10636,"Ġloosely":10637,"Ġcastor":10638,"Ġrepresentation":10639,"Ġdetermined":10640,"ĠMyster":10641,"ju":10642,"ĠBased":10643,"Ġspoke":10644,"ĠHAS":10645,"ĠRachel":10646,"PL":10647,"Ġcourage":10648,"Ġmistaken":10649,"Left":10650,"Ġdisease":10651,"MG":10652,"Kind":10653,"Ġsheen":10654,"ĠAndy":10655,"ĠDef":10656,"abulous":10657,"ardless":10658,"...]":10659,"Hel":10660,"ĠSlow":10661,"cience":10662,"Ġrhinest":10663,"Ġtrade":10664,"Wife":10665,"uate":10666,"Ġlearns":10667,"Ġgooey":10668,"iper":10669,"ĠSon":10670,"Ġdistance":10671,"ĠSty":10672,"thers":10673,"Ġcheapest":10674,"Ġoutrageous":10675,"Ġstubborn":10676,"ĠAusten":10677,"dim":10678,"Ġwesterns":10679,"ĠPrince":10680,"ĠHorror":10681,"itting":10682,"Ġspf":10683,"ĠThr":10684,"Ġapple":10685,"Ġclasses":10686,"ĠCanada":10687,"Ġcartridge":10688,"rial":10689,"ĠItem":10690,"mente":10691,"Ġlocks":10692,"Ġhydration":10693,"Ġbaking":10694,"ĠSeasons":10695,"Ġ2016":10696,"ĠCraig":10697,"Ġaffected":10698,"Ġtales":10699,"Ġrelaxed":10700,"Ġbore":10701,"Ġmetallic":10702,"race":10703,"ĠHardy":10704,"Ġfeminine":10705,"ometimes":10706,"ĠIndia":10707,"TLE":10708,"Ġcapital":10709,"Ġtrusted":10710,"Ġmagnifying":10711,"Ġconsumer":10712,"ollowed":10713,"Ġunins":10714,"Ġheaded":10715,"Ġslasher":10716,"ĠChamp":10717,"Ġpoignant":10718,"Ġtighten":10719,"Ġdissip":10720,"bes":10721,"ĠCute":10722,"Ġtrite":10723,"veeno":10724,"Ġbuilds":10725,"Ġunfor":10726,"ĠAlan":10727,"ĠInt":10728,"Ġreward":10729,"icago":10730,"funny":10731,"Ġpriest":10732,"!!!!!!!":10733,"Ġembr":10734,"Ġpum":10735,"atches":10736,"Ġpens":10737,"rama":10738,"ĠQuite":10739,"ristles":10740,"Ġware":10741,"idently":10742,"Ġwashcloth":10743,"Ġcrease":10744,"ĠGary":10745,"ĠLuke":10746,"ooby":10747,"Ġslips":10748,"Ġjoin":10749,"quis":10750,"Ġbetray":10751,"Ġbay":10752,"ĠVaseline":10753,"Ġstringy":10754,"pled":10755,"Ġisol":10756,"Ġlongest":10757,"respect":10758,"ĠNote":10759,"Ġleaders":10760,"Ġballet":10761,"ugg":10762,"ĠRam":10763,"gypt":10764,"Ġprincess":10765,"Ġsup":10766,"ĠStrong":10767,"Ġsympathetic":10768,"Ġsparse":10769,"ĠUSED":10770,"Ġproved":10771,"Ġgifted":10772,"Ġdozens":10773,"ielberg":10774,"Dont":10775,"ĠCat":10776,"ĠAtt":10777,"Ġidentify":10778,"Ġavo":10779,"Ġtut":10780,"Ġtrapped":10781,"Ġlaws":10782,"Ġcave":10783,"Ġdropping":10784,"ĠGene":10785,"ĠGives":10786,"Ġlighten":10787,"ĠBobby":10788,"Ġsharing":10789,"ĠKrist":10790,"Ġ2019":10791,"Ġbouncy":10792,"rilliant":10793,"Acting":10794,"ĠLOVES":10795,"ATION":10796,"Ġcommand":10797,"glas":10798,"minator":10799,"ĠIMO":10800,"make":10801,"Ġcheated":10802,"Ġabrupt":10803,"minute":10804,"ĠAven":10805,"ĠExcept":10806,"Goes":10807,"Ġdriver":10808,"Ġexposure":10809,"Ġcha":10810,"hearted":10811,"inte":10812,"Ġminis":10813,"Ġsunblock":10814,"Ġuncon":10815,"Ġcompassion":10816,"Ġslimy":10817,"Ġfate":10818,"ĠAnna":10819,"ĠBEWARE":10820,"ĠFL":10821,"ARN":10822,"Ġperm":10823,"ĠLyn":10824,"Ġlaying":10825,"Ġdivers":10826,"rified":10827,"ĠLasts":10828,"ĠThrough":10829,"Ġmagaz":10830,"Ġsuccessfully":10831,"Ġdesperately":10832,"41":10833,"Ġmachines":10834,"Ġexperiencing":10835,"ossibly":10836,"Ġqueen":10837,"AME":10838,"izard":10839,"erties":10840,"Ġfinan":10841,"Ġdestruction":10842,"ĠLore":10843,"ocr":10844,"Though":10845,"ĠWet":10846,"Ġstarter":10847,"Ġfigures":10848,"Ġtoiletries":10849,"Ġdivor":10850,"Ġpretend":10851,"Ġdetract":10852,"Ġcandle":10853,"Ġstab":10854,"style":10855,"Ġmanufacturing":10856,"Ġracism":10857,"ĠCIA":10858,"Ġspill":10859,"ĠLooked":10860,"Ġfame":10861,"ĠCatholic":10862,"Ġmurders":10863,"Ġstamper":10864,"Ġoutlet":10865,"impse":10866,"Ġfoundations":10867,"Ġproduces":10868,"Ġbelieving":10869,"ching":10870,"Many":10871,"Ġposes":10872,"Ġblast":10873,"fined":10874,"Ġsoapy":10875,"Ġillness":10876,"Ġreputation":10877,"Ġliquids":10878,"Ġsparkly":10879,"Ġexpression":10880,"ĠHold":10881,"Ġdetangler":10882,"Ġfiber":10883,"Ġowning":10884,"Ġtissue":10885,"HH":10886,"Ġthankfully":10887,"olen":10888,"Ġspoof":10889,"Ġporque":10890,"Ġalbum":10891,"Ġunscrew":10892,"Ġcorn":10893,"ordered":10894,"Ġbikini":10895,"ĠClar":10896,"ffin":10897,"Ġencourage":10898,"cont":10899,"ĠTur":10900,"Ġfaced":10901,"ĠEnjoyed":10902,"Ġcig":10903,"Ġproven":10904,"Ġcleanse":10905,"Ġredeem":10906,"Ġapproximately":10907,"Ġaes":10908,"Ġresulting":10909,"ĠAlice":10910,"Ġglimpse":10911,"ctors":10912,"Ġsaver":10913,"ĠLouis":10914,"ĠNovember":10915,"Ġprecision":10916,"Ġslipping":10917,"Ġ2017":10918,"Ġbootleg":10919,"Outstanding":10920,"Ġreminiscent":10921,"piring":10922,"ĠSeveral":10923,"REME":10924,"raphic":10925,"Ġselected":10926,"fc":10927,"inn":10928,"Ġcombing":10929,"Ġcents":10930,"Ġ75":10931,"Mar":10932,"Ġrealizing":10933,"Ġstraightened":10934,"Char":10935,"ĠEnded":10936,"Ġmountain":10937,"Ġbows":10938,"Ġdiner":10939,"ĠRoger":10940,"Ġfizz":10941,"Ġbees":10942,"Ġkinky":10943,"Anyway":10944,"isms":10945,"Ġfarm":10946,"Ġbrave":10947,"Ġinformed":10948,"prisingly":10949,"Make":10950,"Ġsteamer":10951,"Ġmanufactured":10952,"YI":10953,"ĠFUN":10954,"zil":10955,"ramatic":10956,"Ġcousin":10957,"ĠAcc":10958,"Ġboxed":10959,"ĠThings":10960,"imum":10961,"eryl":10962,"ĠHOWEVER":10963,"bought":10964,"ea":10965,"va":10966,"46":10967,"Ġhives":10968,"obs":10969,"rovers":10970,"Ġrinses":10971,"stars":10972,"Ġproperties":10973,"Ġpolitically":10974,"Ġtrigger":10975,"Ġconcepts":10976,"ĠFurther":10977,"xe":10978,"erning":10979,"Ġimportance":10980,"Ġaccepted":10981,"ĠNormally":10982,"Ġfed":10983,"essions":10984,"ĠJimmy":10985,"Ġmarketed":10986,"ĠMANY":10987,";)":10988,"Ġruining":10989,"asis":10990,"Ġsav":10991,"ĠFriend":10992,"Ġsuggestion":10993,"Ġinstructed":10994,"Ġconsequences":10995,"Ġbeings":10996,"Ġensemble":10997,"ĠVeg":10998,"ĠHart":10999,"Ġcontrols":11000,"43":11001,"?).":11002,"ĠArmy":11003,"Ġweapon":11004,"iy":11005,"anu":11006,"Ġargan":11007,"Ġpretentious":11008,"Ġcray":11009,"Ġincident":11010,"WN":11011,"bra":11012,"elve":11013,"Ġbelly":11014,"Ġsmears":11015,"Ġcomfortably":11016,"Ġcontemporary":11017,"Ġmort":11018,"Ġspinning":11019,"iate":11020,"ken":11021,"amente":11022,"jor":11023,"ĠWHEN":11024,"Ġorchest":11025,"ĠNEED":11026,"Ġidiotic":11027,"Ġcommented":11028,"Ġdrastic":11029,"Ġlackluster":11030,"Ġexplosions":11031,"Ġskinned":11032,"Ġletters":11033,"Ġabrasive":11034,"ĠClinique":11035,"Ġtopics":11036,"acks":11037,"Ġexisted":11038,"Ġaccurately":11039,"ĠclichÃ©":11040,"Ġpromises":11041,"Ġlone":11042,"ĠGoo":11043,"Ġcompon":11044,"Ġvaluable":11045,"Ġcrimes":11046,"Ġris":11047,"agan":11048,"ĠReview":11049,"Ġerrors":11050,"Ġmiserable":11051,"tone":11052,"ANG":11053,"Ġtreasure":11054,"ĠGirls":11055,"HO":11056,"Ġplatinum":11057,"imated":11058,"ĠShipping":11059,"urs":11060,"Ġsentiment":11061,"Hope":11062,"ĠAfrica":11063,"Colors":11064,"ĠAR":11065,"Ġcompatible":11066,"Ġgarden":11067,"Ġperfum":11068,"----------------":11069,"Ġrestaur":11070,"Ġheartwarming":11071,"ĠGranted":11072,"Ġdecl":11073,"iosity":11074,"ĠTyler":11075,"Ġinvolves":11076,"ĠHolds":11077,"dish":11078,"worthy":11079,"Ġreplacements":11080,"ĠCinderella":11081,"CR":11082,"Grand":11083,"Ġabilities":11084,"Ġunpl":11085,"ĠArgan":11086,"Ġpossibility":11087,"Ġthroat":11088,"Ġgoog":11089,"never":11090,"Ġcontest":11091,"Ġsometime":11092,"ĠIsrael":11093,"Ġsolely":11094,"ritz":11095,"Wanted":11096,"ĠNative":11097,"venile":11098,"ĠBlade":11099,"ĠBor":11100,"anges":11101,"Ġpublish":11102,"Ġlesser":11103,"Ġpotentially":11104,"Ġspaces":11105,"Ġcameo":11106,"ISS":11107,"Ab":11108,"Ġtic":11109,"Ġcriticism":11110,"ĠFILM":11111,"Ġplat":11112,"ĠGiven":11113,"Ġequivalent":11114,"!),":11115,"ĠClancy":11116,"ĠOPI":11117,"Ġpelo":11118,"Ġrosacea":11119,"Ġdishes":11120,"Ġbuildup":11121,"Ġsuggests":11122,"Before":11123,"ilted":11124,"ĠBarry":11125,"Ġfreeze":11126,"Ġhusbands":11127,"Ġnicks":11128,"Ġavid":11129,"Ġapolog":11130,"Ġheroine":11131,"87":11132,"bon":11133,"Ġsacrifice":11134,"film":11135,"Ġbarret":11136,"Ġhaunting":11137,"ĠVen":11138,"Ġmonomer":11139,"ORING":11140,"Ġslapstick":11141,"Ġdrives":11142,"Ġevolution":11143,"Ġthankful":11144,"VS":11145,"ĠRazor":11146,"Ġvinegar":11147,"usters":11148,"Ġreject":11149,"pector":11150,"Ġfraud":11151,"sl":11152,"wen":11153,"ucent":11154,"ĠRemember":11155,"Ġinvisible":11156,"ĠPurchased":11157,"tenance":11158,"¥°":11159,"Ġtodo":11160,"ĠThird":11161,"Ġfruit":11162,"waste":11163,"ĠRocky":11164,"Ġdepressed":11165,"ĠMod":11166,"ĠðŁĺį":11167,"Ġflav":11168,"Ġreaching":11169,"Ġineffective":11170,"Ġdelighted":11171,"alley":11172,"ĠZombie":11173,"Ġinse":11174,"ĠGets":11175,"ĠKNOW":11176,"Ġnine":11177,"Ġdose":11178,"ĠTat":11179,"resp":11180,"ĠGolden":11181,"ĠForm":11182,"Ġnonetheless":11183,"Ġfired":11184,"Ġ$$$":11185,"Ġmaneuver":11186,"Ġcloset":11187,"ĠKinda":11188,"Ġhurry":11189,"aringly":11190,"imation":11191,"ĠBern":11192,"Ġkeeper":11193,"ĠCarter":11194,"Ġexpectation":11195,"Ġduo":11196,"ĠRet":11197,"pson":11198,"kel":11199,"Ġtighter":11200,"ĠFIRST":11201,"lik":11202,"Ġcatching":11203,"mate":11204,"ailed":11205,"Ġscrubs":11206,"oying":11207,"ORT":11208,"CELL":11209,"ĠPacific":11210,"ĠBETTER":11211,"ml":11212,"ĠKim":11213,"Ġestablished":11214,"ĠRoberts":11215,"pre":11216,"ĠRub":11217,"Ġdrivel":11218,"Ġtransfers":11219,"ĠDouglas":11220,"oric":11221,"Ġshall":11222,"Ã±as":11223,"Ġbrilliantly":11224,"bruary":11225,"Ġbobby":11226,"ĠVir":11227,"urchasing":11228,"Ġdrys":11229,"itially":11230,"ĠSto":11231,"Ġexplore":11232,"ĠFran":11233,"Ġchances":11234,"udes":11235,"ĠReyn":11236,"ĠSmooth":11237,"Ġunsure":11238,"Ġdimensional":11239,"NY":11240,"fume":11241,"ĠTwe":11242,"ouli":11243,"Ġgummy":11244,"ĠSpielberg":11245,"umbles":11246,"Ġsalv":11247,"ĠHelen":11248,"ĠKn":11249,"Ġbin":11250,"Ġdecre":11251,"Ġlawyer":11252,"obb":11253,"ĠORDER":11254,"Work":11255,"Ġ/>&#":11256,"acies":11257,"Ġlaser":11258,"ogan":11259,"agen":11260,"Ġconditioned":11261,"Ġeffectiveness":11262,"Ġscrape":11263,"Ġundertones":11264,"Ġriding":11265,"Ġinternational":11266,"Ġsophisticated":11267,"Ġimagery":11268,"ERT":11269,"Ġdissolve":11270,"dimensional":11271,"gloss":11272,"Ġtore":11273,"Ġresearched":11274,"Being":11275,"Ġaggressive":11276,"Ġsuave":11277,"Ġdare":11278,"Ġprequ":11279,"Soft":11280,"Ġfrightening":11281,"SPO":11282,"Ġversatile":11283,"Ġrecreat":11284,"Ġstereotypical":11285,"ĠSL":11286,"bows":11287,"OUND":11288,"inson":11289,"ĠMcG":11290,"bar":11291,"ĠMarsh":11292,"Ġqued":11293,"ĠRh":11294,"Ġdys":11295,"Ġcontaining":11296,"Ġzone":11297,"omy":11298,"apor":11299,"ĠRel":11300,"aying":11301,"Ġmusicals":11302,"iors":11303,"ĠVer":11304,"oso":11305,"Ġreflection":11306,"Ġwhereas":11307,"Ġhiding":11308,"izable":11309,"ĠHAPP":11310,"ulations":11311,"Ġafterward":11312,"Ġsatin":11313,"ĠExp":11314,"Ġbeliefs":11315,"FE":11316,"Ġstreets":11317,"Ġsubstitute":11318,"ĠRand":11319,"Ġstudios":11320,"________________":11321,"ran":11322,"olin":11323,"Ġaid":11324,"enz":11325,"Ġ32":11326,"ĠAlas":11327,"Ġexpressions":11328,"Cont":11329,"Ġdiet":11330,"Ġprints":11331,"ĠTech":11332,"Ġspice":11333,"Same":11334,"Ġwars":11335,"Ġinspiration":11336,"Ġmethods":11337,"ĠEgypt":11338,"Ġdistorted":11339,"buster":11340,"felt":11341,"Ġshampooing":11342,"âĢĿ,":11343,"Ġaccuracy":11344,"Ġreads":11345,"ĠDamon":11346,"Simply":11347,"walk":11348,"ĠSat":11349,"Ġalas":11350,"Ġdresser":11351,"ĠQuick":11352,"ĠCreat":11353,"Ġtray":11354,"Ġelderly":11355,"ĠMiller":11356,"iano":11357,"Ġmig":11358,"almost":11359,"formed":11360,"ĠITS":11361,"Ġpedicure":11362,"cuts":11363,"ĠCinem":11364,"Ġusers":11365,"Ġcompleted":11366,"Perhaps":11367,"ĠKurt":11368,"ĠMid":11369,"Ġpolished":11370,"pless":11371,"Ġevident":11372,"EX":11373,"Ġindie":11374,"Ġartwork":11375,"ĠExactly":11376,"Ġtherapy":11377,"credible":11378,"ĠYEARS":11379,"Ġchanger":11380,"ĠRoss":11381,"atal":11382,"Ġ2022":11383,"Ġtampered":11384,"ĠSeptember":11385,"!?":11386,"Ġrepresented":11387,"Ġwhisk":11388,"Ġinvestigation":11389,"Ġconversations":11390,"ĠRome":11391,"gross":11392,"Ġ1990":11393,"ventually":11394,"Ġspreads":11395,"Ġmarvelous":11396,"Ġhurting":11397,"Ġlifestyle":11398,"Ġreun":11399,"Ġshelves":11400,"Ġrig":11401,"Ġfootball":11402,"conditioner":11403,"Ġplacing":11404,"Ġlleg":11405,"Garbage":11406,"lest":11407,"Ġchildish":11408,"Ġwrestling":11409,"Bas":11410,"Ġproced":11411,"Ġ2015":11412,"Ġoverdone":11413,"OUGH":11414,"zard":11415,"Ġsaga":11416,"Ġcontrovers":11417,"Ġ@":11418,"inent":11419,"ĠCase":11420,"ĠTHERE":11421,"ĠMitchell":11422,"Ġpoison":11423,"sis":11424,"ĠPERFECT":11425,"ĠAra":11426,"Ġshears":11427,"Ġslower":11428,"ĠClearly":11429,"Ġtank":11430,"Ġsincere":11431,"olesome":11432,"ĠBummer":11433,"Ġlinger":11434,"Ġtremendous":11435,"gusting":11436,"tha":11437,"igor":11438,"Ã¡cil":11439,"Ġhired":11440,"ĠPrincess":11441,"ĠJosh":11442,"Ġclarity":11443,"Ġdepends":11444,"Ġripoff":11445,"Ġmerch":11446,"Ġ2018":11447,"ĠCooper":11448,"Ġstaple":11449,"ĠMont":11450,"Ġrecommending":11451,"black":11452,"VIEW":11453,"Ġpuffiness":11454,"Ġlegendary":11455,"orc":11456,"Ġreluct":11457,"Ġpare":11458,"fum":11459,"Ġredemption":11460,"ĠSimply":11461,"Keeps":11462,"ĠMas":11463,"otta":11464,"Ġsouth":11465,"ĠChicago":11466,"Mich":11467,"ĠArm":11468,"Ġpatterns":11469,"ĠTrying":11470,"ĠSerum":11471,"Ġreveals":11472,"titles":11473,"Ġintellectual":11474,"rive":11475,"Ġstray":11476,"uments":11477,"ĠCameron":11478,"Ġtab":11479,"Ġcris":11480,"ĠBeyond":11481,"antom":11482,"Ġstretching":11483,"Ġpric":11484,"rim":11485,"unning":11486,"Ġduplic":11487,"NA":11488,"ĠJeremy":11489,"Ġimperfect":11490,"Ġ:-(":11491,"Mart":11492,"Ġcards":11493,"Ġcontinuous":11494,"Ġfrontal":11495,"ĠCOULD":11496,"Ġ---":11497,"icians":11498,"Ġshar":11499,"Ġbeds":11500,"ulating":11501,"ĠOMG":11502,"Ġautomatically":11503,"ĠPS":11504,"ĠChristie":11505,"Ġvibe":11506,"ĠWON":11507,"Ġmainstream":11508,"Ġoddly":11509,"functional":11510,"Ġvelve":11511,"Ġstolen":11512,"ĠLawrence":11513,"eson":11514,"ĠBY":11515,"ĠTrust":11516,"ungle":11517,"Ġreported":11518,"Ġstyled":11519,"Ġllego":11520,"Ġnostalgic":11521,"Ġcushion":11522,"Ġbless":11523,"ucalypt":11524,"Ġperforming":11525,"Ġmentally":11526,"onda":11527,"Ġdedicated":11528,"likable":11529,"itives":11530,"Ġgrape":11531,"iger":11532,"Ġchain":11533,"Ġidk":11534,"ĠHann":11535,"ĠEle":11536,"OUGHT":11537,"Ġaccomplished":11538,"Ġnative":11539,"ĠRad":11540,"ĠAudio":11541,"GR":11542,"first":11543,"aqu":11544,"ught":11545,"Ġot":11546,"Ġcats":11547,"AB":11548,"Ġcharcoal":11549,"load":11550,"ucalyptus":11551,"Ġnuclear":11552,"Ġnin":11553,"ĠAWESOME":11554,"ibal":11555,"school":11556,"Ġtongue":11557,"ĠWind":11558,"Ġvalid":11559,"ĠWanted":11560,"Ġrounds":11561,"Ġhunting":11562,"Ġarrog":11563,"Ġtravels":11564,"Ġgum":11565,"Ġsentence":11566,"ĠðŁĺĬ":11567,"Ġhomosex":11568,"ĠReynolds":11569,"Ġneon":11570,"doc":11571,"Ġsadd":11572,"Ġfloating":11573,"ĠDracula":11574,"ograp":11575,"Ġships":11576,"Ġgrandma":11577,"Ġabandoned":11578,"chet":11579,"ĠMass":11580,"ĠBow":11581,"Ġinjury":11582,"Ġcabinet":11583,"lasting":11584,"Ġbell":11585,"ĠIntern":11586,"enstein":11587,"Ġemailed":11588,"imag":11589,"ĠBoo":11590,"Literally":11591,"ĠInter":11592,"Ġgrabbed":11593,"lower":11594,"Comp":11595,"days":11596,"Ġnoisy":11597,"Ġsteals":11598,"OP":11599,"wolf":11600,"ĠðŁĺ¡":11601,"Ġdefinately":11602,"ĠBer":11603,"Ġprotecting":11604,"Ġnonsensical":11605,"Sur":11606,"Ġblink":11607,"Ġmuscles":11608,"Ġsolved":11609,"¹ï¸ı":11610,"Ġcuriosity":11611,"igan":11612,"ĠLOOK":11613,"ĠCall":11614,"ĠVamp":11615,"Ġtweezer":11616,"ĠEve":11617,"Ġscientists":11618,"Ġlogical":11619,"Ġobl":11620,"ĠKeaton":11621,"Ġvampires":11622,"Ġgrave":11623,"leased":11624,"Ġprost":11625,"Ġtricks":11626,"ĠABOUT":11627,"uu":11628,"Ġswearing":11629,"Ġdebut":11630,"ĠLarry":11631,"Ġbackstory":11632,"Ġfought":11633,"Ġinteractions":11634,"GIN":11635,"Ġsturd":11636,"Ġshoe":11637,"Ġsites":11638,"cheap":11639,"Ġfried":11640,"Ġmaintenance":11641,"Ġ2012":11642,"Ġinsightful":11643,"Ġintegrity":11644,"Happy":11645,"gency":11646,"ĠLos":11647,"Ġcredible":11648,"ĠAustralia":11649,"Ġdupe":11650,"Ġquote":11651,"quer":11652,"ĠASAP":11653,"ĠEL":11654,"ðŁĻ":11655,"ENS":11656,"FO":11657,"Ġtrained":11658,"Ġholly":11659,"ĠWWE":11660,"Ġcanceled":11661,"Ġjournal":11662,"WAYS":11663,"Ġwraps":11664,"Poorly":11665,"director":11666,"ĠAside":11667,"eping":11668,"ĠVera":11669,"Ġsalons":11670,"ĠEXTREME":11671,"Ġmath":11672,"Ġphr":11673,"ooky":11674,"ĠScar":11675,"ĠWalter":11676,"ĠScience":11677,"xy":11678,"ĠFebruary":11679,"riterion":11680,"Blu":11681,"Ġendings":11682,"Ġenlight":11683,"Ġrude":11684,"Ġthrows":11685,"ĠWrong":11686,"Ġgoopy":11687,"dark":11688,"Ġpore":11689,"Ġceramic":11690,"Ġgenerations":11691,"ĠWELL":11692,"ĠDISAPPOINTED":11693,"ATED":11694,"ĠNic":11695,"Ġvintage":11696,"++++":11697,"!.":11698,"ĠWRONG":11699,"ĠOLD":11700,"ĠParamount":11701,"Ġholidays":11702,"FIN":11703,"Ġpressing":11704,"Ġreboot":11705,"iders":11706,"ĠAtl":11707,"Ġendearing":11708,"vory":11709,"Ġowners":11710,"rict":11711,"ĠAqu":11712,"ĠVe":11713,"Ġidiots":11714,"ĠNYC":11715,"CELLENT":11716,"Ġbible":11717,"obody":11718,"Ġstrokes":11719,"LOR":11720,"ĠHuge":11721,"Ġsurvived":11722,"Ġcong":11723,"ĠWalt":11724,"Ġack":11725,"ĠTem":11726,"mmm":11727,"ĠLater":11728,"Ġsym":11729,"Ġtricky":11730,"Ġ!<":11731,"Ġchunk":11732,"Ġsust":11733,"ourne":11734,"Ġchrome":11735,"Ġexceeded":11736,"Ġpaus":11737,"Ġextend":11738,"ĠCHE":11739,"Ġath":11740,"Ġweft":11741,"Ġbothers":11742,"Ġguests":11743,"Ġtranslucent":11744,"Ġperpet":11745,"ĠHIGHLY":11746,"pretty":11747,"ilation":11748,"ĠGrace":11749,"Ġoffended":11750,"ĠLaura":11751,"Ġwalls":11752,"ĠRidiculous":11753,"Low":11754,"Ġbeige":11755,"Reg":11756,"Ġfashioned":11757,"ĠRoy":11758,"Ġsmudged":11759,"ĠHeart":11760,"Ġpremium":11761,"59":11762,"ĠItaly":11763,"incent":11764,"Ġ;)":11765,"Ġpumice":11766,"Ġunfunny":11767,"udge":11768,"Episode":11769,"ĠLeonard":11770,"ĠIII":11771,"inged":11772,"Ġcd":11773,"Ġlesbian":11774,"ji":11775,"Ġnational":11776,"ĠLand":11777,"still":11778,"Ġbelongs":11779,"ship":11780,"utter":11781,"Ġconj":11782,"Ġmusk":11783,"Ġcorporate":11784,"ĠVers":11785,"Must":11786,"Ġconvol":11787,"ĠIce":11788,"ĠGord":11789,"Ġdeliber":11790,"ĠJamie":11791,"Ġvit":11792,"AUSE":11793,"Ġincreased":11794,"both":11795,"Ġlunch":11796,"Ġbrightness":11797,"Ġwiping":11798,"Ġsuitcase":11799,"Ġtribute":11800,"ĠVegas":11801,"Ġcloths":11802,"zes":11803,"ador":11804,"ĠVis":11805,"Ġ/>**":11806,"ĠPil":11807,"Ġflop":11808,"ĠStupid":11809,"Ġoccup":11810,"Ġsubstantial":11811,"ĠEVERYTHING":11812,"Ġpued":11813,"arian":11814,"ĠCre":11815,"ĠGOT":11816,"Ġrobots":11817,"Ġhaha":11818,"Ġargument":11819,"IRE":11820,"Ġpromote":11821,"ĠHarrison":11822,"Ġrefills":11823,"cas":11824,"wife":11825,"clean":11826,"Ġcontract":11827,"Ġsafely":11828,"Ġdiscom":11829,"ĠWORTH":11830,"ii":11831,"Ġcontinually":11832,"Ġcaric":11833,"Ġconfusion":11834,"Won":11835,"Ġholders":11836,"Ġhorm":11837,"Ġendure":11838,"Ġsmeared":11839,"Ġprops":11840,"anwhile":11841,"Ġunint":11842,"ĠES":11843,"Ġsuspend":11844,"ierce":11845,"Ġcells":11846,"Ġstretchy":11847,"Ġdefeats":11848,"Ġdiscovers":11849,"Ġawake":11850,"type":11851,"mitted":11852,"again":11853,"friendly":11854,"Ġlubric":11855,"ĠTurned":11856,"Ġstim":11857,"Ġsill":11858,"ĠPass":11859,"Lovely":11860,"Ġvolum":11861,"ĠCompany":11862,"Ġdisconnect":11863,"Ġlapt":11864,"ĠCa":11865,"Ġprevents":11866,"ĠAge":11867,"Ġplacement":11868,"mination":11869,"Ġrendition":11870,"Fake":11871,"Ġtriple":11872,"aaaa":11873,"length":11874,"ĠAdvent":11875,"Ġintroduce":11876,"Ġwealthy":11877,"Ġfragrant":11878,"Ġchristmas":11879,"ĠSnow":11880,"gus":11881,"Ġparanormal":11882,"Ġ2014":11883,"repres":11884,"Ġcartridges":11885,"izations":11886,"Ġretired":11887,"tly":11888,"van":11889,"Ġpenet":11890,"ĠDollar":11891,"ĠCivil":11892,"ĠFell":11893,"ĠWife":11894,"ĠAdams":11895,"Ġlint":11896,"Ġconcerning":11897,"Ġrum":11898,"Ġspoiler":11899,"Ġtangling":11900,"Ġconvoluted":11901,"57":11902,"aki":11903,"lance":11904,"cture":11905,"Ġbeating":11906,"ĠAustin":11907,"paper":11908,"ĠImagine":11909,"aphor":11910,"ĠGear":11911,"Ġcreases":11912,"Ġtoiletry":11913,"Ġrelatable":11914,"Ġcaptions":11915,"Ġtingling":11916,"Ġsail":11917,"Ġlens":11918,"ĠCVS":11919,"Ġdiscomfort":11920,"pol":11921,"Ġtopcoat":11922,"Ġnewly":11923,"Ġignorant":11924,"Ġglobal":11925,"Ġunbelievably":11926,"AVE":11927,"iated":11928,"Ġgrandkids":11929,"fb":11930,"Ġoutfit":11931,"Ġburst":11932,"ipt":11933,"Ġmonot":11934,"Ġjuvenile":11935,"ivery":11936,"Ġupcoming":11937,"Dumb":11938,"EDI":11939,"Ġtutorial":11940,"udo":11941,"ĠBroadway":11942,"rich":11943,"Ġwest":11944,"Ġmusicians":11945,"could":11946,"ĠGun":11947,"ĠStays":11948,"Ġparall":11949,"Ġstamping":11950,"Ġinternal":11951,"ĠHoping":11952,"Ġinnov":11953,"Ġregim":11954,"ĠBEC":11955,"Ġhomes":11956,"ĠPlanet":11957,"fits":11958,"Ġunderrated":11959,"Ġpayoff":11960,"Ġintend":11961,"acts":11962,"Ġthousand":11963,"ĠTea":11964,"Ġaggrav":11965,"ĠCustomer":11966,"Ġmotivation":11967,"ĠBry":11968,"ĠBand":11969,"Ġlabor":11970,"ĠCarl":11971,"Ġdeja":11972,"ĠestÃ¡":11973,"ĠPackaging":11974,"Ġservices":11975,"MENT":11976,"Ġtextured":11977,"abr":11978,"Ġlining":11979,"Ġdisrespect":11980,"ĠSilver":11981,"Ġsuits":11982,"ĠLiving":11983,"Ġswipe":11984,"Ġsettled":11985,"61":11986,"ĠMurray":11987,"Ġalter":11988,"Ġdyes":11989,"Ġgear":11990,"Ġbite":11991,"ĠHarris":11992,"Ġhaunted":11993,"Ġstretches":11994,"ĠRing":11995,"Ġorganization":11996,"Ġrecyc":11997,"Ġdevast":11998,"Ġincomplete":11999,"lam":12000,"Ġgaps":12001,"ĠColin":12002,"DON":12003,"ua":12004,"ĠCy":12005,"Ġunderwhel":12006,"Ġhearts":12007,"Ġindicate":12008,"Ġgro":12009,"arantino":12010,"Ġresistance":12011,"Ġsport":12012,"return":12013,"Ġarmpit":12014,"ĠLotion":12015,"ĠEp":12016,"Ġsympathy":12017,"big":12018,"Ġ.....":12019,"urance":12020,"Ġfreezing":12021,"Ġbathtub":12022,"hs":12023,"omination":12024,"ĠBottom":12025,"ĠMiddle":12026,"osis":12027,"Ġcoated":12028,"Ġfluke":12029,"Ġgreed":12030,"ĠTrump":12031,"BC":12032,"Ġmargin":12033,"Ġsources":12034,"Ġfacing":12035,"Ġbru":12036,"ĠYuck":12037,"ĠKay":12038,"bson":12039,"ĠThus":12040,"Ġuniversal":12041,"heart":12042,"Ġpopulation":12043,"Ġimmensely":12044,"Ġconclud":12045,"ðŁı¾":12046,"Ġdestroying":12047,"Ġcreator":12048,"Again":12049,"Ġsuperficial":12050,"Ġnominated":12051,"Ġtitled":12052,"ĠSimple":12053,"ĠEXP":12054,"Ġacknow":12055,"Ġdraws":12056,"ani":12057,"ĠShort":12058,"ĠVolume":12059,"Ġmanly":12060,"ĠPURCHASE":12061,"ĠMount":12062,"opened":12063,"0000":12064,"ĠED":12065,"Ġregards":12066,"Ġantics":12067,"PLETE":12068,"ivea":12069,"Ġfailing":12070,"Ġunderlying":12071,"axy":12072,"Ġpregnancy":12073,"fire":12074,"ĠKit":12075,"Dry":12076,"greasy":12077,"ruption":12078,"Ġresulted":12079,"Ġglittery":12080,"ĠIre":12081,"amond":12082,"ĠFreeman":12083,"his":12084,"iable":12085,"Ġbreeze":12086,"Ġplants":12087,"Ġactivities":12088,"ĠSHOULD":12089,"ographer":12090,"Ġlifeless":12091,"ĠAveeno":12092,"Ġcyn":12093,"ĠEmp":12094,"ĠSEASON":12095,"Ġdeceptive":12096,"58":12097,"Cool":12098,"Ġexplicit":12099,"nel":12100,"Ġcherry":12101,"Ġirritates":12102,"Ġcontinuously":12103,"odge":12104,"ĠWait":12105,"Ġplausible":12106,")...":12107,"Ġgender":12108,"Ġminiseries":12109,"Ġsanitizer":12110,"Ġrhinestones":12111,"Ġdewy":12112,"Ġplum":12113,"Ġresolve":12114,"Ġroughly":12115,"Ġfolk":12116,"Ġstainless":12117,"ĠWat":12118,"Ġfills":12119,"www":12120,"thought":12121,"Ġyours":12122,"Ġclassy":12123,"Ġmanicures":12124,"UD":12125,"dc":12126,"Ġtune":12127,"Ġcoinc":12128,"ĠPLAY":12129,"Ġrefuses":12130,"Dislike":12131,"Ġupsetting":12132,"Ġreddish":12133,"Ġrestoration":12134,"Ġrival":12135,"ĠSTARS":12136,"Ġoperate":12137,"Ġcocoa":12138,"Ġstole":12139,"ĠStand":12140,"Ġdrawback":12141,"tainment":12142,"ĠEnough":12143,"fest":12144,"Ġfence":12145,"Ġperformers":12146,"arned":12147,"Ġhabit":12148,"Ġskinny":12149,"ĠCertainly":12150,"role":12151,"ĠUltra":12152,"Little":12153,"ĠBD":12154,"umsy":12155,"ĠLash":12156,"sen":12157,"ĠCriterion":12158,"ĠPa":12159,"Ġesper":12160,"Ġmaint":12161,"Ġthreads":12162,"Ġsnug":12163,"ĠFusion":12164,"ulls":12165,"rett":12166,"Ġpiercing":12167,"buy":12168,"idal":12169,"eek":12170,"Ġeffic":12171,"leck":12172,"Ġtires":12173,"Ġdealt":12174,"Ġdisgu":12175,"cerin":12176,"ĠALWAYS":12177,"ĠMiner":12178,"Ġlaunch":12179,"Ġgangster":12180,"Ġpity":12181,"ĠPear":12182,"FORE":12183,"Ġprocessed":12184,"adget":12185,"Ġsoftens":12186,"issa":12187,"ĠBurns":12188,"Ġchoreography":12189,"Ġvisiting":12190,"Ġhonesty":12191,"Ġprofessor":12192,"Ġsufficient":12193,"veloped":12194,"ĠBrazil":12195,"anship":12196,"Ġbackdr":12197,"Ġbedroom":12198,"AIL":12199,"ĠGil":12200,"ĠAst":12201,"olver":12202,"ĠSimon":12203,"Ġbleaching":12204,"hop":12205,"rob":12206,"ioned":12207,"Yeah":12208,"Ġpants":12209,"ĠSix":12210,"ĠCoc":12211,"Ġclin":12212,"ĠANYTHING":12213,"Ġunconv":12214,"Hey":12215,"Ġpoured":12216,"ĠMAC":12217,"Ġ27":12218,"ĠEXTREMELY":12219,"db":12220,"Ġfroze":12221,"Ġwholesome":12222,"Ġredo":12223,"greens":12224,"Ġroutines":12225,"Ġdetermine":12226,"ubs":12227,"Ġdot":12228,"Ġtranslation":12229,"ĠNol":12230,"Ġdiamond":12231,"amous":12232,"horrible":12233,"acky":12234,"Ġentry":12235,"Ġchemically":12236,"Ġapoc":12237,"Ġveteran":12238,"FT":12239,"such":12240,"icion":12241,"Ġjail":12242,"Ġsubpar":12243,"Ġbacter":12244,"omic":12245,"Ugh":12246,"Ġdeaths":12247,"Ġexisting":12248,"gal":12249,"ieving":12250,"Ġroses":12251,"Ġbreathe":12252,"Ġinspirational":12253,"Ġdragon":12254,"function":12255,"pire":12256,"Ġunlikable":12257,"lace":12258,"ĠNational":12259,"Ġrecon":12260,"Glad":12261,"irable":12262,"Ġbreathtaking":12263,"Ġmelting":12264,"ĠReeves":12265,"Ġdrown":12266,"07":12267,"Ġsummary":12268,"Ġcens":12269,"Ġpowered":12270,"Ġjewelry":12271,"Ġ2001":12272,"Ġrubbish":12273,"Ġhollywood":12274,"amaged":12275,"Ġcleansers":12276,"ĠHawaii":12277,"adays":12278,"Ġblotchy":12279,"ĠCas":12280,"Ġmanne":12281,"Ġfiance":12282,"ota":12283,"Ġbreathing":12284,"oub":12285,"Ġpause":12286,"Ġsung":12287,"Ġcrisis":12288,"ĠSir":12289,"awful":12290,"Package":12291,"Note":12292,"aited":12293,"adian":12294,"Ġ300":12295,"Ġextensive":12296,"fight":12297,"etically":12298,"Ġeyeliners":12299,"Ġsteady":12300,"mery":12301,"Ġachieved":12302,"dad":12303,"ueless":12304,"ĠðŁĺŀ":12305,"ĠTurns":12306,"dog":12307,"Ġsupplier":12308,"Ġhealed":12309,"Ġlaptop":12310,"Mine":12311,"cool":12312,"Ġelectron":12313,"Ġcarrier":12314,"Ġrank":12315,"Ġeliminate":12316,"ho":12317,"Ġhappiness":12318,"ĠCold":12319,"ĠBarely":12320,"Ġspider":12321,"iane":12322,"Ġappearances":12323,"Ġlegitimate":12324,"Ġsucceed":12325,"Ġconfirm":12326,"ĠFO":12327,"ĠSha":12328,"Ġpowering":12329,"Ġsatisfaction":12330,"Ġneighb":12331,"Ġbacking":12332,"Ġvom":12333,"ĠGross":12334,"Ġmans":12335,"Ġterrifying":12336,"smell":12337,"Ġstumbled":12338,"ĠOthers":12339,"Ġclaiming":12340,"Ġ2013":12341,"Almost":12342,"Ġsings":12343,"Ġadjustment":12344,"Ġdinosaurs":12345,"plots":12346,"Ġraccoon":12347,"Ġcameras":12348,"Ġprepare":12349,"Ġstencils":12350,"Ġmagazine":12351,"ĠAward":12352,"iva":12353,"Ġzippers":12354,"Ġformulaic":12355,"Ġfilmmaking":12356,"Ġphilosophy":12357,"Ġori":12358,"ĠRepublic":12359,"OS":12360,"ĠAlf":12361,"ĠGreg":12362,"ĠCOLOR":12363,"Ġencountered":12364,"Ġdang":12365,"Ġsirve":12366,"Ġillegal":12367,"Ġlun":12368,"ĠGibson":12369,"Ġenorm":12370,"nton":12371,"jection":12372,"Ġnav":12373,"ĠGL":12374,"Ġcomprom":12375,"Ġglitch":12376,"ĠMoisture":12377,"ĠDave":12378,"udic":12379,"ĠWash":12380,"comp":12381,"ivered":12382,"ĠSin":12383,"Ġstaring":12384,"ĠTHEN":12385,"odorant":12386,"ĠSav":12387,"Takes":12388,"Ġbust":12389,"Ġconsuming":12390,"Ġ1000":12391,"Ġcompelled":12392,"Ġabsorbent":12393,"pense":12394,"ĠWhether":12395,"ocking":12396,"oriasis":12397,"Ġzinc":12398,"Ġaddictive":12399,"ĠAustralian":12400,"Ġsenior":12401,"Ġdevelops":12402,"Ġretract":12403,"iance":12404,"IDE":12405,"ĠConne":12406,"mel":12407,"Ġrhy":12408,"plane":12409,"Ġglory":12410,"Ġwidth":12411,"ĠStopped":12412,"ĠHoff":12413,"uesome":12414,"uries":12415,"ĠEy":12416,"thanks":12417,"ĠDRY":12418,"ĠStud":12419,"ĠHob":12420,"Ġslept":12421,"Ġtimer":12422,"Ġactivator":12423,"ĠMind":12424,"Ġsingers":12425,"ĠGordon":12426,"urb":12427,"Ġmiscast":12428,"ternal":12429,"ĠJoseph":12430,"Ġoverse":12431,"ĠDenzel":12432,"atar":12433,"Ġknocked":12434,"Ġwhiskers":12435,"Wouldn":12436,"Ġghosts":12437,"Ġfoolish":12438,"Ġ/>âĢ¢":12439,"iat":12440,"lee":12441,"ĠRef":12442,"ĠWorse":12443,"RR":12444,"aign":12445,"cend":12446,"Ġarrest":12447,"scented":12448,"Ġlayered":12449,"Ġagents":12450,"Ġentirety":12451,"Ġhighlighted":12452,"ective":12453,"maid":12454,"ĠImm":12455,"aha":12456,"anium":12457,"Ġstings":12458,"Ġcatches":12459,"BSOL":12460,"Ġfortune":12461,"Ġneighborhood":12462,"ĠWant":12463,"ĠTarantino":12464,"Ġrips":12465,"ĠBrid":12466,"Ġdomin":12467,"ĠMatch":12468,"ongs":12469,"Bew":12470,"ĠScooby":12471,"ĠREVIEW":12472,"Ġpronoun":12473,"Ġcape":12474,"Ġracing":12475,"ĠSPO":12476,"zed":12477,"ĠLIT":12478,"ĠJulie":12479,"ĠSAME":12480,"Ġaqu":12481,"ĠFE":12482,"estic":12483,"Ġunsatisf":12484,"ĠBarbie":12485,"Ġvirgin":12486,"icole":12487,"Jack":12488,"rio":12489,"Ġinterrupt":12490,"ĠChristianity":12491,"Ġtriumph":12492,"Ġbeast":12493,"Ġprote":12494,"Ġdinero":12495,"LESS":12496,"PR":12497,"Ġrevolution":12498,"Ġbriefly":12499,"Ġgruesome":12500,"ĠActors":12501,"Ġmembership":12502,"ĠMIN":12503,"ĠForce":12504,"found":12505,"Ġjer":12506,"Ġexha":12507,"Ġarth":12508,"ĠIdk":12509,"Ġiconic":12510,"Ġspan":12511,"iley":12512,"Ġarticle":12513,"ounters":12514,"Ġcomedian":12515,"Ġattacks":12516,"âĢľ":12517,"Ġtearing":12518,"check":12519,"En":12520,"bid":12521,"erie":12522,"urai":12523,"Ġscreens":12524,"Ġgam":12525,"graded":12526,"Ġdescriptions":12527,"handed":12528,"ĠPhillips":12529,"aways":12530,"ĠBoys":12531,"Ġnurse":12532,"FU":12533,"Ġhopeless":12534,"Ġtransferred":12535,"ĠVirgin":12536,"Ġargue":12537,"Actually":12538,"Ġbumpy":12539,"ĠDays":12540,"ailable":12541,"alypse":12542,"Fr":12543,"Ġstrings":12544,"roleum":12545,"Ġmit":12546,"Ġfrench":12547,"ĠFan":12548,"Ġexecut":12549,"05":12550,"wow":12551,"ĠSecondly":12552,"oyd":12553,"Ġtechnically":12554,"Ġanswered":12555,"Ġfavourite":12556,"Ġsends":12557,"ĠMG":12558,"ception":12559,"Ġapproved":12560,"ĠLine":12561,"ĠBEFORE":12562,"ĠLu":12563,"Ġregimen":12564,"Ġdura":12565,"ĠCrowe":12566,"ĠCastle":12567,"ĠDolby":12568,"Ġrestaurant":12569,"direct":12570,"ĠIll":12571,"Ġstinging":12572,"uated":12573,"Men":12574,"Ġpurely":12575,"Ġpigmentation":12576,"Ġauthenticity":12577,"ĠCOMPLETE":12578,"Ġamerican":12579,"Ġmejor":12580,"Ġsubjects":12581,"ubrick":12582,"ĠHitler":12583,"Ġcurse":12584,"Ġminty":12585,"Dark":12586,"Ġcere":12587,"Ġworlds":12588,"rite":12589,"ĠStarted":12590,"Ġdots":12591,"ĠVincent":12592,"Ġsync":12593,"stairs":12594,"Ġclumsy":12595,"Ġforgive":12596,"uminous":12597,"ĠHelps":12598,"ĠSpring":12599,"judice":12600,"season":12601,"Ġrer":12602,"Ġrepurchasing":12603,"df":12604,"Ġcouch":12605,"itution":12606,"rizz":12607,"Ġlicense":12608,"ĠMA":12609,"Ġfocusing":12610,"Ġdefense":12611,"Ġjet":12612,"ĠCli":12613,"Ġhol":12614,"ALITY":12615,"oven":12616,")!":12617,"Junk":12618,"ĠWA":12619,"ĠMakeup":12620,"ĠAloe":12621,"Ġsparingly":12622,"Ġavoided":12623,"Ġgrief":12624,"Ġcrooked":12625,"Ġpills":12626,"ARK":12627,"Ġfinancial":12628,"angled":12629,"ionship":12630,"Ġrealizes":12631,"ĠShave":12632,"Ġeditor":12633,"Ġsubsequent":12634,"Cra":12635,"Ġyell":12636,"Ġmuscle":12637,"Ġpim":12638,"Ġbackup":12639,"ediately":12640,"Ġshoots":12641,"OTHER":12642,"Ġoutdated":12643,"tell":12644,"Ġhyal":12645,"?!?":12646,"Ġstilted":12647,"Ġsalts":12648,"undy":12649,"Ġdancers":12650,"Ġmush":12651,"BUT":12652,"Ġabd":12653,"Ġcompens":12654,"atha":12655,"angles":12656,"Ġcycle":12657,"Ġstunts":12658,"ĠRussia":12659,"mons":12660,"Ġfifteen":12661,"IOUS":12662,"eme":12663,"isc":12664,"ĠAlong":12665,"Ġdemons":12666,"ĠEventually":12667,"Ġreply":12668,"Ġward":12669,"Ġcombine":12670,"Ġexceptionally":12671,"Ġpracticing":12672,"believable":12673,";.<":12674,"Ġbol":12675,"hhh":12676,"84":12677,"ĠEmily":12678,"Ġimaginative":12679,"iter":12680,"Ġpages":12681,"Ġdesigner":12682,"Ġbullet":12683,"agement":12684,"ĠHammer":12685,"Ġmiserably":12686,"OY":12687,"ados":12688,"inder":12689,"ĠOper":12690,"Ġimitation":12691,"Ġsurreal":12692,"Ġboredom":12693,"ðŁĳįðŁĳį":12694,"Ġcredibility":12695,"iol":12696,"Ġalbeit":12697,"ĠCLE":12698,"Ġdescribes":12699,"Ġresponsibility":12700,"Ġresources":12701,"ĠHeaven":12702,"Ġunsealed":12703,"BSOLUTE":12704,"ĠFresh":12705,"Ġhumour":12706,"Ġank":12707,"ĠAud":12708,"Ġlipgloss":12709,"Top":12710,"emies":12711,"ĠMexican":12712,"Ġnaive":12713,"Ġstir":12714,"ĠStop":12715,"ĠService":12716,"ĠKennedy":12717,"Ġnick":12718,"ĠBog":12719,"Ġbackwards":12720,"Ġcardio":12721,"Ġencanta":12722,"ĠLeslie":12723,"Based":12724,"Gift":12725,"fo":12726,"hist":12727,"ĠAV":12728,"Ġfirmly":12729,"ĠDennis":12730,"orton":12731,"Ġflattering":12732,"Ġreminder":12733,"arents":12734,"angel":12735,"Ġfifth":12736,"Op":12737,"Ġcram":12738,"Ġdevoted":12739,"Ġaffects":12740,"Ġcompanion":12741,"About":12742,"your":12743,"ĠHoly":12744,"cf":12745,"Ġflag":12746,"ĠKeanu":12747,"Ġmeaningless":12748,"hot":12749,"Ġmatt":12750,"oding":12751,"Ġkeratin":12752,"82":12753,"ĠBottle":12754,"idel":12755,"Ġrainy":12756,"Ġcalming":12757,"rain":12758,"skin":12759,"giving":12760,"Ġsarc":12761,"Ġbush":12762,"istics":12763,"onde":12764,"Ġdevil":12765,"ĠSandler":12766,"://":12767,"Ġspritz":12768,"Ġcriminals":12769,"Michael":12770,"anners":12771,"Completely":12772,"Ġnumb":12773,"Ġaddiction":12774,"Ġodds":12775,"enter":12776,"ĠMed":12777,"Ġemphasis":12778,"ĠMAKE":12779,"ĠClo":12780,"ulas":12781,"Ġpeop":12782,"ĠAbr":12783,"ĠDawn":12784,"ĠFish":12785,"ĠRoad":12786,"Ġchoosing":12787,"Ġsplot":12788,"Ġadaptations":12789,"Ġslipped":12790,"formers":12791,"ĠSpice":12792,"Ġblatant":12793,"Ġfuss":12794,"Ġinspect":12795,"phant":12796,"WE":12797,"Ġsessions":12798,"Didnt":12799,"ype":12800,"horror":12801,"Ġstruck":12802,"Ġdiscolor":12803,"ĠAndis":12804,"Recommend":12805,"Ġvulner":12806,"Ġsorely":12807,"Cap":12808,"Ġunimp":12809,"ĠSeemed":12810,"ĠGeneral":12811,"Ġnod":12812,"claim":12813,"ĠPoorly":12814,"rin":12815,"Ġpse":12816,"Ġludic":12817,"Edit":12818,"orse":12819,"hell":12820,"Ġdiscl":12821,"ĠHey":12822,"ieves":12823,"oln":12824,"Ġresponded":12825,"cb":12826,"Ġunits":12827,"Ġcrochet":12828,"Beware":12829,"Rem":12830,"Ġpap":12831,"Ġstable":12832,"Ġwheels":12833,"ĠSusan":12834,"Ġhysterical":12835,"ĠTE":12836,"ĠMagic":12837,"Ġdepicts":12838,"prised":12839,"Ġweakness":12840,"Ġappreciation":12841,"ĠRegardless":12842,"SI":12843,"Ġorganize":12844,"ĠMagn":12845,"Ġhazel":12846,"Ġstroke":12847,"ortment":12848,"normal":12849,"Ġinterviewed":12850,"Ġmouse":12851,"Ġlean":12852,"Ġwhis":12853,"Ġpricing":12854,"probably":12855,"Ġgags":12856,"ATER":12857,"Ġimprovements":12858,"Ġnit":12859,"irm":12860,"ĠBravo":12861,"Ġparabens":12862,"fruit":12863,"istically":12864,"Ġengross":12865,"Ġbooklet":12866,"Ġclassical":12867,"Ġappearing":12868,"Ġtense":12869,"ĠVel":12870,"Ġfullness":12871,"Ġroute":12872,"Ġluxury":12873,"Ġbuddy":12874,"UY":12875,"Ġmish":12876,"Ġcolognes":12877,"bearing":12878,"atson":12879,"Ġepil":12880,"Real":12881,"ĠList":12882,"ĠNYX":12883,"Ġsubscribe":12884,"Ġclock":12885,"ighters":12886,"ĠDAY":12887,"Ġtwin":12888,"ĠZone":12889,"Ġlav":12890,"Ġcrush":12891,"Ġveget":12892,"Ġseed":12893,"ĠTalk":12894,"ĠLAST":12895,"ĠCho":12896,"Ġexploded":12897,"Ġreligiously":12898,"ĠMaggie":12899,"Int":12900,"Ġracial":12901,"Ġunderarm":12902,"Ġantagon":12903,"ĠConst":12904,"Each":12905,"arthy":12906,"ĠWERE":12907,"ĠDial":12908,"ĠDonald":12909,"ĠOliver":12910,"Fell":12911,"ĠGer":12912,"ĠKane":12913,"Ġcursing":12914,"Ġpoco":12915,"Ġrevealing":12916,"uation":12917,"People":12918,"Ġbears":12919,"Are":12920,"Ġattend":12921,"alph":12922,"Ġrecognized":12923,"paced":12924,"Ġwishing":12925,"ĠKer":12926,"Ġwherever":12927,"%.":12928,"Ġhokey":12929,"Bottom":12930,"ĠWere":12931,"94":12932,"ĠFalse":12933,"ĠEND":12934,"ĠfÃ¡cil":12935,"ĠPix":12936,"Ġdelivering":12937,"ĠMichelle":12938,"Ġfingernail":12939,"ĠMajor":12940,"ĠBlur":12941,"Ġjeal":12942,"Ġlists":12943,"Ġhearted":12944,"ĠCovid":12945,"ĠMOV":12946,"Ġbias":12947,"aware":12948,"Ġperiods":12949,"ĠHATE":12950,"Ġconsumers":12951,"Ġgradually":12952,"acon":12953,"Ġincompet":12954,"Omg":12955,"organ":12956,"Ġbridge":12957,"Ġbadger":12958,"ĠStraight":12959,"Ġcowboy":12960,"Ġbutch":12961,"ĠKubrick":12962,"Est":12963,"ĠGre":12964,"Ġvolumes":12965,"Ġdefine":12966,"Ġpsoriasis":12967,"ĠWTF":12968,"Ġfewer":12969,"Ġrevis":12970,"itual":12971,"Ġheadaches":12972,"Ġhairbrush":12973,"Ġwhats":12974,"Ġinterior":12975,"01":12976,"ĠHood":12977,"ĠEP":12978,"Ġclumped":12979,"Ġuninspired":12980,"ĠSN":12981,"Ġoriginality":12982,"hem":12983,"ĠTher":12984,"ĠWolf":12985,"Ġcalluses":12986,"Ġsnaps":12987,"Ġstealing":12988,"Ġtheories":12989,"Weird":12990,"Ġhints":12991,"ĠRoyal":12992,"Ġsmelt":12993,"ĠComedy":12994,"Ġfave":12995,"Ġwis":12996,"Ġclearer":12997,"ĠHoffman":12998,"door":12999,"ĠLiam":13000,"Ġcentered":13001,"Ġmesmer":13002,"asmine":13003,"utch":13004,"Ġreverse":13005,"ĠGly":13006,"Ġoverrated":13007,"lication":13008,"Ġoverhe":13009,"ĠSTAR":13010,"blade":13011,"Ġobserv":13012,"mins":13013,"ser":13014,"ĠWig":13015,"Ġbrun":13016,"acc":13017,"Ġoblig":13018,"ĠApple":13019,"Ġcomfy":13020,"Ġdepos":13021,"Ġtremendously":13022,"Ġcontrolled":13023,"Ġwarehouse":13024,"ottles":13025,"Ġhydrate":13026,"ĠMostly":13027,"Ġsplitting":13028,"ĠAcid":13029,"Ġenhanced":13030,"ĠGOD":13031,"ĠLOTR":13032,"ĠThick":13033,"aneously":13034,"ĠPay":13035,"Ġassault":13036,"Ġsucker":13037,"Ġcomprar":13038,"MAN":13039,"Ġfunctions":13040,"Ġtossing":13041,"Ġconcentrated":13042,"Ġexclusively":13043,"anting":13044,"Ġgrass":13045,"ĠRedford":13046,"amil":13047,"Ġkicks":13048,"Ġneatly":13049,"Ġreceipt":13050,"Ġpotent":13051,"Ġgarage":13052,"irot":13053,"Ġjazz":13054,"sorry":13055,"Ġsmudging":13056,"ĠWhoever":13057,"Ġdoctors":13058,"enjoy":13059,"Ġspr":13060,"Av":13061,"oning":13062,"Ġgadget":13063,"Ġhavent":13064,"ĠNivea":13065,"feld":13066,"Ġpearl":13067,"Ġbugs":13068,"Ġcompre":13069,"Ġsignature":13070,"Box":13071,"olving":13072,"Ġdecently":13073,"ĠNavy":13074,"Ġassortment":13075,"Ġdissapoint":13076,"Ġstrawberry":13077,"ĠOTHER":13078,"Ġfingert":13079,"Ġreaches":13080,"Mr":13081,"Ġdancer":13082,"EEL":13083,"integr":13084,"Ġtar":13085,"ĠFAR":13086,"Ġpharm":13087,"Ġstinker":13088,"96":13089,"LI":13090,"ĠDer":13091,"ĠGreek":13092,"Ġconfront":13093,"incoln":13094,"balls":13095,"Ġdiscontinue":13096,"hum":13097,"Ġje":13098,"Ġinept":13099,"uled":13100,"Ġadjusted":13101,"Ġcampaign":13102,"Ġdubbing":13103,",&":13104,"writing":13105,"Ġyard":13106,"Ġtolerable":13107,"Ġyelling":13108,"Ġcaptain":13109,"ĠSTORY":13110,"Ġcitizens":13111,"oops":13112,"ĠNC":13113,"Ġunst":13114,"Ġprofit":13115,"Ġindication":13116,"Ġsparkles":13117,"ĠIra":13118,"ĠiT":13119,"Ġdripping":13120,"Ġcigare":13121,"CKS":13122,"Ġangst":13123,"Ġinfection":13124,"Ġrecipe":13125,"Ġanniversary":13126,"ĠRain":13127,"Ġelbows":13128,"86":13129,"vity":13130,"Ġjojoba":13131,"Ġdiscovery":13132,"Try":13133,"Wrong":13134,"ĠSummer":13135,"Ġstrictly":13136,"Ġate":13137,"Ġnowadays":13138,"unction":13139,"!!!!<":13140,"Ġashy":13141,"Ġtele":13142,")]]":13143,"much":13144,"Ġbounce":13145,"ĠLeave":13146,"Ġabsorbing":13147,"ĠMADE":13148,"Ġconsists":13149,"ĠCOVID":13150,"ĠFrankenstein":13151,"Ġmannequin":13152,"ĠWes":13153,"Ġtrees":13154,"Ġoccurs":13155,"ĠCC":13156,"osol":13157,"icals":13158,"Ġinvasion":13159,"Ġguts":13160,"Ġshaping":13161,"Ġrooting":13162,"Ġreordered":13163,"better":13164,"rad":13165,"Ġtick":13166,"ĠConnery":13167,"dri":13168,"ĠJay":13169,"resses":13170,"ĠBattle":13171,"ĠIan":13172,"ĠFu":13173,"Ġlightest":13174,"?),":13175,"Ġbeer":13176,"Ġposter":13177,"Ġfunciona":13178,"illion":13179,"Picture":13180,"Ġresort":13181,"ference":13182,"TT":13183,"dep":13184,"Ġbending":13185,"ĠSandra":13186,"Ġtoenail":13187,"ĠCurt":13188,"ĠBarbara":13189,"ĠEmpire":13190,"idents":13191,"ĠFood":13192,"Ġharden":13193,"ĠJustice":13194,"Ġbasement":13195,"Ġlegacy":13196,"ĠBECAUSE":13197,"76":13198,"onut":13199,"Ġretire":13200,"Ġimplausible":13201,"Ġarthrit":13202,"Ġsewn":13203,"ĠNails":13204,"existent":13205,"Ġhyaluronic":13206,"ĠLam":13207,"Ġknee":13208,"Ġdeciding":13209,"ixed":13210,"................":13211,"ĠBattery":13212,"Ġmaximum":13213,"ĠHansen":13214,"LES":13215,"Ġcharacterization":13216,"pha":13217,"Ġstrike":13218,"Ġhay":13219,"ĠDur":13220,"ousing":13221,"Ġengage":13222,"Ġsimplistic":13223,"ussed":13224,"ĠBeck":13225,"Ġromp":13226,"Black":13227,"Ġplod":13228,"Ġtwisting":13229,"ĠJar":13230,"Ġattacked":13231,"BT":13232,"Ġhilar":13233,"Ġ/>--":13234,"Ġlingering":13235,"NE":13236,"die":13237,"Ġ2010":13238,"ĠTweez":13239,"documentary":13240,"ĠBrooks":13241,"Ġpeoples":13242,"two":13243,"Ġeasiest":13244,"robe":13245,"Ġunfair":13246,"ĠAngeles":13247,"âŃĲï¸ıâŃĲï¸ı":13248,"Te":13249,"run":13250,"ĠAri":13251,"ivors":13252,"ĠCanadian":13253,"Ġincreasingly":13254,"Ġdisplays":13255,"Ġcommentaries":13256,"Watching":13257,"cs":13258,"Ġaccounts":13259,"PRO":13260,"edge":13261,"ima":13262,"Ġmoderate":13263,"itate":13264,"ĠWrit":13265,"ĠHo":13266,"Ġeditions":13267,"Ġ/>[[":13268,"Ġsmh":13269,"ĠTerminator":13270,"ĠEntertainment":13271,"wax":13272,"Ġtimeline":13273,"Ġoperation":13274,"ĠGoogle":13275,"~~":13276,"Ġhistoric":13277,"Ġster":13278,"ĠDaughter":13279,"Ġgrabs":13280,"Ġsecrets":13281,"professional":13282,"ĠUr":13283,"Ġunderstandable":13284,"ĠHum":13285,"Ġschedule":13286,"Show":13287,"ĠSweet":13288,"ĠCarp":13289,"ĠHARD":13290,"Ġbeneath":13291,"Ġacrylics":13292,"ĠAffleck":13293,"Ġbackdrop":13294,"igning":13295,"Ġassembly":13296,"ingu":13297,"Ġtabs":13298,"Cheaply":13299,"ĠObama":13300,"Dried":13301,"oen":13302,"ĠLavender":13303,"ĠConsidering":13304,"immer":13305,"ĠWhit":13306,"Ġprogramming":13307,"73":13308,"Ġweave":13309,"ĠPoint":13310,"Ġmisrepres":13311,"ĠClooney":13312,"74":13313,"CD":13314,"anie":13315,"USH":13316,"ĠSD":13317,"ĠMain":13318,"Ġadvised":13319,"bu":13320,"Ġdrew":13321,"Ġego":13322,"Ġblunt":13323,"Bat":13324,"ĠDries":13325,"ĠRiver":13326,"Ġ1080":13327,"ĠBlair":13328,"ĠInstant":13329,"Ġdramatically":13330,"Ġbraiding":13331,"ozen":13332,"Ġvote":13333,"ĠClass":13334,"ascara":13335,"related":13336,"Ġ120":13337,"Ġtheirs":13338,"Ġpetroleum":13339,"Ġneighbors":13340,"SA":13341,"Ġshout":13342,"Ġfilter":13343,"Ġfragan":13344,"Ġstranger":13345,"show":13346,"Ġtransport":13347,"human":13348,"lined":13349,"Ġcuss":13350,"edar":13351,"Ġshowered":13352,"Ġshimmery":13353,"itled":13354,"ĠEdge":13355,"Ġdata":13356,"irley":13357,"power":13358,"ĠYears":13359,"Ġsharper":13360,"Unless":13361,"ĠMGM":13362,"ĠMoroc":13363,"another":13364,"Ġcrumbled":13365,"annels":13366,"Ġcrossed":13367,"llar":13368,"ala":13369,"ĠMey":13370,"Ġkillers":13371,"Ġjack":13372,"Ġjoint":13373,"Ġ1930":13374,"ĠMickey":13375,"Ġparties":13376,"ASTIC":13377,"IZ":13378,"pending":13379,"ĠKent":13380,"ĠWatson":13381,"aped":13382,"Ġdeadly":13383,"ĠJesse":13384,"ucing":13385,"Ġmusky":13386,"Ġaston":13387,"same":13388,"Ġbacks":13389,"Ġhyped":13390,"Ġgimmick":13391,"Using":13392,"Ġpiano":13393,"ĠChuck":13394,"Ġaccompan":13395,"xter":13396,"Ġdove":13397,"Ġfrozen":13398,"Ġdehydr":13399,"Ġshy":13400,"Ġbacteria":13401,"Ġmos":13402,"ĠFall":13403,"Ġspeeds":13404,"Ġtroubled":13405,"Ġ00":13406,"amazon":13407,"Ġoverbearing":13408,"ĠSeeing":13409,"ĠFX":13410,"aka":13411,"Ġfiled":13412,"Ġhomage":13413,"Ġinstr":13414,"Ġdisgrace":13415,"ĠWalking":13416,"Ġsqueezed":13417,"Ġpimple":13418,"Ġchasing":13419,"Ġindicates":13420,"Ġopportun":13421,"wl":13422,"Ġreusable":13423,"Ġdysfunctional":13424,"93":13425,"Ġthigh":13426,"ĠBeard":13427,"Ġhazard":13428,"strong":13429,"ĠMason":13430,"Ġproperty":13431,"Ãºper":13432,"Ġstaged":13433,"inations":13434,"Ġreapplying":13435,"TO":13436,"ĠBush":13437,"Ġtile":13438,"Ġneedle":13439,"ĠAliens":13440,"Ġpatchouli":13441,"Ġinconsist":13442,"Ġbiblical":13443,"Ġfue":13444,"ĠShaving":13445,"ĠWalgreens":13446,"Ġmotorcy":13447,"Ġjuice":13448,"Ġrendering":13449,"Ġexplored":13450,"Ġnauseating":13451,"ĠScarlet":13452,"Ġgrandp":13453,"Ġ95":13454,"ĠJews":13455,"het":13456,"ĠHoney":13457,"Ġnarc":13458,"83":13459,"Ġnotable":13460,"Ġroyal":13461,"ĠMacy":13462,"Ġseams":13463,"Ġworker":13464,"available":13465,"Ġindul":13466,"Ġmentions":13467,"ĠBroke":13468,"Ġconservative":13469,"ATH":13470,"Ġstunk":13471,"ĠScot":13472,"Ġcowork":13473,"Ġhairstyle":13474,"Ġpresum":13475,"Ġheavenly":13476,"Ġfundament":13477,"ĠBORING":13478,"Ġlime":13479,"Ġtrio":13480,"Ġvibration":13481,"prov":13482,"ĠQUALITY":13483,"Ġprescription":13484,"omeday":13485,"ĠCrystal":13486,"Ve":13487,"Ġsher":13488,"ĠAss":13489,"Ġbuffer":13490,"ĠMess":13491,"Ġminded":13492,"ĠHate":13493,"ĠTam":13494,"Ġbrick":13495,"Ġbeards":13496,"Ġaunt":13497,"Ġpride":13498,"urassic":13499,"Ġcham":13500,"writers":13501,"Ġaltered":13502,"Ġludicrous":13503,"viet":13504,"Ġscoop":13505,"Ġlargest":13506,"Ġportra":13507,"came":13508,"Ġsappy":13509,"Ġugh":13510,"ĠBud":13511,"arting":13512,"ĠSomehow":13513,"Ġtoning":13514,"ĠMeanwhile":13515,"Ġeyeshadows":13516,"ĠCentury":13517,"Absolute":13518,"ĠPic":13519,"Ġadher":13520,"Ġsandpaper":13521,"plex":13522,"eller":13523,"!!!!!!!!!!!!!!!!":13524,"Ġprogresses":13525,"ĠNicole":13526,"psy":13527,"Ġundertone":13528,"Ġsharpener":13529,"ĠDu":13530,"feel":13531,"ĠRa":13532,"athon":13533,"Ġpee":13534,"Ġcomedians":13535,"ersonal":13536,"ĠJudy":13537,"ĠBeatles":13538,"Ġheading":13539,"Ġastron":13540,"creat":13541,"Ġspecies":13542,"Ġtiemp":13543,"ĠThornton":13544,"Something":13545,"kill":13546,"Three":13547,"ucumber":13548,"Ġoverlooked":13549,"ĠMOVIES":13550,"ĠYoga":13551,"obic":13552,"Ġdefend":13553,"Ġ1940":13554,"Ġzoom":13555,"Ġantib":13556,"Ġcryst":13557,"72":13558,"ĠAlbert":13559,"Quick":13560,"Ġintentionally":13561,"Ġparticles":13562,"ĠWhole":13563,"ĠCatherine":13564,"ĠFragrance":13565,"ĠWeird":13566,"Ġloser":13567,"ĠBritain":13568,"ageable":13569,"opsis":13570,"ĠTeam":13571,"ĠPoirot":13572,"Ġcrayon":13573,"aust":13574,"Ġlem":13575,"ĠMia":13576,"Ġcrusty":13577,"Ġelectrical":13578,"Ġoverseas":13579,"Ġsuspicious":13580,"ĠllegÃ³":13581,"Ive":13582,"lol":13583,"Ġappoint":13584,"Ġfaux":13585,"Basically":13586,"AV":13587,"Ġadmire":13588,"92":13589,"Ġrepresents":13590,"ðŁĳİðŁĳİ":13591,"IO":13592,"Ġcoast":13593,"Ġcopper":13594,"ĠForget":13595,"ensible":13596,"Ġtravest":13597,"ylist":13598,"Ġkicked":13599,"entric":13600,"Ġpatri":13601,"ĠDue":13602,"ĠDIY":13603,"Ġadapted":13604,"ĠHulk":13605,"rea":13606,"struct":13607,"iversity":13608,"Red":13609,"icop":13610,"Ġweaker":13611,"DY":13612,"Ġprecio":13613,"ĠJake":13614,"ĠFits":13615,"Ġcontacting":13616,"Ġretain":13617,"Ġsouthern":13618,"undant":13619,"levant":13620,"ĠFeel":13621,"ILY":13622,"ĠiTunes":13623,"sur":13624,"itters":13625,"Ġcoach":13626,"Ġfiner":13627,"eeee":13628,"ĠKorea":13629,"DA":13630,"hel":13631,"Ġhardened":13632,"ĠBEEN":13633,"Ġdoors":13634,"Ġflare":13635,"Ġfreshly":13636,"Ġamongst":13637,"ĠUFO":13638,"Ġunsatisfied":13639,"Ġeggs":13640,"Ġmice":13641,"Ġdating":13642,"Ġdiverse":13643,"ĠMaking":13644,"Ġproceed":13645,"ĠState":13646,"isma":13647,"Ġcruise":13648,"pisodes":13649,"ĠRogers":13650,"biased":13651,"antasy":13652,"Ġstickiness":13653,"None":13654,"Beaut":13655,"Original":13656,"onel":13657,"ĠCart":13658,"Ġwishes":13659,"Ġobsession":13660,"Ġmigra":13661,"ulpt":13662,"Ġofficers":13663,"Typical":13664,"Ġinco":13665,"ĠLeague":13666,"Ġclumping":13667,"Ġadapter":13668,"Ġeucalyptus":13669,"...)":13670,"ĠNeil":13671,"Ġadjusting":13672,"must":13673,"ĠField":13674,"wear":13675,"Ġyouthful":13676,"lec":13677,"Ġuseable":13678,"Ġclues":13679,"Ġmoder":13680,"ĠFilms":13681,"ĠThrones":13682,"ĠDuke":13683,"ĠBUR":13684,"ianc":13685,"Ġinevitable":13686,"Ġplatform":13687,"Ġbones":13688,",,,":13689,"ĠLynch":13690,"Ġdear":13691,"ĠEM":13692,"ggage":13693,"Ġheartfelt":13694,"Ġtendency":13695,"Ġdisapointed":13696,"Ġhid":13697,"Ġenemies":13698,"Ġdragging":13699,"Ġteachers":13700,"Ġtiempo":13701,"slow":13702,"uburn":13703,"ĠHopkins":13704,"Full":13705,"ĠDefin":13706,"ĠMorse":13707,"credibly":13708,"Pol":13709,"ĠThin":13710,"oducing":13711,"igo":13712,"54":13713,"Ġhaircuts":13714,"ĠTerry":13715,"ĠGarbage":13716,"Ġdivine":13717,"52":13718,"Ġpose":13719,"Ġdipping":13720,"etaph":13721,"Ġchannels":13722,"ĠFYI":13723,"Ġlandscape":13724,"Ġinconvenient":13725,"CW":13726,"iew":13727,"abled":13728,"ĠJulian":13729,"Ġletdown":13730,"Ġriver":13731,"ĠFlash":13732,"ĠVampire":13733,"Ġpiv":13734,"ĠTOT":13735,"ĠGrey":13736,"Ġterrit":13737,"ĠClear":13738,"Ġburied":13739,"Ġsenses":13740,"Price":13741,"Ġmala":13742,"Kinda":13743,"Predictable":13744,"ĠLincoln":13745,"ĠBluRay":13746,"ĠOrange":13747,"ulsive":13748,"AUT":13749,"Ġtire":13750,"ĠFREE":13751,"Ġhire":13752,"Ġvisits":13753,"ĠðŁĺĤ":13754,"Ġfoils":13755,"Ġdice":13756,"Ġmorality":13757,"ICT":13758,"Ġwealth":13759,"Ġsprink":13760,"Ġfreezes":13761,"Ġvhs":13762,"ĠJO":13763,"ĠProt":13764,"looks":13765,"Ġhouses":13766,"Ġshook":13767,"Ġluggage":13768,"Smelled":13769,"ĠStri":13770,"bye":13771,"Ġraving":13772,"Ġdeterg":13773,"asia":13774,"Ġforcing":13775,"Ġbuys":13776,"âĢ¦..":13777,"ermans":13778,"Ġwrinkle":13779,"ĠSKIN":13780,"Favorite":13781,"ĠBourne":13782,"Ġoptim":13783,"ths":13784,"itched":13785,"Ġluckily":13786,"Ġinserted":13787,"ĠLas":13788,"Ġstyl":13789,"ILERS":13790,"brow":13791,"ersed":13792,"Ġupright":13793,"need":13794,"Ġpossibilities":13795,"Ġsystems":13796,"Ġbanter":13797,"mates":13798,"pur":13799,"ishment":13800,"ĠTHING":13801,"Ġswive":13802,"Ġvisited":13803,"ĠHunter":13804,"Ġoutdo":13805,"Ġsadness":13806,"impy":13807,"ĠUseless":13808,"Ġ36":13809,"asses":13810,"ĠðŁĺĶ":13811,"ĠImpossible":13812,"Ġnap":13813,"ĠLanc":13814,"Ġbutterfly":13815,"Ġheel":13816,"apid":13817,"however":13818,"Ġmotivations":13819,"ĠInspector":13820,"Ġexaggerated":13821,"Ġom":13822,"Ġpartial":13823,"Ġvocal":13824,"Ġbirds":13825,"Ġclueless":13826,"comes":13827,"ĠNazis":13828,"igent":13829,"Ġcontrad":13830,"green":13831,"word":13832,"ĠMI":13833,"Ġcultures":13834,"Ġ2011":13835,"ropriately":13836,"Ġattracted":13837,"Ġbronze":13838,"Ġtwe":13839,"Ġdownfall":13840,"Ġcapacity":13841,"ĠStreep":13842,"erable":13843,"ggy":13844,"Ġprotagonists":13845,"Ġdup":13846,"allone":13847,"Ġphysics":13848,"cca":13849,"Ġscenarios":13850,"ĠAvengers":13851,"ĠIraq":13852,"Ġclaw":13853,"Ġsurvivors":13854,"MY":13855,"ĠBerg":13856,"Ġunopened":13857,"Ġstarred":13858,"Ġdeaf":13859,"Ġsecondary":13860,"Ġreapplied":13861,"Ġprol":13862,"ĠFro":13863,"Ġneedless":13864,"ilarly":13865,"ĠMcCarthy":13866,"ĠBullock":13867,"Ġchases":13868,"izzy":13869,"Ġbout":13870,"Ġdented":13871,"Ġfears":13872,"Ġsurpass":13873,"ĠArch":13874,"ĠMuslim":13875,"Ġanxious":13876,"Ġshel":13877,"Ġsevent":13878,"ĠLisa":13879,"Weak":13880,"Ġrepeating":13881,"Ġtravesty":13882,"ih":13883,"Ġlibert":13884,"covery":13885,"ylon":13886,"etaphil":13887,"Missing":13888,"Ġrect":13889,"Ġ/>#":13890,"ĠCit":13891,"Ġprequel":13892,"Ġdisintegr":13893,"Ġshowc":13894,"Ġmelodrama":13895,"bles":13896,"ĠTour":13897,"Ġmorals":13898,"Ġtrek":13899,"ĠFerrell":13900,"Ġdismiss":13901,"Ġspooky":13902,"Ġinsanely":13903,"ĠBaker":13904,"Ġconsiderably":13905,"ĠMonster":13906,"Your":13907,"Ġflavors":13908,"Cur":13909,"raw":13910,"Ġreuse":13911,"Ġcock":13912,"veda":13913,"appe":13914,"ĠStrange":13915,"...\"":13916,"Ġflowery":13917,"oder":13918,"ults":13919,"Truly":13920,"zen":13921,"ĠMond":13922,"Ġaimed":13923,"Mir":13924,"Ġmessing":13925,"Ġdepression":13926,"Looking":13927,"Ġbaff":13928,"ĠAA":13929,"ĠPete":13930,"Ġhomeless":13931,"Ġcollaps":13932,"Ġpoof":13933,"opic":13934,"Nope":13935,"Ġfetched":13936,"brand":13937,"Ġneur":13938,"Ġconventional":13939,"Ġdre":13940,"ĠJen":13941,"ĠLeg":13942,"iating":13943,"Ġstaining":13944,"ĠFo":13945,"town":13946,"adies":13947,"Ġabused":13948,"Ġreform":13949,"Ġmisunder":13950,"Ġpalettes":13951,"ĠLesson":13952,"otal":13953,"Ġhardcore":13954,"Ġcollecting":13955,"Broken":13956,"arnier":13957,"ĠZe":13958,"aso":13959,"ĠLane":13960,"Ġfilthy":13961,"Ġimmig":13962,"Ġuncut":13963,"urns":13964,"Ġflood":13965,"Ġabsent":13966,"ĠJoel":13967,"rection":13968,"unless":13969,"Special":13970,"Ġhumble":13971,"Ġglosses":13972,"agged":13973,"ĠCour":13974,"ĠTreat":13975,"ĠOly":13976,"Ġpacket":13977,"ĠBreak":13978,"Ġpeque":13979,"ĠYout":13980,"Ġartif":13981,"Ġmornings":13982,"ĠDEFIN":13983,"avid":13984,"Ġformed":13985,"Ġfragancia":13986,"allerg":13987,"ector":13988,"ĠAlexander":13989,"Ġshaky":13990,"ĠMON":13991,"ĠNobody":13992,"ĠFle":13993,"Ġnightly":13994,"Ġposting":13995,"Ġfurn":13996,"Ġsquirt":13997,"WOW":13998,"Ġshr":13999,"Ġjac":14000,"Ġpermanently":14001,"quisite":14002,"NG":14003,"Ġcert":14004,"ĠDiana":14005,"Ġprofessionals":14006,"rup":14007,"Ġsigned":14008,"Ġheroic":14009,"Ġresearching":14010,"ĠWORKS":14011,"Ġbes":14012,"Ġsmooths":14013,"Ġbaths":14014,"hesive":14015,"Found":14016,"ker":14017,"ĠFind":14018,"Ġheartbreaking":14019,"ĠDiane":14020,"Ġangel":14021,"Ġcautious":14022,"Ġscifi":14023,"Dr":14024,"cream":14025,"Ġmac":14026,"Ġsecured":14027,"Ġbehold":14028,"should":14029,"Ġcompares":14030,"ĠHOT":14031,"ĠBeach":14032,"Ġedgy":14033,"ounting":14034,"ĠHep":14035,"Ġgrandfather":14036,"Ġ2008":14037,"Ġconfirmed":14038,"alyptic":14039,"Ġenormous":14040,"Ġmand":14041,"Ġcostly":14042,"Ġteams":14043,"ĠValent":14044,"mus":14045,"rapped":14046,"una":14047,"Ġmanager":14048,"orman":14049,"Ġswelling":14050,"uer":14051,"Ġsatisfy":14052,"Ġpoke":14053,"arby":14054,"Ġencounters":14055,"Ġmiracles":14056,"Ġcouples":14057,"):":14058,"thick":14059,"Ġspilling":14060,"Ġgripe":14061,"Ġurban":14062,"Ġuso":14063,"ĠTen":14064,"Ġgreedy":14065,"Ġmentioning":14066,"Ġassembled":14067,"ĠCampbell":14068,"entation":14069,"ĠPred":14070,"alog":14071,"Ġpatients":14072,"has":14073,"Ġsynd":14074,"Ġdigit":14075,"athetic":14076,"Ġwarmth":14077,"Ġblockbuster":14078,"!)<":14079,"hr":14080,"HE":14081,"ione":14082,"Ġ29":14083,"Ġraunchy":14084,"ĠComb":14085,"Ġdimension":14086,"Ġlicensed":14087,"Ġsupplement":14088,"Ġfactual":14089,"ĠNeeson":14090,"ĠLastly":14091,"Ġpanic":14092,"ĠðŁ¤·":14093,"Ġhairstylist":14094,"hrs":14095,"Ġalle":14096,"ĠDy":14097,"ourney":14098,"Ġguilt":14099,"Ġimperfections":14100,"Ġcoherent":14101,"watched":14102,"heim":14103,"Ġwisdom":14104,"ĠChild":14105,"ĠPhantom":14106,"ecess":14107,"Ġseals":14108,"Ġrepack":14109,"Ġemergency":14110,"Ġdiversity":14111,"Ġtent":14112,"Ġpersons":14113,"ĠSHE":14114,"Ġdiscern":14115,"Ġexploration":14116,"mbre":14117,"Ġchapters":14118,"mid":14119,"Ġelabor":14120,"Ġdermatitis":14121,"Eng":14122,"aret":14123,"Ġrotating":14124,"ĠTrim":14125,"tion":14126,"ĠAbs":14127,"Ġflatten":14128,"Ġmenthol":14129,"ĠGetting":14130,"Ġanth":14131,"Ġworkers":14132,"ĠChildren":14133,"Hated":14134,"Ġsaturated":14135,"Ġhipp":14136,"ĠFinal":14137,"Ġvirus":14138,"56":14139,"Ġhelicop":14140,"Quite":14141,"Ġtortured":14142,"Action":14143,"Ġdumped":14144,"MM":14145,"Ġupd":14146,"Ġcutters":14147,"through":14148,"Ġloosen":14149,"class":14150,"Eh":14151,"ĠElect":14152,"Ġbarrier":14153,"Ġcamping":14154,"Ġcircular":14155,"ettes":14156,"Lost":14157,"Ġlord":14158,"Ġunlikeable":14159,"Fabulous":14160,"Ġmerc":14161,"ĠFoot":14162,"ĠFonda":14163,"anne":14164,"ĠTenn":14165,"plus":14166,"UNK":14167,"Ġsqueaky":14168,"Ġpseudo":14169,"ormally":14170,"renching":14171,"Ġgranddaughters":14172,"Ġchief":14173,"ĠPain":14174,"Ġexcelente":14175,"ĠLat":14176,"Ġcatchy":14177,"*<":14178,"hl":14179,"Ġreduces":14180,"âĿ¤ï¸ıâĿ¤ï¸ı":14181,"Ġâĺ¹ï¸ı":14182,"otional":14183,"ental":14184,"Ġinexplic":14185,"etti":14186,"Pre":14187,"inyl":14188,"ĠMarc":14189,"Ġmurderer":14190,"Ġfogs":14191,"Ġurge":14192,"ĠAWAY":14193,"ĠBuffy":14194,"Ġreader":14195,"Ġreducing":14196,"Ġobjects":14197,"Ġarrogant":14198,"Ġbathing":14199,"Ġbeaten":14200,"Ġtoothbrush":14201,"ĠDifferent":14202,"ĠCub":14203,"Ġrestore":14204,"ĠCoconut":14205,"Ġschools":14206,"Ġstraps":14207,"ĠVictoria":14208,"53":14209,"Ġsplash":14210,"Ġdates":14211,"$$":14212,"icular":14213,"ĠThing":14214,"Ġslice":14215,"Ġsupported":14216,"Ġmarker":14217,"ĠBa":14218,"ĠORI":14219,"Ġtoddlers":14220,"BSOLUTELY":14221,"Ġpaired":14222,"Ġironic":14223,"ĠConf":14224,"ĠUniverse":14225,"Ġneglect":14226,"Robert":14227,"Ġwarped":14228,"Ġglorious":14229,"ĠFurthermore":14230,"Ob":14231,"car":14232,"Ġevapor":14233,"Ġ150":14234,"Ġinher":14235,"olored":14236,"ffects":14237,"ZZ":14238,"Ġloads":14239,"okay":14240,"Ġmund":14241,"ĠIreland":14242,"Ġligh":14243,"Ġexter":14244,"Ġslave":14245,"Hor":14246,"tery":14247,"Ġpredecess":14248,"Ġcities":14249,"antene":14250,"aused":14251,"ĠKarl":14252,"Ġintim":14253,"Ġcrimp":14254,"ĠAgatha":14255,"ĠBal":14256,"Ġsolutions":14257,"ĠAnything":14258,"kick":14259,"Ġoutfits":14260,"Ġtraff":14261,"iox":14262,"ĠDTS":14263,"Ġunbiased":14264,"Ġmanga":14265,"ĠMirror":14266,"esque":14267,"Ġlore":14268,"Ġavoiding":14269,"Back":14270,"ĠLy":14271,"tf":14272,"ĠFULL":14273,"Ġresur":14274,"Ġhideous":14275,"Ġtiresome":14276,"Ġformal":14277,"atham":14278,"QU":14279,
[...]
